{
  "version": "1.0",
  "truncation": null,
  "padding": null,
  "added_tokens": [
    {
      "id": 0,
      "content": "<|begin_of_text|>",
      "single_word": false,
      "lstrip": false,
      "rstrip": false,
      "normalized": false,
      "special": true
    },
    {
      "id": 1,
      "content": "<|end_of_text|>",
      "single_word": false,
      "lstrip": false,
      "rstrip": false,
      "normalized": false,
      "special": true
    },
    {
      "id": 2,
      "content": "<unk>",
      "single_word": false,
      "lstrip": false,
      "rstrip": false,
      "normalized": false,
      "special": true
    },
    {
      "id": 3,
      "content": "<pad>",
      "single_word": false,
      "lstrip": false,
      "rstrip": false,
      "normalized": false,
      "special": true
    },
    {
      "id": 4,
      "content": "<en>",
      "single_word": false,
      "lstrip": false,
      "rstrip": false,
      "normalized": false,
      "special": true
    },
    {
      "id": 5,
      "content": "<ru>",
      "single_word": false,
      "lstrip": false,
      "rstrip": false,
      "normalized": false,
      "special": true
    },
    {
      "id": 6,
      "content": "<sah>",
      "single_word": false,
      "lstrip": false,
      "rstrip": false,
      "normalized": false,
      "special": true
    }
  ],
  "normalizer": null,
  "pre_tokenizer": {
    "type": "Sequence",
    "pretokenizers": [
      {
        "type": "UnicodeScripts"
      },
      {
        "type": "Punctuation",
        "behavior": "Isolated"
      },
      {
        "type": "Digits",
        "individual_digits": false
      }
    ]
  },
  "post_processor": null,
  "decoder": {
    "type": "Sequence",
    "decoders": [
      {
        "type": "Replace",
        "pattern": {
          "String": "▁"
        },
        "content": " "
      },
      {
        "type": "ByteLevel",
        "add_prefix_space": true,
        "trim_offsets": true,
        "use_regex": true
      }
    ]
  },
  "model": {
    "type": "BPE",
    "dropout": null,
    "unk_token": "<unk>",
    "continuing_subword_prefix": "▁",
    "end_of_word_suffix": null,
    "fuse_unk": false,
    "byte_fallback": false,
    "ignore_merges": false,
    "vocab": {
      "<|begin_of_text|>": 0,
      "<|end_of_text|>": 1,
      "<unk>": 2,
      "<pad>": 3,
      "<en>": 4,
      "<ru>": 5,
      "<sah>": 6,
      "\n": 7,
      " ": 8,
      "!": 9,
      "\"": 10,
      "#": 11,
      "$": 12,
      "%": 13,
      "&": 14,
      "'": 15,
      "(": 16,
      ")": 17,
      "*": 18,
      "+": 19,
      ",": 20,
      "-": 21,
      ".": 22,
      "/": 23,
      "0": 24,
      "1": 25,
      "2": 26,
      "3": 27,
      "4": 28,
      "5": 29,
      "6": 30,
      "7": 31,
      "8": 32,
      "9": 33,
      ":": 34,
      ";": 35,
      "<": 36,
      "=": 37,
      ">": 38,
      "?": 39,
      "@": 40,
      "A": 41,
      "B": 42,
      "C": 43,
      "D": 44,
      "E": 45,
      "F": 46,
      "G": 47,
      "H": 48,
      "I": 49,
      "J": 50,
      "K": 51,
      "L": 52,
      "M": 53,
      "N": 54,
      "O": 55,
      "P": 56,
      "Q": 57,
      "R": 58,
      "S": 59,
      "T": 60,
      "U": 61,
      "V": 62,
      "W": 63,
      "X": 64,
      "Y": 65,
      "Z": 66,
      "[": 67,
      "\\": 68,
      "]": 69,
      "^": 70,
      "_": 71,
      "`": 72,
      "a": 73,
      "b": 74,
      "c": 75,
      "d": 76,
      "e": 77,
      "f": 78,
      "g": 79,
      "h": 80,
      "i": 81,
      "j": 82,
      "k": 83,
      "l": 84,
      "m": 85,
      "n": 86,
      "o": 87,
      "p": 88,
      "q": 89,
      "r": 90,
      "s": 91,
      "t": 92,
      "u": 93,
      "v": 94,
      "w": 95,
      "x": 96,
      "y": 97,
      "z": 98,
      "{": 99,
      "|": 100,
      "}": 101,
      "~": 102,
      "": 103,
      "¡": 104,
      "¢": 105,
      "£": 106,
      "¤": 107,
      "¥": 108,
      "¦": 109,
      "§": 110,
      "¨": 111,
      "©": 112,
      "ª": 113,
      "«": 114,
      "¬": 115,
      "­": 116,
      "®": 117,
      "¯": 118,
      "°": 119,
      "±": 120,
      "²": 121,
      "³": 122,
      "´": 123,
      "µ": 124,
      "¶": 125,
      "·": 126,
      "¸": 127,
      "¹": 128,
      "º": 129,
      "»": 130,
      "¼": 131,
      "½": 132,
      "¾": 133,
      "¿": 134,
      "À": 135,
      "Á": 136,
      "Â": 137,
      "Ã": 138,
      "Ä": 139,
      "Å": 140,
      "Æ": 141,
      "Ç": 142,
      "È": 143,
      "É": 144,
      "Ê": 145,
      "Ë": 146,
      "Ì": 147,
      "Í": 148,
      "Î": 149,
      "Ï": 150,
      "Ð": 151,
      "Ñ": 152,
      "Ò": 153,
      "Ó": 154,
      "Ô": 155,
      "Õ": 156,
      "Ö": 157,
      "×": 158,
      "Ø": 159,
      "Ù": 160,
      "Ú": 161,
      "Û": 162,
      "Ü": 163,
      "Ý": 164,
      "Þ": 165,
      "ß": 166,
      "à": 167,
      "á": 168,
      "â": 169,
      "ã": 170,
      "ä": 171,
      "å": 172,
      "æ": 173,
      "ç": 174,
      "è": 175,
      "é": 176,
      "ê": 177,
      "ë": 178,
      "ì": 179,
      "í": 180,
      "î": 181,
      "ï": 182,
      "ð": 183,
      "ñ": 184,
      "ò": 185,
      "ó": 186,
      "ô": 187,
      "õ": 188,
      "ö": 189,
      "÷": 190,
      "ø": 191,
      "ù": 192,
      "ú": 193,
      "û": 194,
      "ü": 195,
      "ý": 196,
      "þ": 197,
      "ÿ": 198,
      "Ā": 199,
      "ā": 200,
      "Ă": 201,
      "ă": 202,
      "Ą": 203,
      "ą": 204,
      "Ć": 205,
      "ć": 206,
      "Ĉ": 207,
      "ĉ": 208,
      "Ċ": 209,
      "ċ": 210,
      "Č": 211,
      "č": 212,
      "Ď": 213,
      "ď": 214,
      "Đ": 215,
      "đ": 216,
      "Ē": 217,
      "ē": 218,
      "Ĕ": 219,
      "ĕ": 220,
      "Ė": 221,
      "ė": 222,
      "Ę": 223,
      "ę": 224,
      "Ě": 225,
      "ě": 226,
      "Ĝ": 227,
      "ĝ": 228,
      "Ğ": 229,
      "ğ": 230,
      "Ġ": 231,
      "ġ": 232,
      "Ģ": 233,
      "ģ": 234,
      "Ĥ": 235,
      "ĥ": 236,
      "Ħ": 237,
      "ħ": 238,
      "Ĩ": 239,
      "ĩ": 240,
      "Ī": 241,
      "ī": 242,
      "Ĭ": 243,
      "ĭ": 244,
      "Į": 245,
      "į": 246,
      "İ": 247,
      "ı": 248,
      "Ĳ": 249,
      "ĳ": 250,
      "Ĵ": 251,
      "ĵ": 252,
      "Ķ": 253,
      "ķ": 254,
      "ĸ": 255,
      "Ĺ": 256,
      "ĺ": 257,
      "Ļ": 258,
      "ļ": 259,
      "Ľ": 260,
      "ľ": 261,
      "Ŀ": 262,
      "ŀ": 263,
      "Ł": 264,
      "ł": 265,
      "Ń": 266,
      "ń": 267,
      "ņ": 268,
      "ŋ": 269,
      "ō": 270,
      "œ": 271,
      "ř": 272,
      "Ś": 273,
      "ś": 274,
      "Ş": 275,
      "ş": 276,
      "š": 277,
      "Ţ": 278,
      "ũ": 279,
      "ū": 280,
      "ŭ": 281,
      "ů": 282,
      "ų": 283,
      "Ÿ": 284,
      "ź": 285,
      "ż": 286,
      "ž": 287,
      "Ɵ": 288,
      "ơ": 289,
      "ư": 290,
      "ƽ": 291,
      "ǎ": 292,
      "ǐ": 293,
      "ǒ": 294,
      "ǔ": 295,
      "ǧ": 296,
      "ǵ": 297,
      "ț": 298,
      "ȳ": 299,
      "ɐ": 300,
      "ɑ": 301,
      "ɒ": 302,
      "ɔ": 303,
      "ɕ": 304,
      "ə": 305,
      "ɛ": 306,
      "ɜ": 307,
      "ɞ": 308,
      "ɡ": 309,
      "ɣ": 310,
      "ɪ": 311,
      "ɫ": 312,
      "ɬ": 313,
      "ɯ": 314,
      "ɲ": 315,
      "ɵ": 316,
      "ɹ": 317,
      "ɾ": 318,
      "ʁ": 319,
      "ʂ": 320,
      "ʃ": 321,
      "ʊ": 322,
      "ʏ": 323,
      "ʐ": 324,
      "ʒ": 325,
      "ʔ": 326,
      "ʖ": 327,
      "ʧ": 328,
      "ʰ": 329,
      "ʲ": 330,
      "ʷ": 331,
      "ʹ": 332,
      "ʻ": 333,
      "ʼ": 334,
      "ʿ": 335,
      "ˈ": 336,
      "ː": 337,
      "́": 338,
      "̃": 339,
      "̈": 340,
      "̓": 341,
      "͜": 342,
      "͡": 343,
      "Α": 344,
      "Ε": 345,
      "Θ": 346,
      "Ι": 347,
      "Κ": 348,
      "Π": 349,
      "Σ": 350,
      "Υ": 351,
      "Χ": 352,
      "ά": 353,
      "έ": 354,
      "ή": 355,
      "ί": 356,
      "α": 357,
      "β": 358,
      "γ": 359,
      "δ": 360,
      "ε": 361,
      "ζ": 362,
      "η": 363,
      "θ": 364,
      "ι": 365,
      "κ": 366,
      "λ": 367,
      "μ": 368,
      "ν": 369,
      "ξ": 370,
      "ο": 371,
      "π": 372,
      "ρ": 373,
      "ς": 374,
      "σ": 375,
      "τ": 376,
      "υ": 377,
      "φ": 378,
      "χ": 379,
      "ψ": 380,
      "ω": 381,
      "ϊ": 382,
      "ό": 383,
      "ύ": 384,
      "ώ": 385,
      "ϗ": 386,
      "ϙ": 387,
      "ϛ": 388,
      "ϝ": 389,
      "ϡ": 390,
      "ϸ": 391,
      "ϻ": 392,
      "Ё": 393,
      "Ѕ": 394,
      "І": 395,
      "Ї": 396,
      "Ј": 397,
      "А": 398,
      "Б": 399,
      "В": 400,
      "Г": 401,
      "Д": 402,
      "Е": 403,
      "Ж": 404,
      "З": 405,
      "И": 406,
      "Й": 407,
      "К": 408,
      "Л": 409,
      "М": 410,
      "Н": 411,
      "О": 412,
      "П": 413,
      "Р": 414,
      "С": 415,
      "Т": 416,
      "У": 417,
      "Ф": 418,
      "Х": 419,
      "Ц": 420,
      "Ч": 421,
      "Ш": 422,
      "Щ": 423,
      "Ъ": 424,
      "Ы": 425,
      "Ь": 426,
      "Э": 427,
      "Ю": 428,
      "Я": 429,
      "а": 430,
      "б": 431,
      "в": 432,
      "г": 433,
      "д": 434,
      "е": 435,
      "ж": 436,
      "з": 437,
      "и": 438,
      "й": 439,
      "к": 440,
      "л": 441,
      "м": 442,
      "н": 443,
      "о": 444,
      "п": 445,
      "р": 446,
      "с": 447,
      "т": 448,
      "у": 449,
      "ф": 450,
      "х": 451,
      "ц": 452,
      "ч": 453,
      "ш": 454,
      "щ": 455,
      "ъ": 456,
      "ы": 457,
      "ь": 458,
      "э": 459,
      "ю": 460,
      "я": 461,
      "ё": 462,
      "ђ": 463,
      "є": 464,
      "ѕ": 465,
      "і": 466,
      "ї": 467,
      "ј": 468,
      "ћ": 469,
      "ќ": 470,
      "ў": 471,
      "џ": 472,
      "ѣ": 473,
      "ѧ": 474,
      "Ѳ": 475,
      "ѳ": 476,
      "Ҋ": 477,
      "ҋ": 478,
      "Ґ": 479,
      "ґ": 480,
      "ғ": 481,
      "Ҕ": 482,
      "ҕ": 483,
      "җ": 484,
      "ҙ": 485,
      "Қ": 486,
      "қ": 487,
      "ҝ": 488,
      "ҡ": 489,
      "Ң": 490,
      "ң": 491,
      "Ҥ": 492,
      "ҥ": 493,
      "ҧ": 494,
      "ҫ": 495,
      "Ү": 496,
      "ү": 497,
      "ұ": 498,
      "ҷ": 499,
      "ҹ": 500,
      "Һ": 501,
      "һ": 502,
      "ӄ": 503,
      "ӈ": 504,
      "ӊ": 505,
      "ӏ": 506,
      "ӑ": 507,
      "ӗ": 508,
      "ә": 509,
      "ӣ": 510,
      "Ө": 511,
      "ө": 512,
      "ӱ": 513,
      "ӳ": 514,
      "ӹ": 515,
      "Հ": 516,
      "ա": 517,
      "բ": 518,
      "գ": 519,
      "դ": 520,
      "ե": 521,
      "զ": 522,
      "թ": 523,
      "ժ": 524,
      "ի": 525,
      "լ": 526,
      "կ": 527,
      "հ": 528,
      "ղ": 529,
      "մ": 530,
      "յ": 531,
      "ն": 532,
      "շ": 533,
      "ո": 534,
      "պ": 535,
      "ռ": 536,
      "ս": 537,
      "վ": 538,
      "տ": 539,
      "ր": 540,
      "ց": 541,
      "ւ": 542,
      "ְ": 543,
      "ֲ": 544,
      "ֵ": 545,
      "ַ": 546,
      "ָ": 547,
      "ּ": 548,
      "ׁ": 549,
      "א": 550,
      "ב": 551,
      "ג": 552,
      "ד": 553,
      "ה": 554,
      "ו": 555,
      "ז": 556,
      "ח": 557,
      "ט": 558,
      "י": 559,
      "כ": 560,
      "ל": 561,
      "ם": 562,
      "מ": 563,
      "ן": 564,
      "נ": 565,
      "ס": 566,
      "ע": 567,
      "ף": 568,
      "פ": 569,
      "ץ": 570,
      "צ": 571,
      "ק": 572,
      "ר": 573,
      "ש": 574,
      "ת": 575,
      "ײ": 576,
      "،": 577,
      "ء": 578,
      "آ": 579,
      "أ": 580,
      "إ": 581,
      "ئ": 582,
      "ا": 583,
      "ب": 584,
      "ة": 585,
      "ت": 586,
      "ث": 587,
      "ج": 588,
      "ح": 589,
      "خ": 590,
      "د": 591,
      "ذ": 592,
      "ر": 593,
      "ز": 594,
      "س": 595,
      "ش": 596,
      "ص": 597,
      "ض": 598,
      "ط": 599,
      "ظ": 600,
      "ع": 601,
      "غ": 602,
      "ـ": 603,
      "ف": 604,
      "ق": 605,
      "ك": 606,
      "ل": 607,
      "م": 608,
      "ن": 609,
      "ه": 610,
      "و": 611,
      "ى": 612,
      "ي": 613,
      "ً": 614,
      "َ": 615,
      "ّ": 616,
      "پ": 617,
      "چ": 618,
      "ڠ": 619,
      "ک": 620,
      "ڭ": 621,
      "گ": 622,
      "ہ": 623,
      "ۆ": 624,
      "ۇ": 625,
      "ۈ": 626,
      "ۋ": 627,
      "ی": 628,
      "ێ": 629,
      "ې": 630,
      "ە": 631,
      "ई": 632,
      "उ": 633,
      "ए": 634,
      "क": 635,
      "ग": 636,
      "ज": 637,
      "ठ": 638,
      "ण": 639,
      "त": 640,
      "द": 641,
      "ध": 642,
      "न": 643,
      "प": 644,
      "फ": 645,
      "ब": 646,
      "भ": 647,
      "म": 648,
      "य": 649,
      "र": 650,
      "ल": 651,
      "व": 652,
      "श": 653,
      "स": 654,
      "ह": 655,
      "़": 656,
      "ा": 657,
      "ि": 658,
      "ी": 659,
      "ु": 660,
      "े": 661,
      "ै": 662,
      "्": 663,
      "ং": 664,
      "ই": 665,
      "উ": 666,
      "ক": 667,
      "গ": 668,
      "ঠ": 669,
      "ণ": 670,
      "থ": 671,
      "দ": 672,
      "ন": 673,
      "ব": 674,
      "ম": 675,
      "র": 676,
      "ল": 677,
      "া": 678,
      "ী": 679,
      "ু": 680,
      "্": 681,
      "ક": 682,
      "ચ": 683,
      "દ": 684,
      "ન": 685,
      "મ": 686,
      "ર": 687,
      "હ": 688,
      "க": 689,
      "ங": 690,
      "ச": 691,
      "த": 692,
      "ப": 693,
      "ம": 694,
      "ர": 695,
      "ழ": 696,
      "ி": 697,
      "ூ": 698,
      "்": 699,
      "ಕ": 700,
      "ಡ": 701,
      "ನ": 702,
      "್": 703,
      "ก": 704,
      "ค": 705,
      "ง": 706,
      "จ": 707,
      "ช": 708,
      "ญ": 709,
      "ณ": 710,
      "ถ": 711,
      "ท": 712,
      "บ": 713,
      "ภ": 714,
      "ม": 715,
      "ย": 716,
      "ร": 717,
      "ล": 718,
      "ษ": 719,
      "ห": 720,
      "อ": 721,
      "ะ": 722,
      "ั": 723,
      "า": 724,
      "ำ": 725,
      "เ": 726,
      "โ": 727,
      "ใ": 728,
      "ไ": 729,
      "ກ": 730,
      "ງ": 731,
      "ຊ": 732,
      "ຍ": 733,
      "ດ": 734,
      "ຕ": 735,
      "ຖ": 736,
      "ທ": 737,
      "ນ": 738,
      "ບ": 739,
      "ປ": 740,
      "ພ": 741,
      "ລ": 742,
      "ວ": 743,
      "ສ": 744,
      "ະ": 745,
      "າ": 746,
      "ິ": 747,
      "ຸ": 748,
      "ເ": 749,
      "ໄ": 750,
      "ཀ": 751,
      "ཁ": 752,
      "ག": 753,
      "ད": 754,
      "བ": 755,
      "འ": 756,
      "ა": 757,
      "ბ": 758,
      "გ": 759,
      "ე": 760,
      "ვ": 761,
      "ზ": 762,
      "თ": 763,
      "ი": 764,
      "კ": 765,
      "ლ": 766,
      "მ": 767,
      "ნ": 768,
      "ო": 769,
      "რ": 770,
      "ს": 771,
      "ტ": 772,
      "უ": 773,
      "ფ": 774,
      "ღ": 775,
      "შ": 776,
      "ძ": 777,
      "ხ": 778,
      "ჯ": 779,
      "ᐃ": 780,
      "ᑦ": 781,
      "ᓄ": 782,
      "ᠠ": 783,
      "ᠡ": 784,
      "ᠢ": 785,
      "ᠣ": 786,
      "ᠤ": 787,
      "ᠦ": 788,
      "ᠨ": 789,
      "ᠩ": 790,
      "ᠪ": 791,
      "ᠫ": 792,
      "ᠬ": 793,
      "ᠭ": 794,
      "ᠮ": 795,
      "ᠯ": 796,
      "ᠲ": 797,
      "ᠳ": 798,
      "ᠴ": 799,
      "ᠶ": 800,
      "ᠷ": 801,
      "ᠸ": 802,
      "ᠺ": 803,
      "ᵻ": 804,
      "Ḥ": 805,
      "ḥ": 806,
      "ṇ": 807,
      "ṛ": 808,
      "ṣ": 809,
      "ṭ": 810,
      "ạ": 811,
      "ả": 812,
      "ấ": 813,
      "ầ": 814,
      "ẩ": 815,
      "ặ": 816,
      "ế": 817,
      "ề": 818,
      "ệ": 819,
      "ỉ": 820,
      "ị": 821,
      "ồ": 822,
      "ổ": 823,
      "ộ": 824,
      "ờ": 825,
      "ở": 826,
      "ủ": 827,
      "ử": 828,
      "ự": 829,
      "ỵ": 830,
      "ἀ": 831,
      "ἐ": 832,
      "Ἑ": 833,
      "ἠ": 834,
      "ἡ": 835,
      "ἰ": 836,
      "ἶ": 837,
      "Ἰ": 838,
      "ὀ": 839,
      "ὄ": 840,
      "ὅ": 841,
      "Ὅ": 842,
      "ὐ": 843,
      "ὑ": 844,
      "ὴ": 845,
      "ὸ": 846,
      "ᾰ": 847,
      "ῆ": 848,
      "ῖ": 849,
      "ῡ": 850,
      "ῦ": 851,
      "ῶ": 852,
      "​": 853,
      "‍": 854,
      "‎": 855,
      "‐": 856,
      "‒": 857,
      "–": 858,
      "—": 859,
      "―": 860,
      "‘": 861,
      "’": 862,
      "“": 863,
      "”": 864,
      "„": 865,
      "•": 866,
      "…": 867,
      "‬": 868,
      "‰": 869,
      "′": 870,
      "※": 871,
      "‼": 872,
      "⁄": 873,
      "⁉": 874,
      "₁": 875,
      "₂": 876,
      "₣": 877,
      "₤": 878,
      "₽": 879,
      "⃣": 880,
      "←": 881,
      "↑": 882,
      "→": 883,
      "↗": 884,
      "↵": 885,
      "−": 886,
      "⋅": 887,
      "⏰": 888,
      "│": 889,
      "├": 890,
      "┤": 891,
      "▀": 892,
      "▄": 893,
      "█": 894,
      "▌": 895,
      "▐": 896,
      "░": 897,
      "▒": 898,
      "▓": 899,
      "▬": 900,
      "►": 901,
      "◄": 902,
      "◆": 903,
      "●": 904,
      "◡": 905,
      "◤": 906,
      "◥": 907,
      "☀": 908,
      "☃": 909,
      "☄": 910,
      "☎": 911,
      "☔": 912,
      "☕": 913,
      "☘": 914,
      "☝": 915,
      "☠": 916,
      "☹": 917,
      "☺": 918,
      "♀": 919,
      "♂": 920,
      "♊": 921,
      "♌": 922,
      "♍": 923,
      "♏": 924,
      "♐": 925,
      "♓": 926,
      "♡": 927,
      "♥": 928,
      "⚒": 929,
      "⚫": 930,
      "⚽": 931,
      "⚾": 932,
      "⛄": 933,
      "⛩": 934,
      "✅": 935,
      "✈": 936,
      "✊": 937,
      "✋": 938,
      "✌": 939,
      "✍": 940,
      "✒": 941,
      "✞": 942,
      "✨": 943,
      "✪": 944,
      "❓": 945,
      "❖": 946,
      "❗": 947,
      "❣": 948,
      "❤": 949,
      "⬆": 950,
      "⬇": 951,
      "⭐": 952,
      "ⱶ": 953,
      "、": 954,
      "。": 955,
      "《": 956,
      "》": 957,
      "「": 958,
      "」": 959,
      "〖": 960,
      "〗": 961,
      "あ": 962,
      "い": 963,
      "う": 964,
      "え": 965,
      "お": 966,
      "か": 967,
      "が": 968,
      "き": 969,
      "ぎ": 970,
      "く": 971,
      "け": 972,
      "げ": 973,
      "こ": 974,
      "ご": 975,
      "さ": 976,
      "ざ": 977,
      "し": 978,
      "じ": 979,
      "す": 980,
      "ず": 981,
      "せ": 982,
      "そ": 983,
      "ぞ": 984,
      "た": 985,
      "だ": 986,
      "ち": 987,
      "っ": 988,
      "つ": 989,
      "て": 990,
      "で": 991,
      "と": 992,
      "ど": 993,
      "な": 994,
      "に": 995,
      "ね": 996,
      "の": 997,
      "は": 998,
      "ば": 999,
      "ひ": 1000,
      "び": 1001,
      "ぶ": 1002,
      "へ": 1003,
      "ほ": 1004,
      "ま": 1005,
      "み": 1006,
      "む": 1007,
      "め": 1008,
      "も": 1009,
      "ゃ": 1010,
      "や": 1011,
      "ょ": 1012,
      "よ": 1013,
      "ら": 1014,
      "り": 1015,
      "る": 1016,
      "れ": 1017,
      "ろ": 1018,
      "わ": 1019,
      "を": 1020,
      "ん": 1021,
      "ァ": 1022,
      "ア": 1023,
      "ィ": 1024,
      "イ": 1025,
      "ウ": 1026,
      "ェ": 1027,
      "エ": 1028,
      "ォ": 1029,
      "オ": 1030,
      "カ": 1031,
      "ガ": 1032,
      "キ": 1033,
      "ギ": 1034,
      "ク": 1035,
      "グ": 1036,
      "ケ": 1037,
      "ゲ": 1038,
      "コ": 1039,
      "ゴ": 1040,
      "サ": 1041,
      "ザ": 1042,
      "シ": 1043,
      "ジ": 1044,
      "ス": 1045,
      "ズ": 1046,
      "セ": 1047,
      "ゼ": 1048,
      "ソ": 1049,
      "ゾ": 1050,
      "タ": 1051,
      "ダ": 1052,
      "チ": 1053,
      "ッ": 1054,
      "ツ": 1055,
      "テ": 1056,
      "デ": 1057,
      "ト": 1058,
      "ド": 1059,
      "ナ": 1060,
      "ニ": 1061,
      "ネ": 1062,
      "ノ": 1063,
      "ハ": 1064,
      "バ": 1065,
      "パ": 1066,
      "ヒ": 1067,
      "ビ": 1068,
      "ピ": 1069,
      "フ": 1070,
      "ブ": 1071,
      "プ": 1072,
      "ベ": 1073,
      "ペ": 1074,
      "ホ": 1075,
      "ボ": 1076,
      "ポ": 1077,
      "マ": 1078,
      "ミ": 1079,
      "ム": 1080,
      "メ": 1081,
      "モ": 1082,
      "ャ": 1083,
      "ヤ": 1084,
      "ュ": 1085,
      "ユ": 1086,
      "ョ": 1087,
      "ラ": 1088,
      "リ": 1089,
      "ル": 1090,
      "レ": 1091,
      "ロ": 1092,
      "ワ": 1093,
      "ン": 1094,
      "ー": 1095,
      "ㄱ": 1096,
      "ㄴ": 1097,
      "ㄷ": 1098,
      "ㄹ": 1099,
      "ㅁ": 1100,
      "ㅂ": 1101,
      "ㅅ": 1102,
      "ㅇ": 1103,
      "ㅈ": 1104,
      "ㅊ": 1105,
      "ㅋ": 1106,
      "ㅌ": 1107,
      "ㅍ": 1108,
      "ㅎ": 1109,
      "ㅏ": 1110,
      "ㅐ": 1111,
      "ㅑ": 1112,
      "ㅒ": 1113,
      "ㅓ": 1114,
      "ㅔ": 1115,
      "ㅕ": 1116,
      "ㅖ": 1117,
      "ㅗ": 1118,
      "ㅘ": 1119,
      "ㅙ": 1120,
      "ㅚ": 1121,
      "ㅛ": 1122,
      "ㅜ": 1123,
      "ㅝ": 1124,
      "ㅞ": 1125,
      "ㅟ": 1126,
      "ㅠ": 1127,
      "ㅡ": 1128,
      "ㅢ": 1129,
      "ㅣ": 1130,
      "一": 1131,
      "万": 1132,
      "丈": 1133,
      "三": 1134,
      "上": 1135,
      "下": 1136,
      "不": 1137,
      "世": 1138,
      "业": 1139,
      "东": 1140,
      "丝": 1141,
      "严": 1142,
      "个": 1143,
      "中": 1144,
      "丹": 1145,
      "为": 1146,
      "主": 1147,
      "丽": 1148,
      "久": 1149,
      "么": 1150,
      "义": 1151,
      "之": 1152,
      "乌": 1153,
      "乐": 1154,
      "书": 1155,
      "乾": 1156,
      "了": 1157,
      "争": 1158,
      "事": 1159,
      "二": 1160,
      "五": 1161,
      "产": 1162,
      "京": 1163,
      "人": 1164,
      "什": 1165,
      "仁": 1166,
      "今": 1167,
      "介": 1168,
      "从": 1169,
      "仏": 1170,
      "仕": 1171,
      "仙": 1172,
      "代": 1173,
      "以": 1174,
      "们": 1175,
      "仮": 1176,
      "件": 1177,
      "任": 1178,
      "休": 1179,
      "众": 1180,
      "会": 1181,
      "伝": 1182,
      "伯": 1183,
      "低": 1184,
      "住": 1185,
      "佐": 1186,
      "佑": 1187,
      "体": 1188,
      "何": 1189,
      "余": 1190,
      "作": 1191,
      "你": 1192,
      "例": 1193,
      "侏": 1194,
      "侘": 1195,
      "依": 1196,
      "侨": 1197,
      "侯": 1198,
      "便": 1199,
      "係": 1200,
      "俄": 1201,
      "保": 1202,
      "信": 1203,
      "做": 1204,
      "健": 1205,
      "偸": 1206,
      "債": 1207,
      "像": 1208,
      "僕": 1209,
      "儒": 1210,
      "儿": 1211,
      "元": 1212,
      "兄": 1213,
      "充": 1214,
      "先": 1215,
      "光": 1216,
      "克": 1217,
      "児": 1218,
      "全": 1219,
      "公": 1220,
      "六": 1221,
      "共": 1222,
      "兴": 1223,
      "兵": 1224,
      "其": 1225,
      "兼": 1226,
      "内": 1227,
      "円": 1228,
      "再": 1229,
      "写": 1230,
      "军": 1231,
      "农": 1232,
      "冬": 1233,
      "冰": 1234,
      "冶": 1235,
      "几": 1236,
      "処": 1237,
      "出": 1238,
      "分": 1239,
      "切": 1240,
      "列": 1241,
      "初": 1242,
      "判": 1243,
      "利": 1244,
      "别": 1245,
      "前": 1246,
      "功": 1247,
      "加": 1248,
      "助": 1249,
      "努": 1250,
      "勇": 1251,
      "勉": 1252,
      "勒": 1253,
      "動": 1254,
      "勘": 1255,
      "勧": 1256,
      "勿": 1257,
      "化": 1258,
      "北": 1259,
      "区": 1260,
      "医": 1261,
      "十": 1262,
      "千": 1263,
      "午": 1264,
      "半": 1265,
      "华": 1266,
      "卑": 1267,
      "南": 1268,
      "博": 1269,
      "占": 1270,
      "卡": 1271,
      "卫": 1272,
      "厕": 1273,
      "县": 1274,
      "友": 1275,
      "双": 1276,
      "受": 1277,
      "口": 1278,
      "古": 1279,
      "叫": 1280,
      "可": 1281,
      "台": 1282,
      "史": 1283,
      "右": 1284,
      "号": 1285,
      "司": 1286,
      "合": 1287,
      "吉": 1288,
      "同": 1289,
      "名": 1290,
      "后": 1291,
      "吐": 1292,
      "向": 1293,
      "吗": 1294,
      "君": 1295,
      "听": 1296,
      "吳": 1297,
      "吴": 1298,
      "吾": 1299,
      "呆": 1300,
      "告": 1301,
      "周": 1302,
      "味": 1303,
      "命": 1304,
      "和": 1305,
      "哀": 1306,
      "哈": 1307,
      "哪": 1308,
      "哲": 1309,
      "問": 1310,
      "善": 1311,
      "喜": 1312,
      "嘉": 1313,
      "器": 1314,
      "四": 1315,
      "回": 1316,
      "园": 1317,
      "国": 1318,
      "图": 1319,
      "國": 1320,
      "園": 1321,
      "土": 1322,
      "圣": 1323,
      "在": 1324,
      "地": 1325,
      "场": 1326,
      "坂": 1327,
      "坡": 1328,
      "埃": 1329,
      "城": 1330,
      "域": 1331,
      "基": 1332,
      "堂": 1333,
      "報": 1334,
      "場": 1335,
      "塊": 1336,
      "塔": 1337,
      "士": 1338,
      "壮": 1339,
      "壯": 1340,
      "変": 1341,
      "夏": 1342,
      "外": 1343,
      "多": 1344,
      "夜": 1345,
      "大": 1346,
      "天": 1347,
      "太": 1348,
      "夫": 1349,
      "央": 1350,
      "头": 1351,
      "夷": 1352,
      "奉": 1353,
      "奔": 1354,
      "奥": 1355,
      "女": 1356,
      "好": 1357,
      "如": 1358,
      "妄": 1359,
      "妈": 1360,
      "妖": 1361,
      "妮": 1362,
      "妹": 1363,
      "姉": 1364,
      "姫": 1365,
      "威": 1366,
      "婆": 1367,
      "婚": 1368,
      "媒": 1369,
      "嬉": 1370,
      "子": 1371,
      "孔": 1372,
      "字": 1373,
      "孝": 1374,
      "孤": 1375,
      "学": 1376,
      "孰": 1377,
      "學": 1378,
      "宁": 1379,
      "宇": 1380,
      "守": 1381,
      "安": 1382,
      "宗": 1383,
      "官": 1384,
      "宜": 1385,
      "宝": 1386,
      "实": 1387,
      "客": 1388,
      "宮": 1389,
      "宴": 1390,
      "家": 1391,
      "容": 1392,
      "寂": 1393,
      "寇": 1394,
      "富": 1395,
      "察": 1396,
      "寧": 1397,
      "寨": 1398,
      "審": 1399,
      "对": 1400,
      "寺": 1401,
      "寿": 1402,
      "将": 1403,
      "導": 1404,
      "小": 1405,
      "少": 1406,
      "尔": 1407,
      "尾": 1408,
      "屋": 1409,
      "屯": 1410,
      "山": 1411,
      "岡": 1412,
      "岩": 1413,
      "岸": 1414,
      "峡": 1415,
      "島": 1416,
      "嶽": 1417,
      "巍": 1418,
      "川": 1419,
      "州": 1420,
      "工": 1421,
      "左": 1422,
      "巴": 1423,
      "巾": 1424,
      "币": 1425,
      "市": 1426,
      "帆": 1427,
      "师": 1428,
      "帰": 1429,
      "帳": 1430,
      "幌": 1431,
      "平": 1432,
      "年": 1433,
      "幸": 1434,
      "广": 1435,
      "庄": 1436,
      "库": 1437,
      "度": 1438,
      "康": 1439,
      "廣": 1440,
      "开": 1441,
      "式": 1442,
      "弟": 1443,
      "张": 1444,
      "張": 1445,
      "強": 1446,
      "强": 1447,
      "归": 1448,
      "当": 1449,
      "彩": 1450,
      "影": 1451,
      "彼": 1452,
      "很": 1453,
      "律": 1454,
      "後": 1455,
      "得": 1456,
      "微": 1457,
      "德": 1458,
      "徽": 1459,
      "心": 1460,
      "志": 1461,
      "忙": 1462,
      "忠": 1463,
      "快": 1464,
      "念": 1465,
      "怖": 1466,
      "思": 1467,
      "恭": 1468,
      "息": 1469,
      "悃": 1470,
      "悪": 1471,
      "悲": 1472,
      "情": 1473,
      "惑": 1474,
      "想": 1475,
      "意": 1476,
      "愛": 1477,
      "感": 1478,
      "慈": 1479,
      "慶": 1480,
      "憂": 1481,
      "懂": 1482,
      "成": 1483,
      "我": 1484,
      "或": 1485,
      "戦": 1486,
      "戯": 1487,
      "戸": 1488,
      "房": 1489,
      "所": 1490,
      "手": 1491,
      "扎": 1492,
      "打": 1493,
      "払": 1494,
      "扰": 1495,
      "技": 1496,
      "抄": 1497,
      "択": 1498,
      "拉": 1499,
      "招": 1500,
      "拼": 1501,
      "挖": 1502,
      "捉": 1503,
      "捨": 1504,
      "掛": 1505,
      "探": 1506,
      "提": 1507,
      "摺": 1508,
      "撫": 1509,
      "支": 1510,
      "放": 1511,
      "故": 1512,
      "敎": 1513,
      "救": 1514,
      "教": 1515,
      "散": 1516,
      "数": 1517,
      "整": 1518,
      "文": 1519,
      "斎": 1520,
      "料": 1521,
      "斯": 1522,
      "新": 1523,
      "方": 1524,
      "旅": 1525,
      "族": 1526,
      "旗": 1527,
      "无": 1528,
      "日": 1529,
      "旧": 1530,
      "早": 1531,
      "昌": 1532,
      "明": 1533,
      "星": 1534,
      "春": 1535,
      "昧": 1536,
      "是": 1537,
      "显": 1538,
      "時": 1539,
      "晚": 1540,
      "晩": 1541,
      "普": 1542,
      "景": 1543,
      "晴": 1544,
      "晶": 1545,
      "暁": 1546,
      "曰": 1547,
      "曲": 1548,
      "曳": 1549,
      "書": 1550,
      "最": 1551,
      "月": 1552,
      "有": 1553,
      "朋": 1554,
      "服": 1555,
      "期": 1556,
      "木": 1557,
      "未": 1558,
      "本": 1559,
      "术": 1560,
      "杜": 1561,
      "来": 1562,
      "杭": 1563,
      "杯": 1564,
      "東": 1565,
      "松": 1566,
      "枋": 1567,
      "林": 1568,
      "枯": 1569,
      "架": 1570,
      "柑": 1571,
      "树": 1572,
      "校": 1573,
      "株": 1574,
      "核": 1575,
      "桌": 1576,
      "桥": 1577,
      "梦": 1578,
      "森": 1579,
      "業": 1580,
      "楽": 1581,
      "権": 1582,
      "横": 1583,
      "橋": 1584,
      "欢": 1585,
      "欲": 1586,
      "歌": 1587,
      "正": 1588,
      "武": 1589,
      "歩": 1590,
      "歯": 1591,
      "歲": 1592,
      "歳": 1593,
      "歴": 1594,
      "死": 1595,
      "殊": 1596,
      "残": 1597,
      "殻": 1598,
      "毀": 1599,
      "毁": 1600,
      "母": 1601,
      "氏": 1602,
      "民": 1603,
      "气": 1604,
      "気": 1605,
      "氣": 1606,
      "水": 1607,
      "求": 1608,
      "汉": 1609,
      "江": 1610,
      "決": 1611,
      "沃": 1612,
      "沙": 1613,
      "沟": 1614,
      "河": 1615,
      "治": 1616,
      "泉": 1617,
      "法": 1618,
      "波": 1619,
      "泱": 1620,
      "津": 1621,
      "流": 1622,
      "浅": 1623,
      "浙": 1624,
      "浜": 1625,
      "海": 1626,
      "清": 1627,
      "渇": 1628,
      "済": 1629,
      "減": 1630,
      "温": 1631,
      "港": 1632,
      "湖": 1633,
      "湘": 1634,
      "湾": 1635,
      "満": 1636,
      "溪": 1637,
      "滅": 1638,
      "滨": 1639,
      "滴": 1640,
      "漢": 1641,
      "漱": 1642,
      "潮": 1643,
      "濱": 1644,
      "瀋": 1645,
      "瀬": 1646,
      "火": 1647,
      "灭": 1648,
      "炎": 1649,
      "炫": 1650,
      "点": 1651,
      "為": 1652,
      "烈": 1653,
      "烏": 1654,
      "無": 1655,
      "然": 1656,
      "煙": 1657,
      "煩": 1658,
      "燕": 1659,
      "爰": 1660,
      "爱": 1661,
      "爵": 1662,
      "父": 1663,
      "爺": 1664,
      "爾": 1665,
      "片": 1666,
      "牙": 1667,
      "牟": 1668,
      "物": 1669,
      "特": 1670,
      "犬": 1671,
      "独": 1672,
      "猫": 1673,
      "猴": 1674,
      "猶": 1675,
      "猿": 1676,
      "獄": 1677,
      "玄": 1678,
      "王": 1679,
      "现": 1680,
      "珍": 1681,
      "珞": 1682,
      "珠": 1683,
      "理": 1684,
      "琴": 1685,
      "甘": 1686,
      "生": 1687,
      "產": 1688,
      "用": 1689,
      "甫": 1690,
      "由": 1691,
      "甲": 1692,
      "电": 1693,
      "画": 1694,
      "界": 1695,
      "留": 1696,
      "疆": 1697,
      "疲": 1698,
      "発": 1699,
      "白": 1700,
      "的": 1701,
      "皆": 1702,
      "皇": 1703,
      "盗": 1704,
      "相": 1705,
      "省": 1706,
      "県": 1707,
      "真": 1708,
      "着": 1709,
      "督": 1710,
      "矢": 1711,
      "知": 1712,
      "石": 1713,
      "矿": 1714,
      "磨": 1715,
      "示": 1716,
      "社": 1717,
      "祈": 1718,
      "祖": 1719,
      "祝": 1720,
      "神": 1721,
      "祥": 1722,
      "祭": 1723,
      "禁": 1724,
      "福": 1725,
      "禰": 1726,
      "离": 1727,
      "秀": 1728,
      "私": 1729,
      "秋": 1730,
      "科": 1731,
      "穣": 1732,
      "穷": 1733,
      "空": 1734,
      "窮": 1735,
      "立": 1736,
      "章": 1737,
      "童": 1738,
      "端": 1739,
      "笃": 1740,
      "笑": 1741,
      "笛": 1742,
      "第": 1743,
      "等": 1744,
      "答": 1745,
      "筵": 1746,
      "简": 1747,
      "算": 1748,
      "篤": 1749,
      "簿": 1750,
      "籔": 1751,
      "粤": 1752,
      "粥": 1753,
      "粵": 1754,
      "糸": 1755,
      "系": 1756,
      "紀": 1757,
      "級": 1758,
      "素": 1759,
      "終": 1760,
      "経": 1761,
      "結": 1762,
      "絹": 1763,
      "經": 1764,
      "続": 1765,
      "維": 1766,
      "緒": 1767,
      "線": 1768,
      "繼": 1769,
      "红": 1770,
      "级": 1771,
      "绍": 1772,
      "经": 1773,
      "绥": 1774,
      "维": 1775,
      "绸": 1776,
      "罗": 1777,
      "羅": 1778,
      "美": 1779,
      "老": 1780,
      "者": 1781,
      "耳": 1782,
      "耿": 1783,
      "聖": 1784,
      "肃": 1785,
      "肥": 1786,
      "肴": 1787,
      "背": 1788,
      "胡": 1789,
      "能": 1790,
      "脈": 1791,
      "脉": 1792,
      "腐": 1793,
      "膺": 1794,
      "自": 1795,
      "致": 1796,
      "臺": 1797,
      "興": 1798,
      "舍": 1799,
      "舒": 1800,
      "舞": 1801,
      "舟": 1802,
      "航": 1803,
      "良": 1804,
      "色": 1805,
      "艺": 1806,
      "艾": 1807,
      "芋": 1808,
      "芥": 1809,
      "芬": 1810,
      "芭": 1811,
      "花": 1812,
      "芸": 1813,
      "苅": 1814,
      "苍": 1815,
      "若": 1816,
      "英": 1817,
      "范": 1818,
      "茨": 1819,
      "茫": 1820,
      "茶": 1821,
      "草": 1822,
      "荟": 1823,
      "莊": 1824,
      "莘": 1825,
      "華": 1826,
      "萃": 1827,
      "萬": 1828,
      "葉": 1829,
      "葛": 1830,
      "葬": 1831,
      "葵": 1832,
      "蓟": 1833,
      "蔵": 1834,
      "蕉": 1835,
      "藝": 1836,
      "藪": 1837,
      "蘇": 1838,
      "蚤": 1839,
      "蛛": 1840,
      "蜘": 1841,
      "蜜": 1842,
      "蟹": 1843,
      "行": 1844,
      "術": 1845,
      "衛": 1846,
      "衢": 1847,
      "衰": 1848,
      "西": 1849,
      "要": 1850,
      "規": 1851,
      "覺": 1852,
      "见": 1853,
      "视": 1854,
      "解": 1855,
      "言": 1856,
      "計": 1857,
      "記": 1858,
      "訟": 1859,
      "訴": 1860,
      "話": 1861,
      "誕": 1862,
      "誘": 1863,
      "語": 1864,
      "誠": 1865,
      "読": 1866,
      "請": 1867,
      "論": 1868,
      "諸": 1869,
      "謝": 1870,
      "變": 1871,
      "认": 1872,
      "记": 1873,
      "识": 1874,
      "试": 1875,
      "话": 1876,
      "语": 1877,
      "说": 1878,
      "谢": 1879,
      "豁": 1880,
      "豆": 1881,
      "豊": 1882,
      "貝": 1883,
      "買": 1884,
      "費": 1885,
      "贛": 1886,
      "贝": 1887,
      "财": 1888,
      "贵": 1889,
      "赣": 1890,
      "赤": 1891,
      "赫": 1892,
      "赵": 1893,
      "起": 1894,
      "超": 1895,
      "越": 1896,
      "趣": 1897,
      "路": 1898,
      "跳": 1899,
      "跻": 1900,
      "踏": 1901,
      "身": 1902,
      "車": 1903,
      "軍": 1904,
      "輔": 1905,
      "輪": 1906,
      "车": 1907,
      "辉": 1908,
      "農": 1909,
      "达": 1910,
      "迅": 1911,
      "迎": 1912,
      "运": 1913,
      "返": 1914,
      "这": 1915,
      "进": 1916,
      "远": 1917,
      "违": 1918,
      "连": 1919,
      "迫": 1920,
      "迷": 1921,
      "途": 1922,
      "通": 1923,
      "連": 1924,
      "遅": 1925,
      "過": 1926,
      "道": 1927,
      "還": 1928,
      "邓": 1929,
      "邦": 1930,
      "邪": 1931,
      "邺": 1932,
      "部": 1933,
      "都": 1934,
      "鄧": 1935,
      "酬": 1936,
      "里": 1937,
      "野": 1938,
      "金": 1939,
      "釜": 1940,
      "鉄": 1941,
      "銀": 1942,
      "鋼": 1943,
      "錫": 1944,
      "鏡": 1945,
      "鐵": 1946,
      "钟": 1947,
      "钱": 1948,
      "银": 1949,
      "长": 1950,
      "門": 1951,
      "開": 1952,
      "間": 1953,
      "関": 1954,
      "閣": 1955,
      "閩": 1956,
      "闕": 1957,
      "门": 1958,
      "问": 1959,
      "闻": 1960,
      "闽": 1961,
      "阳": 1962,
      "阶": 1963,
      "阿": 1964,
      "际": 1965,
      "限": 1966,
      "院": 1967,
      "陽": 1968,
      "隅": 1969,
      "階": 1970,
      "雅": 1971,
      "雑": 1972,
      "難": 1973,
      "雨": 1974,
      "雪": 1975,
      "雷": 1976,
      "靜": 1977,
      "面": 1978,
      "革": 1979,
      "韓": 1980,
      "音": 1981,
      "頑": 1982,
      "頓": 1983,
      "頭": 1984,
      "頼": 1985,
      "額": 1986,
      "顔": 1987,
      "願": 1988,
      "须": 1989,
      "频": 1990,
      "题": 1991,
      "风": 1992,
      "飾": 1993,
      "館": 1994,
      "馆": 1995,
      "香": 1996,
      "馬": 1997,
      "駒": 1998,
      "騒": 1999,
      "驚": 2000,
      "马": 2001,
      "驼": 2002,
      "骂": 2003,
      "骆": 2004,
      "高": 2005,
      "鬼": 2006,
      "魂": 2007,
      "魔": 2008,
      "魚": 2009,
      "魯": 2010,
      "鲁": 2011,
      "鶴": 2012,
      "麗": 2013,
      "麻": 2014,
      "黄": 2015,
      "黑": 2016,
      "鼓": 2017,
      "齊": 2018,
      "齐": 2019,
      "龍": 2020,
      "龙": 2021,
      "ꙑ": 2022,
      "가": 2023,
      "감": 2024,
      "갑": 2025,
      "강": 2026,
      "거": 2027,
      "건": 2028,
      "게": 2029,
      "계": 2030,
      "고": 2031,
      "공": 2032,
      "과": 2033,
      "광": 2034,
      "괴": 2035,
      "교": 2036,
      "구": 2037,
      "국": 2038,
      "궁": 2039,
      "그": 2040,
      "글": 2041,
      "기": 2042,
      "길": 2043,
      "김": 2044,
      "나": 2045,
      "남": 2046,
      "내": 2047,
      "냈": 2048,
      "녕": 2049,
      "높": 2050,
      "느": 2051,
      "늘": 2052,
      "니": 2053,
      "님": 2054,
      "다": 2055,
      "단": 2056,
      "달": 2057,
      "닳": 2058,
      "대": 2059,
      "데": 2060,
      "도": 2061,
      "돌": 2062,
      "동": 2063,
      "되": 2064,
      "두": 2065,
      "떻": 2066,
      "라": 2067,
      "람": 2068,
      "랑": 2069,
      "래": 2070,
      "랜": 2071,
      "려": 2072,
      "례": 2073,
      "로": 2074,
      "록": 2075,
      "룹": 2076,
      "르": 2077,
      "른": 2078,
      "름": 2079,
      "리": 2080,
      "마": 2081,
      "만": 2082,
      "말": 2083,
      "맘": 2084,
      "무": 2085,
      "문": 2086,
      "물": 2087,
      "민": 2088,
      "바": 2089,
      "반": 2090,
      "밝": 2091,
      "방": 2092,
      "백": 2093,
      "변": 2094,
      "병": 2095,
      "보": 2096,
      "본": 2097,
      "부": 2098,
      "불": 2099,
      "사": 2100,
      "산": 2101,
      "삼": 2102,
      "상": 2103,
      "생": 2104,
      "샤": 2105,
      "서": 2106,
      "선": 2107,
      "성": 2108,
      "세": 2109,
      "셨": 2110,
      "소": 2111,
      "슴": 2112,
      "습": 2113,
      "시": 2114,
      "식": 2115,
      "실": 2116,
      "심": 2117,
      "아": 2118,
      "안": 2119,
      "애": 2120,
      "양": 2121,
      "어": 2122,
      "얼": 2123,
      "없": 2124,
      "에": 2125,
      "여": 2126,
      "역": 2127,
      "영": 2128,
      "예": 2129,
      "오": 2130,
      "와": 2131,
      "요": 2132,
      "우": 2133,
      "울": 2134,
      "원": 2135,
      "위": 2136,
      "으": 2137,
      "은": 2138,
      "을": 2139,
      "음": 2140,
      "의": 2141,
      "이": 2142,
      "인": 2143,
      "일": 2144,
      "입": 2145,
      "재": 2146,
      "쟁": 2147,
      "전": 2148,
      "정": 2149,
      "조": 2150,
      "중": 2151,
      "즐": 2152,
      "지": 2153,
      "직": 2154,
      "찬": 2155,
      "천": 2156,
      "철": 2157,
      "체": 2158,
      "충": 2159,
      "코": 2160,
      "편": 2161,
      "평": 2162,
      "폐": 2163,
      "하": 2164,
      "한": 2165,
      "할": 2166,
      "함": 2167,
      "합": 2168,
      "해": 2169,
      "행": 2170,
      "호": 2171,
      "화": 2172,
      "환": 2173,
      "활": 2174,
      "훈": 2175,
      "희": 2176,
      "히": 2177,
      "": 2178,
      "": 2179,
      "": 2180,
      "": 2181,
      "": 2182,
      "": 2183,
      "": 2184,
      "": 2185,
      "": 2186,
      "": 2187,
      "ﭘ": 2188,
      "ﯘ": 2189,
      "️": 2190,
      "ﺍ": 2191,
      "ﺎ": 2192,
      "ﺑ": 2193,
      "ﺝ": 2194,
      "ﺩ": 2195,
      "ﺭ": 2196,
      "ﺮ": 2197,
      "ﻓ": 2198,
      "ﻟ": 2199,
      "ﻧ": 2200,
      "ﻮ": 2201,
      "ﻲ": 2202,
      "ﻴ": 2203,
      "﻿": 2204,
      "ｋ": 2205,
      "ｏ": 2206,
      "�": 2207,
      "🆒": 2208,
      "🆗": 2209,
      "🆙": 2210,
      "🇦": 2211,
      "🇨": 2212,
      "🇩": 2213,
      "🇪": 2214,
      "🇮": 2215,
      "🇳": 2216,
      "🇸": 2217,
      "🇹": 2218,
      "🇺": 2219,
      "🌅": 2220,
      "🌙": 2221,
      "🌚": 2222,
      "🌛": 2223,
      "🌜": 2224,
      "🌝": 2225,
      "🌞": 2226,
      "🌟": 2227,
      "🌤": 2228,
      "🌧": 2229,
      "🌮": 2230,
      "🌯": 2231,
      "🌱": 2232,
      "🌲": 2233,
      "🌳": 2234,
      "🌴": 2235,
      "🌷": 2236,
      "🌸": 2237,
      "🌹": 2238,
      "🌺": 2239,
      "🌿": 2240,
      "🍁": 2241,
      "🍂": 2242,
      "🍃": 2243,
      "🍆": 2244,
      "🍎": 2245,
      "🍑": 2246,
      "🍒": 2247,
      "🍔": 2248,
      "🍕": 2249,
      "🍖": 2250,
      "🍗": 2251,
      "🍟": 2252,
      "🍣": 2253,
      "🍱": 2254,
      "🍷": 2255,
      "🍸": 2256,
      "🍻": 2257,
      "🍽": 2258,
      "🍾": 2259,
      "🎂": 2260,
      "🎃": 2261,
      "🎄": 2262,
      "🎈": 2263,
      "🎉": 2264,
      "🎊": 2265,
      "🎎": 2266,
      "🎒": 2267,
      "🎤": 2268,
      "🎭": 2269,
      "🎮": 2270,
      "🎹": 2271,
      "🎺": 2272,
      "🎼": 2273,
      "🏀": 2274,
      "🏃": 2275,
      "🏈": 2276,
      "🏌": 2277,
      "🏡": 2278,
      "🏢": 2279,
      "🏥": 2280,
      "🏻": 2281,
      "🏼": 2282,
      "🏽": 2283,
      "🏾": 2284,
      "🏿": 2285,
      "🐀": 2286,
      "🐆": 2287,
      "🐇": 2288,
      "🐌": 2289,
      "🐎": 2290,
      "🐐": 2291,
      "🐓": 2292,
      "🐗": 2293,
      "🐘": 2294,
      "🐝": 2295,
      "🐣": 2296,
      "🐥": 2297,
      "🐧": 2298,
      "🐭": 2299,
      "🐰": 2300,
      "🐸": 2301,
      "🐺": 2302,
      "👀": 2303,
      "👁": 2304,
      "👂": 2305,
      "👅": 2306,
      "👆": 2307,
      "👈": 2308,
      "👉": 2309,
      "👊": 2310,
      "👋": 2311,
      "👌": 2312,
      "👍": 2313,
      "👎": 2314,
      "👏": 2315,
      "👐": 2316,
      "👑": 2317,
      "👓": 2318,
      "👗": 2319,
      "👘": 2320,
      "👟": 2321,
      "👩": 2322,
      "👫": 2323,
      "👭": 2324,
      "👹": 2325,
      "👻": 2326,
      "👽": 2327,
      "👾": 2328,
      "💀": 2329,
      "💁": 2330,
      "💃": 2331,
      "💄": 2332,
      "💅": 2333,
      "💆": 2334,
      "💋": 2335,
      "💎": 2336,
      "💐": 2337,
      "💑": 2338,
      "💓": 2339,
      "💔": 2340,
      "💕": 2341,
      "💖": 2342,
      "💗": 2343,
      "💘": 2344,
      "💙": 2345,
      "💚": 2346,
      "💛": 2347,
      "💜": 2348,
      "💝": 2349,
      "💞": 2350,
      "💟": 2351,
      "💣": 2352,
      "💤": 2353,
      "💥": 2354,
      "💦": 2355,
      "💨": 2356,
      "💩": 2357,
      "💪": 2358,
      "💫": 2359,
      "💭": 2360,
      "💯": 2361,
      "💰": 2362,
      "💳": 2363,
      "💵": 2364,
      "💸": 2365,
      "💻": 2366,
      "📍": 2367,
      "📝": 2368,
      "📞": 2369,
      "📱": 2370,
      "📸": 2371,
      "📹": 2372,
      "🔆": 2373,
      "🔐": 2374,
      "🔥": 2375,
      "🔪": 2376,
      "🔫": 2377,
      "🔮": 2378,
      "🔴": 2379,
      "🕰": 2380,
      "🕷": 2381,
      "🕺": 2382,
      "🖋": 2383,
      "🖐": 2384,
      "🖕": 2385,
      "🖖": 2386,
      "🗒": 2387,
      "🗣": 2388,
      "😀": 2389,
      "😁": 2390,
      "😂": 2391,
      "😃": 2392,
      "😄": 2393,
      "😅": 2394,
      "😆": 2395,
      "😇": 2396,
      "😈": 2397,
      "😉": 2398,
      "😊": 2399,
      "😋": 2400,
      "😌": 2401,
      "😍": 2402,
      "😎": 2403,
      "😏": 2404,
      "😐": 2405,
      "😑": 2406,
      "😒": 2407,
      "😓": 2408,
      "😔": 2409,
      "😕": 2410,
      "😖": 2411,
      "😗": 2412,
      "😘": 2413,
      "😚": 2414,
      "😛": 2415,
      "😜": 2416,
      "😝": 2417,
      "😞": 2418,
      "😟": 2419,
      "😠": 2420,
      "😡": 2421,
      "😢": 2422,
      "😣": 2423,
      "😤": 2424,
      "😥": 2425,
      "😦": 2426,
      "😨": 2427,
      "😩": 2428,
      "😪": 2429,
      "😫": 2430,
      "😬": 2431,
      "😭": 2432,
      "😯": 2433,
      "😰": 2434,
      "😱": 2435,
      "😳": 2436,
      "😴": 2437,
      "😵": 2438,
      "😶": 2439,
      "😷": 2440,
      "😹": 2441,
      "😻": 2442,
      "😼": 2443,
      "🙀": 2444,
      "🙁": 2445,
      "🙂": 2446,
      "🙃": 2447,
      "🙄": 2448,
      "🙅": 2449,
      "🙆": 2450,
      "🙇": 2451,
      "🙈": 2452,
      "🙉": 2453,
      "🙊": 2454,
      "🙋": 2455,
      "🙌": 2456,
      "🙏": 2457,
      "🚐": 2458,
      "🚑": 2459,
      "🚔": 2460,
      "🚘": 2461,
      "🚢": 2462,
      "🚨": 2463,
      "🚩": 2464,
      "🚫": 2465,
      "🚬": 2466,
      "🚮": 2467,
      "🤐": 2468,
      "🤑": 2469,
      "🤒": 2470,
      "🤓": 2471,
      "🤔": 2472,
      "🤕": 2473,
      "🤖": 2474,
      "🤗": 2475,
      "🤘": 2476,
      "🤝": 2477,
      "🤠": 2478,
      "🤢": 2479,
      "🤣": 2480,
      "🤦": 2481,
      "🤮": 2482,
      "🤷": 2483,
      "🥁": 2484,
      "🦁": 2485,
      "🦃": 2486,
      "🦌": 2487,
      "▁ ": 2488,
      "▁s": 2489,
      "▁e": 2490,
      "▁h": 2491,
      "▁o": 2492,
      "▁w": 2493,
      "▁l": 2494,
      "▁n": 2495,
      "▁g": 2496,
      "▁a": 2497,
      "▁i": 2498,
      "▁t": 2499,
      "▁b": 2500,
      "▁u": 2501,
      "▁r": 2502,
      "▁m": 2503,
      "▁f": 2504,
      "▁v": 2505,
      "▁k": 2506,
      "▁d": 2507,
      "▁y": 2508,
      "▁C": 2509,
      "▁E": 2510,
      "▁p": 2511,
      "▁H": 2512,
      "▁c": 2513,
      "▁а": 2514,
      "▁ч": 2515,
      "▁ы": 2516,
      "▁г": 2517,
      "▁н": 2518,
      "▁к": 2519,
      "▁э": 2520,
      "▁б": 2521,
      "▁и": 2522,
      "▁л": 2523,
      "▁I": 2524,
      "▁с": 2525,
      "▁т": 2526,
      "▁у": 2527,
      "▁р": 2528,
      "▁К": 2529,
      "▁о": 2530,
      "▁в": 2531,
      "▁й": 2532,
      "▁ь": 2533,
      "▁м": 2534,
      "▁х": 2535,
      "▁д": 2536,
      "▁x": 2537,
      "▁j": 2538,
      "▁е": 2539,
      "▁ф": 2540,
      "▁п": 2541,
      "▁я": 2542,
      "▁ъ": 2543,
      "▁є": 2544,
      "▁ѣ": 2545,
      "▁ѧ": 2546,
      "▁ꙑ": 2547,
      "▁ө": 2548,
      "▁ү": 2549,
      "▁һ": 2550,
      "▁ц": 2551,
      "▁ҥ": 2552,
      "▁ҕ": 2553,
      "▁ж": 2554,
      "▁S": 2555,
      "▁D": 2556,
      "▁K": 2557,
      "▁Н": 2558,
      "▁П": 2559,
      "▁Г": 2560,
      "▁Я": 2561,
      "▁J": 2562,
      "▁Л": 2563,
      "▁Ш": 2564,
      "▁С": 2565,
      "▁А": 2566,
      "▁M": 2567,
      "▁G": 2568,
      "▁B": 2569,
      "▁R": 2570,
      "▁L": 2571,
      "▁A": 2572,
      "▁Q": 2573,
      "▁Б": 2574,
      "▁В": 2575,
      "▁z": 2576,
      "▁І": 2577,
      "▁Е": 2578,
      "▁V": 2579,
      "▁O": 2580,
      "▁М": 2581,
      "▁q": 2582,
      "▁ю": 2583,
      "▁И": 2584,
      "▁Д": 2585,
      "▁Z": 2586,
      "▁T": 2587,
      "▁F": 2588,
      "▁з": 2589,
      "▁ш": 2590,
      "▁Э": 2591,
      "▁の": 2592,
      "▁名": 2593,
      "▁前": 2594,
      "▁は": 2595,
      "▁で": 2596,
      "▁す": 2597,
      "▁Р": 2598,
      "▁Y": 2599,
      "▁P": 2600,
      "▁Т": 2601,
      "▁щ": 2602,
      "▁Й": 2603,
      "▁Ь": 2604,
      "▁Ө": 2605,
      "▁🏼": 2606,
      "▁Ф": 2607,
      "▁З": 2608,
      "▁N": 2609,
      "▁W": 2610,
      "▁О": 2611,
      "▁У": 2612,
      "▁ё": 2613,
      "▁ѳ": 2614,
      "▁ј": 2615,
      "▁Ѕ": 2616,
      "▁ґ": 2617,
      "▁2": 2618,
      "▁9": 2619,
      "▁Ж": 2620,
      "▁Х": 2621,
      "▁█": 2622,
      "▁Һ": 2623,
      "▁à": 2624,
      "▁ù": 2625,
      "▁5": 2626,
      "▁0": 2627,
      "▁í": 2628,
      "▁ろ": 2629,
      "▁し": 2630,
      "▁く": 2631,
      "▁お": 2632,
      "▁願": 2633,
      "▁い": 2634,
      "▁ま": 2635,
      "▁Ы": 2636,
      "▁6": 2637,
      "▁7": 2638,
      "▁Ч": 2639,
      "▁1": 2640,
      "▁Ц": 2641,
      "▁😂": 2642,
      "▁👀": 2643,
      "▁\n": 2644,
      "▁U": 2645,
      "▁Ю": 2646,
      "▁😘": 2647,
      "▁本": 2648,
      "▁語": 2649,
      "▁░": 2650,
      "▁ü": 2651,
      "▁è": 2652,
      "▁ē": 2653,
      "▁š": 2654,
      "▁č": 2655,
      "▁ā": 2656,
      "▁ī": 2657,
      "▁ū": 2658,
      "▁🏻": 2659,
      "▁ë": 2660,
      "▁õ": 2661,
      "▁ê": 2662,
      "▁ý": 2663,
      "▁á": 2664,
      "▁ò": 2665,
      "▁ð": 2666,
      "▁ο": 2667,
      "▁γ": 2668,
      "▁ί": 2669,
      "▁α": 2670,
      "▁Ҥ": 2671,
      "▁і": 2672,
      "▁ー": 2673,
      "▁ボ": 2674,
      "▁ッ": 2675,
      "▁ク": 2676,
      "▁白": 2677,
      "▁了": 2678,
      "▁楽": 2679,
      "▁島": 2680,
      "▁3": 2681,
      "▁า": 2682,
      "▁ช": 2683,
      "▁อ": 2684,
      "▁ณ": 2685,
      "▁จ": 2686,
      "▁ก": 2687,
      "▁ร": 2688,
      "▁ไ": 2689,
      "▁ท": 2690,
      "▁ย": 2691,
      "▁X": 2692,
      "▁🎹": 2693,
      "▁ң": 2694,
      "▁💓": 2695,
      "▁🐘": 2696,
      "▁ӊ": 2697,
      "▁😩": 2698,
      "▁族": 2699,
      "▁Ү": 2700,
      "▁勘": 2701,
      "▁留": 2702,
      "▁4": 2703,
      "▁ا": 2704,
      "▁د": 2705,
      "▁و": 2706,
      "▁ب": 2707,
      "▁ي": 2708,
      "▁س": 2709,
      "▁😴": 2710,
      "▁💤": 2711,
      "▁👻": 2712,
      "▁🐣": 2713,
      "▁💞": 2714,
      "▁😊": 2715,
      "▁ن": 2716,
      "▁ة": 2717,
      "▁ل": 2718,
      "▁ン": 2719,
      "▁ダ": 2720,
      "▁ス": 2721,
      "▁ҋ": 2722,
      "▁Ҕ": 2723,
      "▁😭": 2724,
      "▁🙏": 2725,
      "▁🏾": 2726,
      "▁사": 2727,
      "▁합": 2728,
      "▁니": 2729,
      "▁다": 2730,
      "▁ブ": 2731,
      "▁ト": 2732,
      "▁ı": 2733,
      "▁ʊ": 2734,
      "▁▀": 2735,
      "▁▄": 2736,
      "▁8": 2737,
      "▁谢": 2738,
      "▁華": 2739,
      "▁中": 2740,
      "▁华": 2741,
      "▁バ": 2742,
      "▁书": 2743,
      "▁艺": 2744,
      "▁人": 2745,
      "▁ç": 2746,
      "▁ô": 2747,
      "▁ä": 2748,
      "▁ï": 2749,
      "▁ñ": 2750,
      "▁ğ": 2751,
      "▁ō": 2752,
      "▁🤘": 2753,
      "▁🏽": 2754,
      "▁ї": 2755,
      "▁é": 2756,
      "▁ó": 2757,
      "▁î": 2758,
      "▁ã": 2759,
      "▁ӏ": 2760,
      "▁💕": 2761,
      "▁ゃ": 2762,
      "▁た": 2763,
      "▁ね": 2764,
      "▁ہ": 2765,
      "▁ی": 2766,
      "▁ρ": 2767,
      "▁χ": 2768,
      "▁ι": 2769,
      "▁π": 2770,
      "▁έ": 2771,
      "▁λ": 2772,
      "▁ς": 2773,
      "▁⚾": 2774,
      "▁🎃": 2775,
      "▁シ": 2776,
      "▁ギ": 2777,
      "▁ナ": 2778,
      "▁ђ": 2779,
      "▁ß": 2780,
      "▁😻": 2781,
      "▁💖": 2782,
      "▁🆙": 2783,
      "▁デ": 2784,
      "▁マ": 2785,
      "▁タ": 2786,
      "▁ş": 2787,
      "▁通": 2788,
      "▁話": 2789,
      "▁ơ": 2790,
      "▁რ": 2791,
      "▁ო": 2792,
      "▁ს": 2793,
      "▁ი": 2794,
      "▁მ": 2795,
      "▁ა": 2796,
      "▁ნ": 2797,
      "▁ჯ": 2798,
      "▁გ": 2799,
      "▁ლ": 2800,
      "▁ძ": 2801,
      "▁ე": 2802,
      "▁ס": 2803,
      "▁י": 2804,
      "▁ל": 2805,
      "▁ӄ": 2806,
      "▁ì": 2807,
      "▁ǒ": 2808,
      "▁ǔ": 2809,
      "▁ᠣ": 2810,
      "▁ᠩ": 2811,
      "▁ᠭ": 2812,
      "▁ᠯ": 2813,
      "▁🍽": 2814,
      "▁😁": 2815,
      "▁😋": 2816,
      "▁🍎": 2817,
      "▁リ": 2818,
      "▁ә": 2819,
      "▁国": 2820,
      "▁건": 2821,
      "▁희": 2822,
      "▁円": 2823,
      "▁を": 2824,
      "▁超": 2825,
      "▁え": 2826,
      "▁る": 2827,
      "▁金": 2828,
      "▁額": 2829,
      "▁ம": 2830,
      "▁ி": 2831,
      "▁ழ": 2832,
      "▁்": 2833,
      "▁迷": 2834,
      "▁路": 2835,
      "▁我": 2836,
      "▁们": 2837,
      "▁😎": 2838,
      "▁ન": 2839,
      "▁દ": 2840,
      "▁ક": 2841,
      "▁ર": 2842,
      "▁મ": 2843,
      "▁ચ": 2844,
      "▁ｋ": 2845,
      "▁☕": 2846,
      "▁ت": 2847,
      "▁­": 2848,
      "▁🍃": 2849,
      "▁ά": 2850,
      "▁κ": 2851,
      "▁身": 2852,
      "▁η": 2853,
      "▁ǐ": 2854,
      "▁ツ": 2855,
      "▁😍": 2856,
      "▁ʷ": 2857,
      "▁尔": 2858,
      "▁滨": 2859,
      "▁😉": 2860,
      "▁☹": 2861,
      "▁😒": 2862,
      "▁🐰": 2863,
      "▁訟": 2864,
      "▁提": 2865,
      "▁起": 2866,
      "▁み": 2867,
      "▁ғ": 2868,
      "▁▒": 2869,
      "▁μ": 2870,
      "▁Ї": 2871,
      "▁✊": 2872,
      "▁💅": 2873,
      "▁🍟": 2874,
      "▁🍔": 2875,
      "▁🌮": 2876,
      "▁🍗": 2877,
      "▁🍖": 2878,
      "▁م": 2879,
      "▁غ": 2880,
      "▁ر": 2881,
      "▁🙄": 2882,
      "▁🚮": 2883,
      "▁ĭ": 2884,
      "▁ö": 2885,
      "▁û": 2886,
      "▁Ä": 2887,
      "▁Â": 2888,
      "▁ド": 2889,
      "▁オ": 2890,
      "▁🇸": 2891,
      "▁拉": 2892,
      "▁σ": 2893,
      "▁ύ": 2894,
      "▁念": 2895,
      "▁ع": 2896,
      "▁津": 2897,
      "▁ز": 2898,
      "▁ق": 2899,
      "▁渇": 2900,
      "▁磨": 2901,
      "▁韓": 2902,
      "▁🐌": 2903,
      "▁🔥": 2904,
      "▁ł": 2905,
      "▁ż": 2906,
      "▁ś": 2907,
      "▁ć": 2908,
      "▁ź": 2909,
      "▁ą": 2910,
      "▁ń": 2911,
      "▁寧": 2912,
      "▁帰": 2913,
      "▁線": 2914,
      "▁😢": 2915,
      "▁ḥ": 2916,
      "▁誕": 2917,
      "▁生": 2918,
      "▁日": 2919,
      "▁め": 2920,
      "▁と": 2921,
      "▁う": 2922,
      "▁ご": 2923,
      "▁ざ": 2924,
      "▁年": 2925,
      "▁快": 2926,
      "▁乐": 2927,
      "▁輪": 2928,
      "▁😠": 2929,
      "▁ε": 2930,
      "▁ν": 2931,
      "▁ή": 2932,
      "▁ώ": 2933,
      "▁ำ": 2934,
      "▁เ": 2935,
      "▁ภ": 2936,
      "▁ถ": 2937,
      "▁ล": 2938,
      "▁ง": 2939,
      "▁な": 2940,
      "▁良": 2941,
      "▁ד": 2942,
      "▁ש": 2943,
      "▁ע": 2944,
      "▁א": 2945,
      "▁ו": 2946,
      "▁ט": 2947,
      "▁נ": 2948,
      "▁מ": 2949,
      "▁ג": 2950,
      "▁إ": 2951,
      "▁ح": 2952,
      "▁ú": 2953,
      "▁過": 2954,
      "▁خ": 2955,
      "▁ه": 2956,
      "▁道": 2957,
      "▁桥": 2958,
      "▁市": 2959,
      "▁场": 2960,
      "▁ũ": 2961,
      "▁ɲ": 2962,
      "▁ʁ": 2963,
      "▁学": 2964,
      "▁舍": 2965,
      "▁も": 2966,
      "▁有": 2967,
      "▁り": 2968,
      "▁難": 2969,
      "▁æ": 2970,
      "▁😪": 2971,
      "▁å": 2972,
      "▁ų": 2973,
      "▁ル": 2974,
      "▁フ": 2975,
      "▁ォ": 2976,
      "▁آ": 2977,
      "▁爾": 2978,
      "▁濱": 2979,
      "▁😔": 2980,
      "▁ǎ": 2981,
      "▁ف": 2982,
      "▁ط": 2983,
      "▁ở": 2984,
      "▁ă": 2985,
      "▁ầ": 2986,
      "▁ϻ": 2987,
      "▁界": 2988,
      "▁卫": 2989,
      "▁😖": 2990,
      "▁😄": 2991,
      "▁🌟": 2992,
      "▁💫": 2993,
      "▁ṣ": 2994,
      "▁τ": 2995,
      "▁😀": 2996,
      "▁δ": 2997,
      "▁沟": 2998,
      "▁温": 2999,
      "▁泉": 3000,
      "▁Ҋ": 3001,
      "▁🏈": 3002,
      "▁😇": 3003,
      "▁ấ": 3004,
      "▁ả": 3005,
      "▁ẩ": 3006,
      "▁宗": 3007,
      "▁門": 3008,
      "▁奉": 3009,
      "▁教": 3010,
      "▁死": 3011,
      "▁ɒ": 3012,
      "▁ŋ": 3013,
      "▁ロ": 3014,
      "▁ガ": 3015,
      "▁ल": 3016,
      "▁●": 3017,
      "▁ى": 3018,
      "▁을": 3019,
      "▁하": 3020,
      "▁늘": 3021,
      "▁業": 3022,
      "▁当": 3023,
      "▁か": 3024,
      "▁🤮": 3025,
      "▁ě": 3026,
      "▁京": 3027,
      "▁름": 3028,
      "▁이": 3029,
      "▁어": 3030,
      "▁떻": 3031,
      "▁게": 3032,
      "▁되": 3033,
      "▁세": 3034,
      "▁요": 3035,
      "▁児": 3036,
      "▁感": 3037,
      "▁情": 3038,
      "▁徽": 3039,
      "▁🎉": 3040,
      "▁😳": 3041,
      "▁📝": 3042,
      "▁寺": 3043,
      "▁守": 3044,
      "▁家": 3045,
      "▁好": 3046,
      "▁甫": 3047,
      "▁❤": 3048,
      "▁👋": 3049,
      "▁昌": 3050,
      "▁安": 3051,
      "▁坡": 3052,
      "▁的": 3053,
      "▁ַ": 3054,
      "▁ה": 3055,
      "▁ֲ": 3056,
      "▁ּ": 3057,
      "▁ת": 3058,
      "▁ム": 3059,
      "▁イ": 3060,
      "▁⚒": 3061,
      "▁✨": 3062,
      "▁🎼": 3063,
      "▁🎤": 3064,
      "▁都": 3065,
      "▁‎": 3066,
      "▁ᠪ": 3067,
      "▁ᠢ": 3068,
      "▁ᠴ": 3069,
      "▁求": 3070,
      "▁😅": 3071,
      "▁👌": 3072,
      "▁Ё": 3073,
      "▁😏": 3074,
      "▁💋": 3075,
      "▁💀": 3076,
      "▁👎": 3077,
      "▁军": 3078,
      "▁上": 3079,
      "▁😨": 3080,
      "▁婚": 3081,
      "▁林": 3082,
      "▁古": 3083,
      "▁丹": 3084,
      "▁珠": 3085,
      "▁Ң": 3086,
      "▁🍷": 3087,
      "▁ジ": 3088,
      "▁ョ": 3089,
      "▁ę": 3090,
      "▁カ": 3091,
      "▁ゲ": 3092,
      "▁ɑ": 3093,
      "▁疆": 3094,
      "▁大": 3095,
      "▁ӈ": 3096,
      "▁❣": 3097,
      "▁🤗": 3098,
      "▁て": 3099,
      "▁面": 3100,
      "▁に": 3101,
      "▁っ": 3102,
      "▁ラ": 3103,
      "▁体": 3104,
      "▁": 3105,
      "▁🔮": 3106,
      "▁ə": 3107,
      "▁🙌": 3108,
      "▁ị": 3109,
      "▁ỉ": 3110,
      "▁ў": 3111,
      "▁😚": 3112,
      "▁区": 3113,
      "▁🇺": 3114,
      "▁⬇": 3115,
      "▁江": 3116,
      "▁山": 3117,
      "▁せ": 3118,
      "▁ニ": 3119,
      "▁ャ": 3120,
      "▁🚫": 3121,
      "▁ײ": 3122,
      "▁ז": 3123,
      "▁ר": 3124,
      "▁ָ": 3125,
      "▁ף": 3126,
      "▁健": 3127,
      "▁康": 3128,
      "▁為": 3129,
      "▁母": 3130,
      "▁さ": 3131,
      "▁ん": 3132,
      "▁स": 3133,
      "▁선": 3134,
      "▁시": 3135,
      "▁대": 3136,
      "▁행": 3137,
      "▁정": 3138,
      "▁과": 3139,
      "▁국": 3140,
      "▁방": 3141,
      "▁의": 3142,
      "▁중": 3143,
      "▁심": 3144,
      "▁동": 3145,
      "▁래": 3146,
      "▁别": 3147,
      "▁吗": 3148,
      "▁👏": 3149,
      "▁👁": 3150,
      "▁術": 3151,
      "▁歲": 3152,
      "▁モ": 3153,
      "▁ネ": 3154,
      "▁💯": 3155,
      "▁✌": 3156,
      "▁理": 3157,
      "▁🤔": 3158,
      "▁國": 3159,
      "▁💛": 3160,
      "▁â": 3161,
      "▁ص": 3162,
      "▁ء": 3163,
      "▁қ": 3164,
      "▁石": 3165,
      "▁房": 3166,
      "▁冬": 3167,
      "▁猿": 3168,
      "▁蟹": 3169,
      "▁合": 3170,
      "▁戦": 3171,
      "▁ズ": 3172,
      "▁ウ": 3173,
      "▁ະ": 3174,
      "▁ເ": 3175,
      "▁ທ": 3176,
      "▁ດ": 3177,
      "▁ລ": 3178,
      "▁າ": 3179,
      "▁ວ": 3180,
      "▁歳": 3181,
      "▁📹": 3182,
      "▁未": 3183,
      "▁満": 3184,
      "▁切": 3185,
      "▁捨": 3186,
      "▁😟": 3187,
      "▁休": 3188,
      "▁嶽": 3189,
      "▁三": 3190,
      "▁十": 3191,
      "▁六": 3192,
      "▁景": 3193,
      "▁Щ": 3194,
      "▁¬": 3195,
      "▁技": 3196,
      "▁限": 3197,
      "▁公": 3198,
      "▁司": 3199,
      "▁为": 3200,
      "▁术": 3201,
      "▁飾": 3202,
      "▁北": 3203,
      "▁斎": 3204,
      "▁ҝ": 3205,
      "▁🍆": 3206,
      "▁払": 3207,
      "▁返": 3208,
      "▁還": 3209,
      "▁報": 3210,
      "▁酬": 3211,
      "▁が": 3212,
      "▁あ": 3213,
      "▁場": 3214,
      "▁😬": 3215,
      "▁ҙ": 3216,
      "▁ҡ": 3217,
      "▁ω": 3218,
      "▁ั": 3219,
      "▁ۇ": 3220,
      "▁چ": 3221,
      "▁ە": 3222,
      "▁▓": 3223,
      "▁ィ": 3224,
      "▁→": 3225,
      "▁味": 3226,
      "▁よ": 3227,
      "▁师": 3228,
      "▁范": 3229,
      "▁画": 3230,
      "▁内": 3231,
      "▁容": 3232,
      "▁로": 3233,
      "▁길": 3234,
      "▁今": 3235,
      "▁規": 3236,
      "▁彼": 3237,
      "▁女": 3238,
      "▁ك": 3239,
      "▁💜": 3240,
      "▁ø": 3241,
      "▁ұ": 3242,
      "▁🙃": 3243,
      "▁💻": 3244,
      "▁☎": 3245,
      "▁🚨": 3246,
      "▁🚑": 3247,
      "▁👍": 3248,
      "▁ব": 3249,
      "▁ী": 3250,
      "▁ন": 3251,
      "▁্": 3252,
      "▁দ": 3253,
      "▁র": 3254,
      "▁া": 3255,
      "▁থ": 3256,
      "▁ঠ": 3257,
      "▁ক": 3258,
      "▁ু": 3259,
      "▁誠": 3260,
      "▁寨": 3261,
      "▁币": 3262,
      "▁บ": 3263,
      "▁โ": 3264,
      "▁想": 3265,
      "▁代": 3266,
      "▁放": 3267,
      "▁南": 3268,
      "▁녕": 3269,
      "▁히": 3270,
      "▁계": 3271,
      "▁夜": 3272,
      "▁🇦": 3273,
      "▁🏢": 3274,
      "▁🇨": 3275,
      "▁语": 3276,
      "▁拼": 3277,
      "▁音": 3278,
      "▁ạ": 3279,
      "▁ặ": 3280,
      "▁ӳ": 3281,
      "▁民": 3282,
      "▁Ј": 3283,
      "▁だ": 3284,
      "▁き": 3285,
      "▁ザ": 3286,
      "▁🙈": 3287,
      "▁鬼": 3288,
      "▁簿": 3289,
      "▁二": 3290,
      "▁💔": 3291,
      "▁🏿": 3292,
      "▁外": 3293,
      "▁部": 3294,
      "▁志": 3295,
      "▁明": 3296,
      "▁基": 3297,
      "▁加": 3298,
      "▁算": 3299,
      "▁れ": 3300,
      "▁屋": 3301,
      "▁υ": 3302,
      "▁θ": 3303,
      "▁ό": 3304,
      "▁ث": 3305,
      "▁해": 3306,
      "▁물": 3307,
      "▁백": 3308,
      "▁두": 3309,
      "▁산": 3310,
      "▁마": 3311,
      "▁르": 3312,
      "▁고": 3313,
      "▁닳": 3314,
      "▁도": 3315,
      "▁록": 3316,
      "▁느": 3317,
      "▁님": 3318,
      "▁보": 3319,
      "▁우": 3320,
      "▁리": 3321,
      "▁나": 3322,
      "▁라": 3323,
      "▁만": 3324,
      "▁ק": 3325,
      "▁ئ": 3326,
      "▁❖": 3327,
      "▁պ": 3328,
      "▁ի": 3329,
      "▁տ": 3330,
      "▁ա": 3331,
      "▁կ": 3332,
      "▁ե": 3333,
      "▁ր": 3334,
      "▁շ": 3335,
      "▁ժ": 3336,
      "▁재": 3337,
      "▁기": 3338,
      "▁ṭ": 3339,
      "▁ะ": 3340,
      "▁🤑": 3341,
      "▁☔": 3342,
      "▁海": 3343,
      "▁峡": 3344,
      "▁橋": 3345,
      "▁蔵": 3346,
      "▁岸": 3347,
      "▁州": 3348,
      "▁尾": 3349,
      "▁芭": 3350,
      "▁蕉": 3351,
      "▁Ѳ": 3352,
      "▁贛": 3353,
      "▁端": 3354,
      "▁成": 3355,
      "▁😓": 3356,
      "▁ং": 3357,
      "▁ল": 3358,
      "▁ῖ": 3359,
      "▁😜": 3360,
      "▁😌": 3361,
      "▁😑": 3362,
      "▁吳": 3363,
      "▁广": 3364,
      "▁东": 3365,
      "▁话": 3366,
      "▁廣": 3367,
      "▁東": 3368,
      "▁ῡ": 3369,
      "▁寇": 3370,
      "▁史": 3371,
      "▁料": 3372,
      "▁館": 3373,
      "▁🇪": 3374,
      "▁後": 3375,
      "▁曳": 3376,
      "▁航": 3377,
      "▁學": 3378,
      "▁間": 3379,
      "▁ソ": 3380,
      "▁💰": 3381,
      "▁": 3382,
      "▁株": 3383,
      "▁式": 3384,
      "▁会": 3385,
      "▁社": 3386,
      "▁湾": 3387,
      "▁省": 3388,
      "▁ह": 3389,
      "▁客": 3390,
      "▁气": 3391,
      "▁ﻧ": 3392,
      "▁ﺭ": 3393,
      "▁ﺑ": 3394,
      "▁ﺎ": 3395,
      "▁ڠ": 3396,
      "▁ﺩ": 3397,
      "▁ﻴ": 3398,
      "▁ﺮ": 3399,
      "▁ﺍ": 3400,
      "▁ﺝ": 3401,
      "▁ﻮ": 3402,
      "▁ﻲ": 3403,
      "▁港": 3404,
      "▁夏": 3405,
      "▁🎊": 3406,
      "▁ׁ": 3407,
      "▁ח": 3408,
      "▁柑": 3409,
      "▁ビ": 3410,
      "▁ゴ": 3411,
      "▁💗": 3412,
      "▁😫": 3413,
      "▁脈": 3414,
      "▁ۈ": 3415,
      "▁是": 3416,
      "▁哪": 3417,
      "▁里": 3418,
      "▁つ": 3419,
      "▁一": 3420,
      "▁緒": 3421,
      "▁체": 3422,
      "▁코": 3423,
      "▁인": 3424,
      "▁ش": 3425,
      "▁�": 3426,
      "▁甲": 3427,
      "▁レ": 3428,
      "▁😝": 3429,
      "▁処": 3430,
      "▁和": 3431,
      "▁父": 3432,
      "▁片": 3433,
      "▁心": 3434,
      "▁頼": 3435,
      "▁度": 3436,
      "▁ら": 3437,
      "▁愛": 3438,
      "▁¤": 3439,
      "▁不": 3440,
      "▁知": 3441,
      "▁自": 3442,
      "▁忠": 3443,
      "▁子": 3444,
      "▁春": 3445,
      "▁ア": 3446,
      "▁グ": 3447,
      "▁神": 3448,
      "▁😱": 3449,
      "▁ษ": 3450,
      "▁セ": 3451,
      "▁ɵ": 3452,
      "▁ʲ": 3453,
      "▁β": 3454,
      "▁银": 3455,
      "▁号": 3456,
      "▁에": 3457,
      "▁滴": 3458,
      "▁": 3459,
      "▁": 3460,
      "▁儿": 3461,
      "▁頭": 3462,
      "▁◥": 3463,
      "▁◤": 3464,
      "▁ʏ": 3465,
      "▁彩": 3466,
      "▁门": 3467,
      "▁河": 3468,
      "▁µ": 3469,
      "▁😞": 3470,
      "▁キ": 3471,
      "▁😕": 3472,
      "▁ÿ": 3473,
      "▁œ": 3474,
      "▁ṇ": 3475,
      "▁💎": 3476,
      "▁溪": 3477,
      "▁💵": 3478,
      "▁💚": 3479,
      "▁請": 3480,
      "▁ど": 3481,
      "▁こ": 3482,
      "▁住": 3483,
      "▁下": 3484,
      "▁手": 3485,
      "▁פ": 3486,
      "▁ן": 3487,
      "▁צ": 3488,
      "▁駒": 3489,
      "▁先": 3490,
      "▁聖": 3491,
      "▁吾": 3492,
      "▁久": 3493,
      "▁见": 3494,
      "▁ո": 3495,
      "▁ս": 3496,
      "▁թ": 3497,
      "▁մ": 3498,
      "▁ն": 3499,
      "▁🏀": 3500,
      "▁🌱": 3501,
      "▁🌲": 3502,
      "▁🌳": 3503,
      "▁示": 3504,
      "▁双": 3505,
      "▁向": 3506,
      "▁车": 3507,
      "▁ġ": 3508,
      "▁đ": 3509,
      "▁ồ": 3510,
      "▁ɯ": 3511,
      "▁ワ": 3512,
      "▁你": 3513,
      "▁运": 3514,
      "▁ķ": 3515,
      "▁🤣": 3516,
      "▁パ": 3517,
      "▁ᓄ": 3518,
      "▁ᐃ": 3519,
      "▁ᑦ": 3520,
      "▁藝": 3521,
      "▁時": 3522,
      "▁©": 3523,
      "▁ř": 3524,
      "▁ů": 3525,
      "▁ʂ": 3526,
      "▁婆": 3527,
      "▁🍾": 3528,
      "▁▌": 3529,
      "▁▬": 3530,
      "▁ベ": 3531,
      "▁げ": 3532,
      "▁メ": 3533,
      "▁張": 3534,
      "▁پ": 3535,
      "▁😃": 3536,
      "▁🐇": 3537,
      "▁맘": 3538,
      "▁으": 3539,
      "▁ῦ": 3540,
      "▁Χ": 3541,
      "▁方": 3542,
      "▁🍂": 3543,
      "▁ा": 3544,
      "▁न": 3545,
      "▁क": 3546,
      "▁ि": 3547,
      "▁्": 3548,
      "▁द": 3549,
      "▁ी": 3550,
      "▁상": 3551,
      "▁충": 3552,
      "▁성": 3553,
      "▁여": 3554,
      "▁괴": 3555,
      "▁즐": 3556,
      "▁거": 3557,
      "▁랑": 3558,
      "▁高": 3559,
      "▁等": 3560,
      "▁校": 3561,
      "▁チ": 3562,
      "▁ュ": 3563,
      "▁🙅": 3564,
      "▁ु": 3565,
      "▁उ": 3566,
      "▁ठ": 3567,
      "▁य": 3568,
      "▁ै": 3569,
      "▁ब": 3570,
      "▁त": 3571,
      "▁은": 3572,
      "▁🙂": 3573,
      "▁ț": 3574,
      "▁💳": 3575,
      "▁أ": 3576,
      "▁🎈": 3577,
      "▁👑": 3578,
      "▁文": 3579,
      "▁⭐": 3580,
      "▁공": 3581,
      "▁활": 3582,
      "▁한": 3583,
      "▁데": 3584,
      "▁높": 3585,
      "▁구": 3586,
      "▁없": 3587,
      "▁밝": 3588,
      "▁달": 3589,
      "▁가": 3590,
      "▁슴": 3591,
      "▁일": 3592,
      "▁편": 3593,
      "▁단": 3594,
      "▁җ": 3595,
      "▁塊": 3596,
      "▁土": 3597,
      "▁ピ": 3598,
      "▁苍": 3599,
      "▁茫": 3600,
      "▁庄": 3601,
      "▁严": 3602,
      "▁巍": 3603,
      "▁然": 3604,
      "▁央": 3605,
      "▁西": 3606,
      "▁化": 3607,
      "▁荟": 3608,
      "▁萃": 3609,
      "▁堂": 3610,
      "▁同": 3611,
      "▁爰": 3612,
      "▁跻": 3613,
      "▁祖": 3614,
      "▁以": 3615,
      "▁光": 3616,
      "▁莘": 3617,
      "▁来": 3618,
      "▁远": 3619,
      "▁风": 3620,
      "▁雨": 3621,
      "▁行": 3622,
      "▁息": 3623,
      "▁须": 3624,
      "▁强": 3625,
      "▁左": 3626,
      "▁图": 3627,
      "▁右": 3628,
      "▁邺": 3629,
      "▁架": 3630,
      "▁致": 3631,
      "▁穷": 3632,
      "▁探": 3633,
      "▁微": 3634,
      "▁新": 3635,
      "▁旧": 3636,
      "▁冶": 3637,
      "▁殊": 3638,
      "▁途": 3639,
      "▁归": 3640,
      "▁肴": 3641,
      "▁核": 3642,
      "▁仁": 3643,
      "▁义": 3644,
      "▁闻": 3645,
      "▁肥": 3646,
      "▁服": 3647,
      "▁膺": 3648,
      "▁善": 3649,
      "▁无": 3650,
      "▁违": 3651,
      "▁能": 3652,
      "▁卑": 3653,
      "▁众": 3654,
      "▁水": 3655,
      "▁问": 3656,
      "▁笃": 3657,
      "▁实": 3658,
      "▁辉": 3659,
      "▁器": 3660,
      "▁识": 3661,
      "▁其": 3662,
      "▁从": 3663,
      "▁立": 3664,
      "▁德": 3665,
      "▁言": 3666,
      "▁孰": 3667,
      "▁介": 3668,
      "▁绍": 3669,
      "▁之": 3670,
      "▁功": 3671,
      "▁视": 3672,
      "▁泱": 3673,
      "▁木": 3674,
      "▁清": 3675,
      "▁秀": 3676,
      "▁钟": 3677,
      "▁万": 3678,
      "▁悃": 3679,
      "▁如": 3680,
      "▁矢": 3681,
      "▁赫": 3682,
      "▁ɪ": 3683,
      "▁ɜ": 3684,
      "▁ɡ": 3685,
      "▁ფ": 3686,
      "▁ხ": 3687,
      "▁ზ": 3688,
      "▁თ": 3689,
      "▁յ": 3690,
      "▁լ": 3691,
      "▁զ": 3692,
      "▁ւ": 3693,
      "▁내": 3694,
      "▁셨": 3695,
      "▁💐": 3696,
      "▁☄": 3697,
      "▁仕": 3698,
      "▁事": 3699,
      "▁何": 3700,
      "▁ŭ": 3701,
      "▁龙": 3702,
      "▁🐝": 3703,
      "▁決": 3704,
      "▁由": 3705,
      "▁紀": 3706,
      "▁夫": 3707,
      "▁若": 3708,
      "▁者": 3709,
      "▁ち": 3710,
      "▁😰": 3711,
      "▁ぎ": 3712,
      "▁仙": 3713,
      "▁ʒ": 3714,
      "▁ӹ": 3715,
      "▁陽": 3716,
      "▁屯": 3717,
      "▁告": 3718,
      "▁🖕": 3719,
      "▁気": 3720,
      "▁晶": 3721,
      "▁说": 3722,
      "▁汉": 3723,
      "▁Ἑ": 3724,
      "▁ὴ": 3725,
      "▁ῶ": 3726,
      "▁保": 3727,
      "▁主": 3728,
      "▁慶": 3729,
      "▁什": 3730,
      "▁么": 3731,
      "▁😐": 3732,
      "▁懂": 3733,
      "▁😈": 3734,
      "▁蛛": 3735,
      "▁糸": 3736,
      "▁佑": 3737,
      "▁兴": 3738,
      "▁°": 3739,
      "▁😛": 3740,
      "▁プ": 3741,
      "▁五": 3742,
      "▁衰": 3743,
      "▁维": 3744,
      "▁治": 3745,
      "▁博": 3746,
      "▁物": 3747,
      "▁馆": 3748,
      "▁ž": 3749,
      "▁色": 3750,
      "▁冰": 3751,
      "▁川": 3752,
      "▁💃": 3753,
      "▁💆": 3754,
      "▁ケ": 3755,
      "▁丈": 3756,
      "▁📸": 3757,
      "▁람": 3758,
      "▁草": 3759,
      "▁悪": 3760,
      "▁魔": 3761,
      "▁ϡ": 3762,
      "▁👓": 3763,
      "▁ử": 3764,
      "▁ệ": 3765,
      "▁岡": 3766,
      "▁威": 3767,
      "▁ư": 3768,
      "▁ủ": 3769,
      "▁仮": 3770,
      "▁Ü": 3771,
      "▁妹": 3772,
      "▁🤠": 3773,
      "▁ћ": 3774,
      "▁ʃ": 3775,
      "▁思": 3776,
      "▁湘": 3777,
      "▁म": 3778,
      "▁ɔ": 3779,
      "▁울": 3780,
      "▁글": 3781,
      "▁평": 3782,
      "▁양": 3783,
      "▁말": 3784,
      "▁😡": 3785,
      "▁Æ": 3786,
      "▁書": 3787,
      "▁ἶ": 3788,
      "▁姉": 3789,
      "▁ќ": 3790,
      "▁勉": 3791,
      "▁強": 3792,
      "▁波": 3793,
      "▁ノ": 3794,
      "▁É": 3795,
      "▁ใ": 3796,
      "▁ห": 3797,
      "▁ญ": 3798,
      "▁✈": 3799,
      "▁☃": 3800,
      "▁ם": 3801,
      "▁特": 3802,
      "▁勒": 3803,
      "▁ɛ": 3804,
      "▁滅": 3805,
      "▁踏": 3806,
      "▁ბ": 3807,
      "▁უ": 3808,
      "▁ღ": 3809,
      "▁შ": 3810,
      "▁ვ": 3811,
      "▁树": 3812,
      "▁迎": 3813,
      "▁贝": 3814,
      "▁丝": 3815,
      "▁绸": 3816,
      "▁ァ": 3817,
      "▁ヤ": 3818,
      "▁幸": 3819,
      "▁牟": 3820,
      "▁🏌": 3821,
      "▁正": 3822,
      "▁Ý": 3823,
      "▁趣": 3824,
      "▁🇳": 3825,
      "▁🎎": 3826,
      "▁🌅": 3827,
      "▁⛩": 3828,
      "▁🙊": 3829,
      "▁友": 3830,
      "▁ヒ": 3831,
      "▁💙": 3832,
      "▁🌙": 3833,
      "▁💁": 3834,
      "▁전": 3835,
      "▁쟁": 3836,
      "▁💨": 3837,
      "▁督": 3838,
      "▁歌": 3839,
      "▁ম": 3840,
      "▁ণ": 3841,
      "▁ポ": 3842,
      "▁ذ": 3843,
      "▁低": 3844,
      "▁个": 3845,
      "▁多": 3846,
      "▁少": 3847,
      "▁钱": 3848,
      "▁ὸ": 3849,
      "▁ὐ": 3850,
      "▁ξ": 3851,
      "▁俄": 3852,
      "▁罗": 3853,
      "▁斯": 3854,
      "▁": 3855,
      "▁分": 3856,
      "▁😶": 3857,
      "▁🌚": 3858,
      "▁維": 3859,
      "▁际": 3860,
      "▁巴": 3861,
      "▁扎": 3862,
      "▁💸": 3863,
      "▁ɣ": 3864,
      "▁び": 3865,
      "▁寂": 3866,
      "▁": 3867,
      "▁": 3868,
      "▁ự": 3869,
      "▁ổ": 3870,
      "▁爺": 3871,
      "▁र": 3872,
      "▁ग": 3873,
      "▁ण": 3874,
      "▁ज": 3875,
      "▁鉄": 3876,
      "▁ʿ": 3877,
      "▁け": 3878,
      "▁광": 3879,
      "▁역": 3880,
      "▁ض": 3881,
      "▁ج": 3882,
      "▁系": 3883,
      "▁記": 3884,
      "▁欢": 3885,
      "▁笑": 3886,
      "▁顔": 3887,
      "▁ぶ": 3888,
      "▁👫": 3889,
      "▁🍑": 3890,
      "▁猶": 3891,
      "▁太": 3892,
      "▁گ": 3893,
      "▁ψ": 3894,
      "▁þ": 3895,
      "▁😗": 3896,
      "▁🤓": 3897,
      "▁题": 3898,
      "▁🐎": 3899,
      "▁🐗": 3900,
      "▁🦌": 3901,
      "▁🐀": 3902,
      "▁勧": 3903,
      "▁銀": 3904,
      "▁湖": 3905,
      "▁鲁": 3906,
      "▁齐": 3907,
      "▁电": 3908,
      "▁台": 3909,
      "▁舞": 3910,
      "▁諸": 3911,
      "▁ϛ": 3912,
      "▁作": 3913,
      "▁昧": 3914,
      "▁ҫ": 3915,
      "▁小": 3916,
      "▁平": 3917,
      "▁潮": 3918,
      "▁⬆": 3919,
      "▁认": 3920,
      "▁ב": 3921,
      "▁ץ": 3922,
      "▁開": 3923,
      "▁ず": 3924,
      "▁変": 3925,
      "▁わ": 3926,
      "▁爱": 3927,
      "▁敎": 3928,
      "▁テ": 3929,
      "▁迅": 3930,
      "▁變": 3931,
      "▁葬": 3932,
      "▁џ": 3933,
      "▁院": 3934,
      "▁ㅜ": 3935,
      "▁ㅡ": 3936,
      "▁ㅛ": 3937,
      "▁ㅠ": 3938,
      "▁민": 3939,
      "▁음": 3940,
      "▁례": 3941,
      "▁본": 3942,
      "▁💪": 3943,
      "▁字": 3944,
      "▁Ş": 3945,
      "▁判": 3946,
      "▁할": 3947,
      "▁ゾ": 3948,
      "▁サ": 3949,
      "▁做": 3950,
      "▁梦": 3951,
      "▁😆": 3952,
      "▁灭": 3953,
      "▁迫": 3954,
      "▁篤": 3955,
      "▁贵": 3956,
      "▁🔫": 3957,
      "▁ध": 3958,
      "▁🚢": 3959,
      "▁◄": 3960,
      "▁ϝ": 3961,
      "▁ʰ": 3962,
      "▁在": 3963,
      "▁雅": 3964,
      "▁库": 3965,
      "▁茨": 3966,
      "▁克": 3967,
      "▁ҹ": 3968,
      "▁計": 3969,
      "▁元": 3970,
      "▁む": 3971,
      "▁ظ": 3972,
      "▁宝": 3973,
      "▁コ": 3974,
      "▁牙": 3975,
      "▁意": 3976,
      "▁ĝ": 3977,
      "▁減": 3978,
      "▁宮": 3979,
      "▁👉": 3980,
      "▁产": 3981,
      "▁阶": 3982,
      "▁级": 3983,
      "▁革": 3984,
      "▁命": 3985,
      "▁城": 3986,
      "▁记": 3987,
      "▁▐": 3988,
      "▁妮": 3989,
      "▁ᠺ": 3990,
      "▁ᠫ": 3991,
      "▁ᠡ": 3992,
      "▁ᠳ": 3993,
      "▁ᠶ": 3994,
      "▁ᠠ": 3995,
      "▁ᠦ": 3996,
      "▁ᠲ": 3997,
      "▁ᠨ": 3998,
      "▁ᠷ": 3999,
      "▁ᠬ": 4000,
      "▁ᠤ": 4001,
      "▁審": 4002,
      "▁煩": 4003,
      "▁雑": 4004,
      "▁냈": 4005,
      "▁☺": 4006,
      "▁👽": 4007,
      "▁ტ": 4008,
      "▁კ": 4009,
      "▁³": 4010,
      "▁↵": 4011,
      "▁勿": 4012,
      "▁論": 4013,
      "▁軍": 4014,
      "▁隅": 4015,
      "▁哈": 4016,
      "▁吉": 4017,
      "▁😤": 4018,
      "▁矿": 4019,
      "▁支": 4020,
      "▁兄": 4021,
      "▁ǧ": 4022,
      "▁侨": 4023,
      "▁🍸": 4024,
      "▁全": 4025,
      "▁±": 4026,
      "▁几": 4027,
      "▁点": 4028,
      "▁վ": 4029,
      "▁ռ": 4030,
      "▁ղ": 4031,
      "▁ҷ": 4032,
      "▁ӣ": 4033,
      "▁ミ": 4034,
      "▁🙇": 4035,
      "▁君": 4036,
      "▁氏": 4037,
      "▁赤": 4038,
      "▁ʧ": 4039,
      "▁英": 4040,
      "▁른": 4041,
      "▁바": 4042,
      "▁서": 4043,
      "▁ɐ": 4044,
      "▁巾": 4045,
      "▁秋": 4046,
      "▁🚔": 4047,
      "▁蚤": 4048,
      "▁そ": 4049,
      "▁😼": 4050,
      "▁Ð": 4051,
      "▁影": 4052,
      "▁🌯": 4053,
      "▁ハ": 4054,
      "▁🎒": 4055,
      "▁帳": 4056,
      "▁像": 4057,
      "▁杯": 4058,
      "▁天": 4059,
      "▁ϸ": 4060,
      "▁φ": 4061,
      "▁野": 4062,
      "▁抄": 4063,
      "▁へ": 4064,
      "▁犬": 4065,
      "▁笛": 4066,
      "▁👅": 4067,
      "▁撫": 4068,
      "▁園": 4069,
      "▁帆": 4070,
      "▁掛": 4071,
      "▁岩": 4072,
      "▁⃣": 4073,
      "▁🙋": 4074,
      "▁晩": 4075,
      "▁‬": 4076,
      "▁ې": 4077,
      "▁ʐ": 4078,
      "▁ᵻ": 4079,
      "▁肃": 4080,
      "▁魂": 4081,
      "▁祭": 4082,
      "▁ἰ": 4083,
      "▁塔": 4084,
      "▁张": 4085,
      "▁哲": 4086,
      "▁开": 4087,
      "▁吐": 4088,
      "▁夷": 4089,
      "▁章": 4090,
      "▁読": 4091,
      "▁ῆ": 4092,
      "▁叫": 4093,
      "▁艾": 4094,
      "▁森": 4095,
      "▁動": 4096,
      "▁얼": 4097,
      "▁예": 4098,
      "▁ề": 4099,
      "▁ộ": 4100,
      "▁ờ": 4101,
      "▁錫": 4102,
      "▁🚩": 4103,
      "▁真": 4104,
      "▁입": 4105,
      "▁產": 4106,
      "▁階": 4107,
      "▁級": 4108,
      "▁很": 4109,
      "▁ม": 4110,
      "▁영": 4111,
      "▁►": 4112,
      "▁🎄": 4113,
      "▁생": 4114,
      "▁整": 4115,
      "▁費": 4116,
      "▁用": 4117,
      "▁債": 4118,
      "▁権": 4119,
      "▁騒": 4120,
      "▁👐": 4121,
      "▁弟": 4122,
      "▁窮": 4123,
      "▁花": 4124,
      "▁千": 4125,
      "▁麗": 4126,
      "▁歩": 4127,
      "▁🌹": 4128,
      "▁琴": 4129,
      "▁件": 4130,
      "▁域": 4131,
      "▁阿": 4132,
      "▁呆": 4133,
      "▁🤦": 4134,
      "▁ば": 4135,
      "▁充": 4136,
      "▁丽": 4137,
      "▁−": 4138,
      "▁马": 4139,
      "▁腐": 4140,
      "▁殻": 4141,
      "▁共": 4142,
      "▁兵": 4143,
      "▁衛": 4144,
      "▁🤖": 4145,
      "▁👾": 4146,
      "▁世": 4147,
      "▁ȳ": 4148,
      "▁랜": 4149,
      "▁粥": 4150,
      "▁依": 4151,
      "▁财": 4152,
      "▁经": 4153,
      "▁그": 4154,
      "▁룹": 4155,
      "▁流": 4156,
      "▁工": 4157,
      "▁捉": 4158,
      "▁閩": 4159,
      "▁²": 4160,
      "▁✋": 4161,
      "▁勇": 4162,
      "▁进": 4163,
      "▁曲": 4164,
      "▁脉": 4165,
      "▁️": 4166,
      "▁所": 4167,
      "▁圣": 4168,
      "▁◆": 4169,
      "▁😣": 4170,
      "▁ホ": 4171,
      "▁医": 4172,
      "▁科": 4173,
      "▁Հ": 4174,
      "▁🙉": 4175,
      "▁£": 4176,
      "▁ນ": 4177,
      "▁ປ": 4178,
      "▁ຊ": 4179,
      "▁ໄ": 4180,
      "▁ຕ": 4181,
      "▁ぞ": 4182,
      "▁🌺": 4183,
      "▁🌴": 4184,
      "▁ェ": 4185,
      "▁星": 4186,
      "▁소": 4187,
      "▁무": 4188,
      "▁喜": 4189,
      "▁ϙ": 4190,
      "▁ڭ": 4191,
      "▁豁": 4192,
      "▁💭": 4193,
      "▁済": 4194,
      "▁便": 4195,
      "▁宜": 4196,
      "▁🚬": 4197,
      "▁要": 4198,
      "▁打": 4199,
      "▁扰": 4200,
      "▁耳": 4201,
      "▁猴": 4202,
      "▁ӗ": 4203,
      "▁ӑ": 4204,
      "▁列": 4205,
      "▁🖖": 4206,
      "▁姫": 4207,
      "▁ϊ": 4208,
      "▁🍣": 4209,
      "▁察": 4210,
      "▁烈": 4211,
      "▁武": 4212,
      "▁皇": 4213,
      "▁后": 4214,
      "▁ӱ": 4215,
      "▁係": 4216,
      "▁驼": 4217,
      "▁祥": 4218,
      "▁穣": 4219,
      "▁經": 4220,
      "▁口": 4221,
      "▁ɾ": 4222,
      "▁律": 4223,
      "▁獄": 4224,
      "▁🍁": 4225,
      "▁侯": 4226,
      "▁爵": 4227,
      "▁폐": 4228,
      "▁": 4229,
      "▁💝": 4230,
      "▁欲": 4231,
      "▁🤝": 4232,
      "▁🥁": 4233,
      "▁🎺": 4234,
      "▁👭": 4235,
      "▁प": 4236,
      "▁े": 4237,
      "▁श": 4238,
      "▁": 4239,
      "▁": 4240,
      "▁惑": 4241,
      "▁浅": 4242,
      "▁芸": 4243,
      "▁余": 4244,
      "▁歯": 4245,
      "▁車": 4246,
      "▁訴": 4247,
      "▁գ": 4248,
      "▁🏡": 4249,
      "▁ế": 4250,
      "▁ǵ": 4251,
      "▁午": 4252,
      "▁閣": 4253,
      "▁県": 4254,
      "▁궁": 4255,
      "▁화": 4256,
      "▁삼": 4257,
      "▁천": 4258,
      "▁려": 4259,
      "▁강": 4260,
      "▁남": 4261,
      "▁위": 4262,
      "▁철": 4263,
      "▁갑": 4264,
      "▁불": 4265,
      "▁변": 4266,
      "▁함": 4267,
      "▁├": 4268,
      "▁┤": 4269,
      "▁ἐ": 4270,
      "▁ְ": 4271,
      "▁ֵ": 4272,
      "▁慈": 4273,
      "▁¥": 4274,
      "▁ێ": 4275,
      "▁ㅒ": 4276,
      "▁ㅔ": 4277,
      "▁ㅖ": 4278,
      "▁फ": 4279,
      "▁़": 4280,
      "▁բ": 4281,
      "▁դ": 4282,
      "▁ຸ": 4283,
      "▁ຍ": 4284,
      "▁ພ": 4285,
      "▁ບ": 4286,
      "▁ງ": 4287,
      "▁ສ": 4288,
      "▁ຖ": 4289,
      "▁ກ": 4290,
      "▁ິ": 4291,
      "▁🐧": 4292,
      "▁ㅙ": 4293,
      "▁ㅚ": 4294,
      "▁ㅝ": 4295,
      "▁ㅞ": 4296,
      "▁ㅟ": 4297,
      "▁ㅢ": 4298,
      "▁🔆": 4299,
      "▁☀": 4300,
      "▁ᾰ": 4301,
      "▁魯": 4302,
      "▁齊": 4303,
      "▁县": 4304,
      "▁苅": 4305,
      "▁👊": 4306,
      "▁導": 4307,
      "▁信": 4308,
      "▁輔": 4309,
      "▁半": 4310,
      "▁哀": 4311,
      "▁禰": 4312,
      "▁Қ": 4313,
      "▁ۆ": 4314,
      "▁馬": 4315,
      "▁频": 4316,
      "▁ㄴ": 4317,
      "▁ㄷ": 4318,
      "▁ㄹ": 4319,
      "▁ㅁ": 4320,
      "▁ㅂ": 4321,
      "▁ㅅ": 4322,
      "▁ㅇ": 4323,
      "▁ㅈ": 4324,
      "▁ㅊ": 4325,
      "▁ㅋ": 4326,
      "▁ㅌ": 4327,
      "▁ㅍ": 4328,
      "▁ㅎ": 4329,
      "▁繼": 4330,
      "▁鋼": 4331,
      "▁Ι": 4332,
      "▁ག": 4333,
      "▁འ": 4334,
      "▁བ": 4335,
      "▁ཀ": 4336,
      "▁ཁ": 4337,
      "▁돌": 4338,
      "▁発": 4339,
      "▁园": 4340,
      "▁盗": 4341,
      "▁受": 4342,
      "▁ㅓ": 4343,
      "▁ㅣ": 4344,
      "▁ㅑ": 4345,
      "▁ㅕ": 4346,
      "▁利": 4347,
      "▁佐": 4348,
      "▁沃": 4349,
      "▁🗒": 4350,
      "▁問": 4351,
      "▁答": 4352,
      "▁│": 4353,
      "▁ई": 4354,
      "▁ṛ": 4355,
      "▁龍": 4356,
      "▁宁": 4357,
      "▁ங": 4358,
      "▁க": 4359,
      "▁ப": 4360,
      "▁ூ": 4361,
      "▁ர": 4362,
      "▁🇮": 4363,
      "▁🇹": 4364,
      "▁魚": 4365,
      "▁ょ": 4366,
      "▁ņ": 4367,
      "▁ﻟ": 4368,
      "▁ﯘ": 4369,
      "▁찬": 4370,
      "▁식": 4371,
      "▁鶴": 4372,
      "▁童": 4373,
      "▁ζ": 4374,
      "▁浜": 4375,
      "▁🔪": 4376,
      "▁🐭": 4377,
      "▁ほ": 4378,
      "▁伝": 4379,
      "▁ನ": 4380,
      "▁್": 4381,
      "▁ಡ": 4382,
      "▁ċ": 4383,
      "▁粵": 4384,
      "▁福": 4385,
      "▁祈": 4386,
      "▁와": 4387,
      "▁문": 4388,
      "▁교": 4389,
      "▁실": 4390,
      "▁ই": 4391,
      "▁উ": 4392,
      "▁🙁": 4393,
      "▁雪": 4394,
      "▁坂": 4395,
      "▁早": 4396,
      "▁素": 4397,
      "▁晴": 4398,
      "▁连": 4399,
      "▁试": 4400,
      "▁争": 4401,
      "▁⛄": 4402,
      "▁♏": 4403,
      "▁戸": 4404,
      "▁数": 4405,
      "▁병": 4406,
      "▁芬": 4407,
      "▁Ґ": 4408,
      "▁結": 4409,
      "▁✅": 4410,
      "▁曰": 4411,
      "▁ց": 4412,
      "▁红": 4413,
      "▁旗": 4414,
      "▁ҧ": 4415,
      "▁🌿": 4416,
      "▁🌞": 4417,
      "▁🙆": 4418,
      "▁🤐": 4419,
      "▁반": 4420,
      "▁습": 4421,
      "▁🌷": 4422,
      "▁🌸": 4423,
      "▁农": 4424,
      "▁业": 4425,
      "▁頓": 4426,
      "▁筵": 4427,
      "▁連": 4428,
      "▁邦": 4429,
      "▁ⱶ": 4430,
      "▁嬉": 4431,
      "▁ۋ": 4432,
      "▁🤷": 4433,
      "▁儒": 4434,
      "▁葉": 4435,
      "▁e ": 4436,
      "▁t ": 4437,
      "▁th": 4438,
      "▁ou": 4439,
      "▁in": 4440,
      "▁d ": 4441,
      "▁s ": 4442,
      "▁er": 4443,
      "▁an": 4444,
      "▁o ": 4445,
      "▁y ": 4446,
      "▁on": 4447,
      "▁ th": 4448,
      "▁you": 4449,
      "▁ha": 4450,
      "▁en": 4451,
      "▁н ": 4452,
      "▁ll": 4453,
      "▁ing": 4454,
      "▁ea": 4455,
      "▁ар": 4456,
      "▁or": 4457,
      "▁ w": 4458,
      "▁а ": 4459,
      "▁ s": 4460,
      "▁ a": 4461,
      "▁to ": 4462,
      "▁ow": 4463,
      "▁it": 4464,
      "s ": 4465,
      "▁ m": 4466,
      "▁and ": 4467,
      "▁ d": 4468,
      "▁эр": 4469,
      "▁om": 4470,
      "▁ar": 4471,
      "▁it ": 4472,
      "▁es": 4473,
      "▁ing ": 4474,
      "▁ the ": 4475,
      "▁аа": 4476,
      "▁gh": 4477,
      "▁of": 4478,
      "▁is ": 4479,
      "▁you ": 4480,
      "▁he ": 4481,
      "▁go": 4482,
      "▁ed ": 4483,
      "▁at": 4484,
      "▁ b": 4485,
      "▁the ": 4486,
      "▁at ": 4487,
      "▁ve ": 4488,
      "▁us": 4489,
      "▁ c": 4490,
      "▁ell": 4491,
      "▁eah": 4492,
      "▁э ": 4493,
      "▁уо": 4494,
      "t ": 4495,
      "▁er ": 4496,
      "▁now": 4497,
      "▁li": 4498,
      "▁wa": 4499,
      "▁ к": 4500,
      "▁a ": 4501,
      "▁he": 4502,
      "▁ri": 4503,
      "▁ I": 4504,
      "▁ с": 4505,
      "▁hat ": 4506,
      "▁ut ": 4507,
      "▁ck": 4508,
      "▁ б": 4509,
      "▁ыл": 4510,
      "▁ere ": 4511,
      "▁for": 4512,
      "▁es ": 4513,
      "▁oo": 4514,
      "Yeah": 4515,
      "▁st": 4516,
      "▁ke ": 4517,
      "▁нн": 4518,
      "▁та": 4519,
      "▁know": 4520,
      "▁re": 4521,
      "▁ch": 4522,
      "▁ор": 4523,
      "▁nd ": 4524,
      "▁et ": 4525,
      "▁no": 4526,
      "▁ h": 4527,
      "▁the": 4528,
      "▁ti": 4529,
      "▁ you": 4530,
      "▁ты": 4531,
      "▁ал": 4532,
      "▁id ": 4533,
      "You": 4534,
      "▁is": 4535,
      "▁out ": 4536,
      "▁ay": 4537,
      "▁have ": 4538,
      "▁ld ": 4539,
      "▁all": 4540,
      "▁ere": 4541,
      "▁hat": 4542,
      "▁ай": 4543,
      "▁al": 4544,
      "▁ту": 4545,
      "Oh": 4546,
      "▁ght ": 4547,
      "▁id": 4548,
      "▁ти": 4549,
      "▁that ": 4550,
      "▁up": 4551,
      "▁el": 4552,
      "▁et": 4553,
      "▁en ": 4554,
      "▁ан ": 4555,
      "▁ver": 4556,
      "▁ir": 4557,
      "▁██": 4558,
      "▁one ": 4559,
      "▁ил": 4560,
      "▁ары": 4561,
      "▁ан": 4562,
      "▁ust ": 4563,
      "▁эн ": 4564,
      "▁got ": 4565,
      "▁me ": 4566,
      "▁ол": 4567,
      "▁ар ": 4568,
      "▁ith": 4569,
      "▁le ": 4570,
      "re ": 4571,
      "▁ay ": 4572,
      "▁ t": 4573,
      "▁un": 4574,
      "▁ the": 4575,
      "ve ": 4576,
      "▁rea": 4577,
      "▁ p": 4578,
      "▁if": 4579,
      "▁ght": 4580,
      "▁ro": 4581,
      "▁was ": 4582,
      "▁ink": 4583,
      "▁ах": 4584,
      "ll": 4585,
      "▁тт": 4586,
      "▁m ": 4587,
      "▁ome ": 4588,
      "▁уу": 4589,
      "▁өр": 4590,
      "▁lo": 4591,
      "▁as": 4592,
      "▁ии": 4593,
      "▁ur": 4594,
      "▁ec": 4595,
      "▁ly ": 4596,
      "▁эл": 4597,
      "▁get ": 4598,
      "▁like ": 4599,
      "▁ee": 4600,
      "▁an ": 4601,
      "▁ д": 4602,
      "▁ic": 4603,
      "▁ don": 4604,
      "▁ear": 4605,
      "▁as ": 4606,
      "▁wh": 4607,
      "▁not ": 4608,
      "▁op": 4609,
      "Well": 4610,
      "▁ and ": 4611,
      "▁ould ": 4612,
      "▁уол": 4613,
      "▁ab": 4614,
      "▁ook": 4615,
      "▁ин": 4616,
      "▁ne": 4617,
      "▁ f": 4618,
      "▁just ": 4619,
      "▁ст": 4620,
      "▁our": 4621,
      "▁ыы": 4622,
      "▁ill": 4623,
      "▁ул": 4624,
      "▁ that ": 4625,
      "▁me": 4626,
      "▁иэ": 4627,
      "▁ra": 4628,
      "▁ээ": 4629,
      "I ": 4630,
      "And ": 4631,
      "No": 4632,
      "▁hi": 4633,
      "▁se": 4634,
      "▁le": 4635,
      "▁ me": 4636,
      "▁ome": 4637,
      "▁aid ": 4638,
      "▁аах": 4639,
      "▁on ": 4640,
      "▁ск": 4641,
      "▁ think": 4642,
      "▁go ": 4643,
      "▁se ": 4644,
      "▁бы": 4645,
      "Th": 4646,
      "▁т ": 4647,
      "▁ур": 4648,
      "▁be": 4649,
      "▁do": 4650,
      "▁that": 4651,
      "s a": 4652,
      "▁а с": 4653,
      "▁od": 4654,
      "▁ин ": 4655,
      "▁in ": 4656,
      "▁of ": 4657,
      "▁be ": 4658,
      "Wh": 4659,
      "▁ta": 4660,
      "▁ter": 4661,
      "▁и ": 4662,
      "▁эр ": 4663,
      "▁аҕ": 4664,
      "▁one": 4665,
      "▁own": 4666,
      "▁ant ": 4667,
      "▁ат": 4668,
      "▁ you ": 4669,
      "▁ld": 4670,
      "▁they ": 4671,
      "▁ack": 4672,
      "▁ent": 4673,
      "▁I ": 4674,
      "▁oth": 4675,
      "▁дь": 4676,
      "Mm": 4677,
      "▁your": 4678,
      "▁do ": 4679,
      "▁with": 4680,
      "▁би": 4681,
      "It": 4682,
      "▁thing": 4683,
      "▁ wh": 4684,
      "▁ac": 4685,
      "What ": 4686,
      "▁████": 4687,
      "▁ad": 4688,
      "▁are ": 4689,
      "▁ы ": 4690,
      "▁с ": 4691,
      "▁ent ": 4692,
      "▁um": 4693,
      "▁ов": 4694,
      "▁in the ": 4695,
      "▁we ": 4696,
      "▁ия": 4697,
      "▁had ": 4698,
      "▁ it": 4699,
      "▁ыр": 4700,
      "▁иһ": 4701,
      "▁sh": 4702,
      "m ": 4703,
      "▁үл": 4704,
      "▁pl": 4705,
      "▁ight ": 4706,
      "▁ag": 4707,
      "▁он": 4708,
      "▁rou": 4709,
      "▁ed": 4710,
      "▁ it ": 4711,
      "▁ing to ": 4712,
      "▁ut": 4713,
      "▁look": 4714,
      "▁ what ": 4715,
      "▁ик": 4716,
      "▁эй": 4717,
      "▁ be ": 4718,
      "▁she ": 4719,
      "▁ that": 4720,
      "▁эт": 4721,
      "No ": 4722,
      "▁ир": 4723,
      "▁po": 4724,
      "▁ук": 4725,
      "▁qu": 4726,
      "▁а к": 4727,
      "▁ev": 4728,
      "▁ight": 4729,
      "That": 4730,
      "▁ to ": 4731,
      "▁this ": 4732,
      "▁off": 4733,
      "▁ do ": 4734,
      "▁oh": 4735,
      "▁na": 4736,
      "▁иг": 4737,
      "▁tw": 4738,
      "▁yeah": 4739,
      "▁to": 4740,
      "▁my ": 4741,
      "▁co": 4742,
      "▁а б": 4743,
      "▁idn": 4744,
      "▁can": 4745,
      "▁no ": 4746,
      "▁si": 4747,
      "▁use ": 4748,
      "▁but ": 4749,
      "▁нан ": 4750,
      "▁and": 4751,
      "But ": 4752,
      "▁ want ": 4753,
      "▁ылл": 4754,
      "▁st ": 4755,
      "▁ was ": 4756,
      "▁ed to ": 4757,
      "▁ер": 4758,
      "▁any": 4759,
      "Oh ": 4760,
      "and ": 4761,
      "▁аты": 4762,
      "▁thing ": 4763,
      "▁ee ": 4764,
      "▁ a ": 4765,
      "▁ive ": 4766,
      "▁rom": 4767,
      "▁il": 4768,
      "▁то": 4769,
      "▁am": 4770,
      "▁right": 4771,
      "▁ I ": 4772,
      "▁ буол": 4773,
      "▁ can": 4774,
      "▁ever": 4775,
      "▁ас": 4776,
      "▁х ": 4777,
      "▁н к": 4778,
      "▁im": 4779,
      "▁тү": 4780,
      "▁you know": 4781,
      "ll ": 4782,
      "▁ with": 4783,
      "▁ this ": 4784,
      "▁иир": 4785,
      "▁what ": 4786,
      "▁ st": 4787,
      "You ": 4788,
      "▁ong": 4789,
      "▁re ": 4790,
      "▁ould": 4791,
      "▁у ": 4792,
      "▁ce ": 4793,
      "▁don": 4794,
      "▁well": 4795,
      "The ": 4796,
      "▁way": 4797,
      "▁so ": 4798,
      "▁ul": 4799,
      "▁gon": 4800,
      "you": 4801,
      "▁ig": 4802,
      "▁эм": 4803,
      "▁mor": 4804,
      "Yes": 4805,
      "▁ake ": 4806,
      "▁ ab": 4807,
      "▁һы": 4808,
      "▁уонн": 4809,
      "▁said ": 4810,
      "▁ your": 4811,
      "▁pp": 4812,
      "The": 4813,
      "▁reall": 4814,
      "▁ we ": 4815,
      "▁ my ": 4816,
      "ve got ": 4817,
      "▁ain": 4818,
      "▁uck": 4819,
      "▁оҕ": 4820,
      "▁wor": 4821,
      "t know": 4822,
      "▁ at ": 4823,
      "▁иэн ": 4824,
      "▁itt": 4825,
      "▁right ": 4826,
      "What": 4827,
      "▁чч": 4828,
      "▁any ": 4829,
      "So ": 4830,
      "▁н с": 4831,
      "▁back": 4832,
      "▁эһ": 4833,
      "I don": 4834,
      "▁ex": 4835,
      "▁үү": 4836,
      "▁ mean": 4837,
      "▁hav": 4838,
      "▁ sh": 4839,
      "▁then": 4840,
      "▁эрэ ": 4841,
      "▁ought ": 4842,
      "▁эн": 4843,
      "▁out": 4844,
      "▁ty ": 4845,
      "▁und": 4846,
      "▁ай ": 4847,
      "▁ут": 4848,
      "▁ant": 4849,
      "▁ they ": 4850,
      "▁эти": 4851,
      "▁on the ": 4852,
      "▁about ": 4853,
      "▁ do": 4854,
      "He ": 4855,
      "▁ind ": 4856,
      "▁ause ": 4857,
      "▁res": 4858,
      "▁ам": 4859,
      "▁we": 4860,
      "▁н б": 4861,
      "▁ there": 4862,
      "▁od ": 4863,
      "▁they": 4864,
      "It ": 4865,
      "▁ой": 4866,
      "▁ick": 4867,
      "▁гар ": 4868,
      "▁ит": 4869,
      "▁ий": 4870,
      "▁ouldn": 4871,
      "▁ said ": 4872,
      "▁ дь": 4873,
      "▁uch": 4874,
      "▁ыт": 4875,
      "▁о ": 4876,
      "▁ом": 4877,
      "▁ion": 4878,
      "▁of the ": 4879,
      "▁ry": 4880,
      "▁there": 4881,
      "▁гэ ": 4882,
      "▁ about ": 4883,
      "▁ry ": 4884,
      "▁ke": 4885,
      "▁way ": 4886,
      "▁really ": 4887,
      "▁ in": 4888,
      "▁ecause ": 4889,
      "▁other": 4890,
      "▁com": 4891,
      "▁down": 4892,
      "▁ l": 4893,
      "▁there ": 4894,
      "▁very ": 4895,
      "▁ough": 4896,
      "▁ang": 4897,
      "▁ett": 4898,
      "▁ast ": 4899,
      "▁alk": 4900,
      "▁a b": 4901,
      "▁үө": 4902,
      "▁were ": 4903,
      "▁  ": 4904,
      "▁nd": 4905,
      "▁only ": 4906,
      "▁some": 4907,
      "▁ара ": 4908,
      "▁үг": 4909,
      "▁уй": 4910,
      "▁per": 4911,
      "▁from": 4912,
      "▁хт": 4913,
      "▁ see ": 4914,
      "▁ all": 4915,
      "▁lea": 4916,
      "▁ver ": 4917,
      "▁ be": 4918,
      "▁ there ": 4919,
      "▁ me ": 4920,
      "▁оло": 4921,
      "▁ce": 4922,
      "▁us ": 4923,
      "▁ый": 4924,
      "▁his ": 4925,
      "▁ad ": 4926,
      "▁time ": 4927,
      "▁ve": 4928,
      "▁га ": 4929,
      "▁ннь": 4930,
      "▁ite ": 4931,
      "▁or ": 4932,
      "▁have to ": 4933,
      "▁good ": 4934,
      "▁old ": 4935,
      "▁him": 4936,
      "▁ank": 4937,
      "▁er m": 4938,
      "▁eep": 4939,
      "▁eop": 4940,
      "▁пп": 4941,
      "▁sa": 4942,
      "▁dy ": 4943,
      "▁ев": 4944,
      "▁ she ": 4945,
      "▁os ": 4946,
      "▁ally ": 4947,
      "▁ some": 4948,
      "▁bod": 4949,
      "▁ so ": 4950,
      "▁na ": 4951,
      "▁илл": 4952,
      "▁аҥ": 4953,
      "▁уонна ": 4954,
      "▁эҕ": 4955,
      "s not ": 4956,
      "▁ree ": 4957,
      "▁үөр": 4958,
      "▁ар к": 4959,
      "▁тан ": 4960,
      "▁ен": 4961,
      "He": 4962,
      "▁some ": 4963,
      "▁put ": 4964,
      "▁for ": 4965,
      "▁ittle ": 4966,
      "▁ine ": 4967,
      "▁сп": 4968,
      "s the ": 4969,
      "▁say": 4970,
      "We ": 4971,
      "▁two ": 4972,
      "▁тур": 4973,
      "▁end": 4974,
      "▁s and ": 4975,
      "▁going to ": 4976,
      "▁аах ": 4977,
      "▁ын": 4978,
      "▁ they": 4979,
      "▁анн": 4980,
      "▁car": 4981,
      "▁████████": 4982,
      "Er": 4983,
      "▁her": 4984,
      "▁үр": 4985,
      "▁day ": 4986,
      "▁ru": 4987,
      "How": 4988,
      "▁аһ": 4989,
      "▁э с": 4990,
      "▁ them": 4991,
      "▁бит": 4992,
      "▁ol": 4993,
      "▁ but ": 4994,
      "▁улуу": 4995,
      "▁ort ": 4996,
      "▁оҥ": 4997,
      "▁ob": 4998,
      "▁к ": 4999,
      "▁pro": 5000,
      "▁олор": 5001,
      "▁sp": 5002,
      "▁им": 5003,
      "▁ wor": 5004,
      "▁алл": 5005,
      "▁eek": 5006,
      "▁ice ": 5007,
      "▁өл": 5008,
      "▁she": 5009,
      "▁tt": 5010,
      "▁come ": 5011,
      "▁ese ": 5012,
      "▁did ": 5013,
      "▁them": 5014,
      "▁ g": 5015,
      "▁ити": 5016,
      "▁art": 5017,
      "▁mb": 5018,
      "They ": 5019,
      "▁here": 5020,
      "▁year": 5021,
      "▁ун": 5022,
      "▁ didn": 5023,
      "▁ff": 5024,
      "▁та ": 5025,
      "▁mo": 5026,
      "▁ of": 5027,
      "▁when": 5028,
      "▁bo": 5029,
      "▁ther": 5030,
      "▁day": 5031,
      "▁кк": 5032,
      "▁ave ": 5033,
      "▁ he ": 5034,
      "▁илиэ": 5035,
      "▁sel": 5036,
      "She ": 5037,
      "▁ as ": 5038,
      "▁ун ": 5039,
      "▁other ": 5040,
      "▁аар": 5041,
      "▁ия ": 5042,
      "▁он ": 5043,
      "▁ous": 5044,
      "but ": 5045,
      "▁eople ": 5046,
      "▁fe": 5047,
      "▁a c": 5048,
      "▁bl": 5049,
      "▁уор": 5050,
      "▁үн": 5051,
      "▁tu": 5052,
      "d ": 5053,
      "▁тал": 5054,
      "▁ is ": 5055,
      "▁end ": 5056,
      "Do ": 5057,
      "Is ": 5058,
      "▁ег": 5059,
      "▁tell": 5060,
      "▁row": 5061,
      "▁how": 5062,
      "▁over": 5063,
      "▁here ": 5064,
      "▁өрө": 5065,
      "▁har": 5066,
      "▁ure ": 5067,
      "▁ич": 5068,
      "▁ well": 5069,
      "▁little ": 5070,
      "▁ine": 5071,
      "▁ thought ": 5072,
      "▁э к": 5073,
      "That ": 5074,
      "▁аал": 5075,
      "▁эр к": 5076,
      "▁new": 5077,
      "I know": 5078,
      "▁ish": 5079,
      "▁ind": 5080,
      "▁gonna": 5081,
      "▁ we": 5082,
      "▁тар": 5083,
      "▁haven": 5084,
      "▁isn": 5085,
      "▁yes": 5086,
      "▁going ": 5087,
      "Don": 5088,
      "▁body ": 5089,
      "▁to the ": 5090,
      "▁нэһ": 5091,
      "▁I don": 5092,
      "▁would ": 5093,
      "▁you w": 5094,
      "t it": 5095,
      "▁бү": 5096,
      "▁work": 5097,
      "▁ound ": 5098,
      "▁ation": 5099,
      "If": 5100,
      "▁gu": 5101,
      "▁take ": 5102,
      "▁ose ": 5103,
      "▁didn": 5104,
      "▁ for": 5105,
      "▁дук": 5106,
      "▁тэр": 5107,
      "▁la": 5108,
      "▁ate ": 5109,
      "▁ок": 5110,
      "▁gonna ": 5111,
      "▁ааҕ": 5112,
      "▁est ": 5113,
      "▁өй": 5114,
      "▁it was ": 5115,
      "▁sn": 5116,
      "▁нэһилиэ": 5117,
      "▁ al": 5118,
      "▁арын ": 5119,
      "▁ess ": 5120,
      "▁round ": 5121,
      "▁more ": 5122,
      "I think": 5123,
      "I w": 5124,
      "▁see ": 5125,
      "▁ma": 5126,
      "▁аан ": 5127,
      "▁est": 5128,
      "▁her ": 5129,
      "▁ly": 5130,
      "▁э б": 5131,
      "▁ыһ": 5132,
      "▁tion": 5133,
      "▁ard": 5134,
      "▁ын ": 5135,
      "▁ll ": 5136,
      "▁эб": 5137,
      "▁every": 5138,
      "▁talk": 5139,
      "▁self": 5140,
      "▁esn": 5141,
      "▁ are ": 5142,
      "▁will": 5143,
      "▁I w": 5144,
      "▁cos ": 5145,
      "▁enty ": 5146,
      "▁you s": 5147,
      "▁could ": 5148,
      "▁happ": 5149,
      "▁уб": 5150,
      "▁n ": 5151,
      "▁ho": 5152,
      "s s": 5153,
      "▁ool": 5154,
      "▁айд": 5155,
      "▁much": 5156,
      "▁red ": 5157,
      "▁give ": 5158,
      "▁di": 5159,
      "▁хс": 5160,
      "▁ар с": 5161,
      "t s": 5162,
      "▁s to ": 5163,
      "▁ess": 5164,
      "the ": 5165,
      "Ah": 5166,
      "▁atch": 5167,
      "▁te": 5168,
      "▁сс": 5169,
      "▁бэ": 5170,
      "▁ mean ": 5171,
      "▁ap": 5172,
      "▁ээх": 5173,
      "▁ want to ": 5174,
      "▁ing a": 5175,
      "▁con": 5176,
      "▁ар б": 5177,
      "▁ре": 5178,
      "▁быт": 5179,
      "▁fir": 5180,
      "▁уг": 5181,
      "▁тыл": 5182,
      "▁lot ": 5183,
      "▁all ": 5184,
      "▁been": 5185,
      "▁егор": 5186,
      "▁can ": 5187,
      "▁kay": 5188,
      "▁ark": 5189,
      "▁хо": 5190,
      "▁bab": 5191,
      "We": 5192,
      "Yes ": 5193,
      "▁four": 5194,
      "▁ра": 5195,
      "▁ттэн ": 5196,
      "▁ his ": 5197,
      "▁ways ": 5198,
      "▁эрин ": 5199,
      "▁man": 5200,
      "▁ge": 5201,
      "▁уһ": 5202,
      "This ": 5203,
      "▁ылдь": 5204,
      "s got ": 5205,
      "▁up ": 5206,
      "ll be ": 5207,
      "▁ did ": 5208,
      "▁уох": 5209,
      "▁онн": 5210,
      "▁ диэн ": 5211,
      "▁аха ": 5212,
      "▁a s": 5213,
      "▁ame ": 5214,
      "▁ist": 5215,
      "▁been ": 5216,
      "▁last ": 5217,
      "▁son": 5218,
      "▁then ": 5219,
      "▁not": 5220,
      "▁time": 5221,
      "▁air": 5222,
      "t you": 5223,
      "▁ м": 5224,
      "▁ot ": 5225,
      "▁because ": 5226,
      "▁say ": 5227,
      "▁I think": 5228,
      "▁them ": 5229,
      "▁туһ": 5230,
      "▁ыты": 5231,
      "▁ph": 5232,
      "▁атегор": 5233,
      "m not ": 5234,
      "▁sid": 5235,
      "▁оҥор": 5236,
      "▁memb": 5237,
      "▁lf": 5238,
      "▁ what": 5239,
      "▁has ": 5240,
      "▁art ": 5241,
      "▁by ": 5242,
      "▁oun": 5243,
      "▁ээх ": 5244,
      "▁think": 5245,
      "▁I s": 5246,
      "▁на": 5247,
      "▁ары ": 5248,
      "▁ely ": 5249,
      "▁ast": 5250,
      "th": 5251,
      "▁улууһ": 5252,
      "You know": 5253,
      "▁fore ": 5254,
      "▁where ": 5255,
      "▁өрү": 5256,
      "▁ful": 5257,
      "▁ус": 5258,
      "▁ when": 5259,
      "▁а д": 5260,
      "▁ down": 5261,
      "▁keep": 5262,
      "▁a m": 5263,
      "▁i ": 5264,
      "▁ond": 5265,
      "▁ сан": 5266,
      "▁ix": 5267,
      "▁week": 5268,
      "▁your ": 5269,
      "▁ him": 5270,
      "▁ел": 5271,
      "▁rough": 5272,
      "▁hea": 5273,
      "▁ers ": 5274,
      "▁people ": 5275,
      "▁ба": 5276,
      "▁bu": 5277,
      "They": 5278,
      "▁urn": 5279,
      "▁what": 5280,
      "▁элл": 5281,
      "▁ing the ": 5282,
      "Not ": 5283,
      "Just ": 5284,
      "Why ": 5285,
      "▁erm": 5286,
      "▁hear": 5287,
      "▁ык": 5288,
      "Did ": 5289,
      "▁ble": 5290,
      "▁him ": 5291,
      "▁af": 5292,
      "There": 5293,
      "▁ then": 5294,
      "▁бу": 5295,
      "Well ": 5296,
      "Right": 5297,
      "Now": 5298,
      "▁quite ": 5299,
      "▁ киһ": 5300,
      "▁ound": 5301,
      "▁ек": 5302,
      "▁room": 5303,
      "▁ect ": 5304,
      "▁ood ": 5305,
      "▁doesn": 5306,
      "▁ара": 5307,
      "▁гы": 5308,
      "▁ come ": 5309,
      "▁эрэ": 5310,
      "▁fuck": 5311,
      "▁ on": 5312,
      "yeah": 5313,
      "▁ tw": 5314,
      "▁iv": 5315,
      "▁ис": 5316,
      "it": 5317,
      "▁ойд": 5318,
      "On": 5319,
      "▁iff": 5320,
      "▁ро": 5321,
      "▁Ch": 5322,
      "▁ х": 5323,
      "▁inn": 5324,
      "▁ge ": 5325,
      "▁ааты": 5326,
      "t think": 5327,
      "▁long": 5328,
      "▁em": 5329,
      "▁I mean": 5330,
      "▁sk": 5331,
      "▁inut": 5332,
      "▁урдук": 5333,
      "▁even": 5334,
      "▁uppo": 5335,
      "▁erm ": 5336,
      "▁ов ": 5337,
      "▁атын ": 5338,
      "▁ud": 5339,
      "▁run": 5340,
      "▁ch ": 5341,
      "▁ep": 5342,
      "▁if you": 5343,
      "m s": 5344,
      "▁ord": 5345,
      "s a ": 5346,
      "Are ": 5347,
      "you ": 5348,
      "▁half": 5349,
      "▁need ": 5350,
      "▁ny": 5351,
      "▁too ": 5352,
      "▁аан": 5353,
      "▁call": 5354,
      "▁nice ": 5355,
      "▁ust": 5356,
      "▁five ": 5357,
      "Well I": 5358,
      "▁ a b": 5359,
      "▁ther ": 5360,
      "▁rememb": 5361,
      "▁ист": 5362,
      "▁ie": 5363,
      "▁r ": 5364,
      "▁gett": 5365,
      "▁тан": 5366,
      "▁av": 5367,
      "▁irl": 5368,
      "▁good": 5369,
      "▁al ": 5370,
      "▁never ": 5371,
      "▁tim": 5372,
      "▁uff": 5373,
      "▁пс": 5374,
      "▁ice": 5375,
      "▁oody ": 5376,
      "▁so": 5377,
      "▁under": 5378,
      "▁ts ": 5379,
      "re not ": 5380,
      "▁went ": 5381,
      "▁аачч": 5382,
      "▁ум": 5383,
      "▁a d": 5384,
      "▁эҥ": 5385,
      "▁got": 5386,
      "▁rec": 5387,
      "▁аай": 5388,
      "▁goes ": 5389,
      "▁hel": 5390,
      "▁ытт": 5391,
      "▁have a ": 5392,
      "▁ble ": 5393,
      "▁ her": 5394,
      "▁tra": 5395,
      "▁ull": 5396,
      "▁bably ": 5397,
      "▁etter": 5398,
      "▁want": 5399,
      "I s": 5400,
      "▁ren": 5401,
      "▁undred ": 5402,
      "▁и к": 5403,
      "Cos ": 5404,
      "▁ард": 5405,
      "▁эр с": 5406,
      "▁аахх": 5407,
      "▁happen": 5408,
      "▁kes ": 5409,
      "Have ": 5410,
      "▁эрд": 5411,
      "I can": 5412,
      "▁used to ": 5413,
      "▁ым": 5414,
      "▁I said ": 5415,
      "▁aw": 5416,
      "▁ace ": 5417,
      "▁the b": 5418,
      "▁ them ": 5419,
      "▁тө": 5420,
      "▁you can": 5421,
      "▁nex": 5422,
      "She": 5423,
      "Look": 5424,
      "▁ work": 5425,
      "▁I was ": 5426,
      "▁sort ": 5427,
      "▁ thing": 5428,
      "▁h ": 5429,
      "▁for the ": 5430,
      "▁и б": 5431,
      "▁эрг": 5432,
      "▁ she": 5433,
      "▁ ac": 5434,
      "▁morn": 5435,
      "▁make ": 5436,
      "▁ед": 5437,
      "▁аны": 5438,
      "▁ter ": 5439,
      "▁night": 5440,
      "▁ could ": 5441,
      "▁never": 5442,
      "▁six": 5443,
      "▁won": 5444,
      "s what ": 5445,
      "▁ааһы": 5446,
      "▁ood": 5447,
      "▁who ": 5448,
      "▁р ": 5449,
      "▁three ": 5450,
      "▁ем": 5451,
      "▁ers": 5452,
      "▁get": 5453,
      "▁нэһилиэгэ ": 5454,
      "I mean": 5455,
      "▁и с": 5456,
      "▁yes ": 5457,
      "▁does ": 5458,
      "▁ade ": 5459,
      "the": 5460,
      "▁our ": 5461,
      "▁энн": 5462,
      "▁скай ": 5463,
      "▁ng": 5464,
      "▁ure": 5465,
      "▁ can ": 5466,
      "▁ак": 5467,
      "▁eren": 5468,
      "▁ree": 5469,
      "▁till": 5470,
      "▁ub": 5471,
      "▁orrow": 5472,
      "▁my": 5473,
      "▁able ": 5474,
      "▁a p": 5475,
      "▁оо": 5476,
      "▁ахт": 5477,
      "Yeah ": 5478,
      "▁chool": 5479,
      "▁ ag": 5480,
      "▁rist": 5481,
      "▁with ": 5482,
      "▁age ": 5483,
      "▁үлэл": 5484,
      "▁rong": 5485,
      "▁umb": 5486,
      "▁ye": 5487,
      "▁over ": 5488,
      "▁эх": 5489,
      "▁eal": 5490,
      "▁эр б": 5491,
      "▁next ": 5492,
      "▁says ": 5493,
      "Come ": 5494,
      "▁ever ": 5495,
      "▁иҥ": 5496,
      "▁ where ": 5497,
      "▁ог": 5498,
      "▁eed": 5499,
      "▁ com": 5500,
      "▁игэр ": 5501,
      "▁gg": 5502,
      "▁tually ": 5503,
      "▁even ": 5504,
      "▁ect": 5505,
      "▁ п": 5506,
      "Oh yeah": 5507,
      "▁first ": 5508,
      "▁ tell": 5509,
      "▁do you": 5510,
      "▁ here": 5511,
      "▁oh ": 5512,
      "▁ how": 5513,
      "▁oney ": 5514,
      "t m": 5515,
      "▁ass": 5516,
      "▁going": 5517,
      "▁fin": 5518,
      "▁быт ": 5519,
      "Can": 5520,
      "▁ate": 5521,
      "▁ос": 5522,
      "▁eat ": 5523,
      "My ": 5524,
      "▁ас ": 5525,
      "▁ should ": 5526,
      "▁help": 5527,
      "▁ you know": 5528,
      "▁ыллаахх": 5529,
      "▁enough": 5530,
      "▁аары": 5531,
      "s just ": 5532,
      "▁ort": 5533,
      "▁let ": 5534,
      "▁done ": 5535,
      "▁од": 5536,
      "▁аны ": 5537,
      "▁ike ": 5538,
      "▁ор ": 5539,
      "▁икк": 5540,
      "▁аат": 5541,
      "▁ her ": 5542,
      "▁aybe ": 5543,
      "▁when ": 5544,
      "▁ill ": 5545,
      "▁уч": 5546,
      "▁girl": 5547,
      "▁lie": 5548,
      "▁like": 5549,
      "▁ny ": 5550,
      "▁hou": 5551,
      "▁this": 5552,
      "Al": 5553,
      "In": 5554,
      "▁if you ": 5555,
      "▁ад": 5556,
      "▁che": 5557,
      "▁lef": 5558,
      "▁у к": 5559,
      "▁love ": 5560,
      "▁ these ": 5561,
      "▁ет": 5562,
      "▁най ": 5563,
      "▁ret": 5564,
      "▁cl": 5565,
      "▁into ": 5566,
      "▁аас": 5567,
      "▁ыыты": 5568,
      "▁а х": 5569,
      "▁though": 5570,
      "▁I can": 5571,
      "▁mm": 5572,
      "▁again": 5573,
      "▁ыы ": 5574,
      "▁the m": 5575,
      "▁in a": 5576,
      "▁ахан ": 5577,
      "▁аб": 5578,
      "▁ion ": 5579,
      "Ол": 5580,
      "▁ some ": 5581,
      "▁оск": 5582,
      "▁инэн ": 5583,
      "▁ cos ": 5584,
      "t be ": 5585,
      "▁ot": 5586,
      "▁дө": 5587,
      "▁төрө": 5588,
      "I was ": 5589,
      "s right": 5590,
      "▁ore ": 5591,
      "▁lock": 5592,
      "▁he was ": 5593,
      "▁night ": 5594,
      "▁ up": 5595,
      "▁████████████████": 5596,
      "▁ник": 5597,
      "▁ cour": 5598,
      "▁ven": 5599,
      "▁red": 5600,
      "▁to be ": 5601,
      "▁ав": 5602,
      "▁ty": 5603,
      "There ": 5604,
      "▁ like ": 5605,
      "▁ing it ": 5606,
      "▁fri": 5607,
      "Where ": 5608,
      "▁to get ": 5609,
      "▁lov": 5610,
      "▁лл": 5611,
      "that": 5612,
      "▁скай": 5613,
      "▁үтү": 5614,
      "Thank": 5615,
      "▁dy": 5616,
      "▁унан ": 5617,
      "▁ S": 5618,
      "▁иттэн ": 5619,
      "▁олох": 5620,
      "▁аль": 5621,
      "▁ээн ": 5622,
      "▁ why ": 5623,
      "▁big": 5624,
      "▁ put ": 5625,
      "▁fif": 5626,
      "▁jo": 5627,
      "▁job": 5628,
      "▁өп": 5629,
      "▁ard ": 5630,
      "▁find ": 5631,
      "▁ask": 5632,
      "▁уруй": 5633,
      "▁every ": 5634,
      "▁all the ": 5635,
      "Okay": 5636,
      "▁ something": 5637,
      "▁whi": 5638,
      "▁a w": 5639,
      "wh": 5640,
      "t get ": 5641,
      "▁уту": 5642,
      "▁бар": 5643,
      "▁ыс": 5644,
      "t have ": 5645,
      "▁omorrow": 5646,
      "▁een": 5647,
      "▁out of": 5648,
      "▁тахс": 5649,
      "▁аҕа ": 5650,
      "▁ he": 5651,
      "▁бит ": 5652,
      "▁same ": 5653,
      "▁pri": 5654,
      "s al": 5655,
      "▁ I w": 5656,
      "▁үк": 5657,
      "▁ here ": 5658,
      "▁ath": 5659,
      "▁he said ": 5660,
      "▁бүл": 5661,
      "▁is it": 5662,
      "▁gott": 5663,
      "▁ your ": 5664,
      "▁ид": 5665,
      "▁ pro": 5666,
      "▁от": 5667,
      "▁ton": 5668,
      "▁hall": 5669,
      "▁ten": 5670,
      "▁өбү": 5671,
      "▁ps ": 5672,
      "▁ pl": 5673,
      "▁are": 5674,
      "it ": 5675,
      "▁инн": 5676,
      "▁ew": 5677,
      "▁тут": 5678,
      "▁hich": 5679,
      "▁im ": 5680,
      "▁feel": 5681,
      "so ": 5682,
      "▁ sp": 5683,
      "▁бут": 5684,
      "▁ous ": 5685,
      "▁wasn": 5686,
      "▁kill": 5687,
      "▁ахал": 5688,
      "▁one of": 5689,
      "▁hell": 5690,
      "▁ bl": 5691,
      "▁sed ": 5692,
      "▁ M": 5693,
      "▁twenty ": 5694,
      "Tw": 5695,
      "▁act": 5696,
      "▁аһы": 5697,
      "▁vi": 5698,
      "▁hair": 5699,
      "▁a bit ": 5700,
      "▁ыһы": 5701,
      "▁sc": 5702,
      "▁should ": 5703,
      "▁orry": 5704,
      "▁etter ": 5705,
      "▁and I": 5706,
      "▁этэ ": 5707,
      "▁элбэ": 5708,
      "▁oll": 5709,
      "▁ I don": 5710,
      "▁ their": 5711,
      "▁ата ": 5712,
      "▁ of ": 5713,
      "▁you get ": 5714,
      "▁fi": 5715,
      "▁иил": 5716,
      "▁might ": 5717,
      "▁а буол": 5718,
      "When": 5719,
      "▁аст": 5720,
      "▁ af": 5721,
      "▁must ": 5722,
      "▁ынан ": 5723,
      "▁ those ": 5724,
      "▁як": 5725,
      "▁оруо": 5726,
      "▁anything": 5727,
      "▁before ": 5728,
      "▁ини ": 5729,
      "▁sw": 5730,
      "▁want ": 5731,
      "▁who": 5732,
      "▁remember": 5733,
      "▁tic": 5734,
      "▁ахс": 5735,
      "▁оҕо": 5736,
      "▁ say ": 5737,
      "▁иэр": 5738,
      "▁as well": 5739,
      "▁Christ": 5740,
      "▁ a c": 5741,
      "▁өм": 5742,
      "▁au": 5743,
      "▁ally": 5744,
      "▁side ": 5745,
      "▁oney": 5746,
      "▁ so": 5747,
      "▁br": 5748,
      "▁а сир": 5749,
      "▁like that": 5750,
      "▁gra": 5751,
      "▁ыл ": 5752,
      "▁these ": 5753,
      "▁эхт": 5754,
      "▁anc": 5755,
      "▁int ": 5756,
      "▁par": 5757,
      "▁ater": 5758,
      "Who ": 5759,
      "▁irty ": 5760,
      "▁ии ": 5761,
      "▁ity ": 5762,
      "▁at the ": 5763,
      "▁its ": 5764,
      "what ": 5765,
      "▁об": 5766,
      "▁арга ": 5767,
      "s all": 5768,
      "t they": 5769,
      "▁ays ": 5770,
      "I thought ": 5771,
      "▁из": 5772,
      "▁ах ": 5773,
      "▁ed the ": 5774,
      "▁атегория": 5775,
      "▁иити": 5776,
      "▁е ": 5777,
      "▁eat": 5778,
      "▁үн ": 5779,
      "▁rink": 5780,
      "▁through": 5781,
      "po": 5782,
      "▁tod": 5783,
      "he ": 5784,
      "▁ап": 5785,
      "▁улл": 5786,
      "▁ mm": 5787,
      "▁амм": 5788,
      "▁улууһа ": 5789,
      "▁иин": 5790,
      "▁ы к": 5791,
      "▁ance ": 5792,
      "▁улахан ": 5793,
      "▁itch": 5794,
      "▁king": 5795,
      "▁ple ": 5796,
      "that ": 5797,
      "▁to do ": 5798,
      "Why": 5799,
      "▁ буолл": 5800,
      "▁ed it ": 5801,
      "▁things ": 5802,
      "▁ыал": 5803,
      "t you ": 5804,
      "▁ A": 5805,
      "▁ary ": 5806,
      "t got ": 5807,
      "▁to go ": 5808,
      "▁быһ": 5809,
      "▁atter": 5810,
      "▁диэн ": 5811,
      "▁иир ": 5812,
      "▁ сир": 5813,
      "▁үгэй": 5814,
      "well": 5815,
      "▁top": 5816,
      "▁inter": 5817,
      "▁king ": 5818,
      "▁a lot ": 5819,
      "▁нь": 5820,
      "▁plea": 5821,
      "▁tor": 5822,
      "▁уур": 5823,
      "▁иллэр": 5824,
      "▁иэх": 5825,
      "▁ T": 5826,
      "▁үгэр ": 5827,
      "▁fun": 5828,
      "▁ely": 5829,
      "▁на ": 5830,
      "It was ": 5831,
      "This is ": 5832,
      "▁left ": 5833,
      "▁ to": 5834,
      "▁iffer": 5835,
      "▁ash": 5836,
      "▁най": 5837,
      "▁p ": 5838,
      "▁hundred ": 5839,
      "▁ыллы": 5840,
      "▁эми": 5841,
      "▁үрд": 5842,
      "▁their": 5843,
      "▁morning": 5844,
      "▁leave ": 5845,
      "▁ were ": 5846,
      "Go ": 5847,
      "Ooh": 5848,
      "▁ата": 5849,
      "▁чүгэй": 5850,
      "Right ": 5851,
      "▁leep": 5852,
      "▁тын ": 5853,
      "▁ am": 5854,
      "▁ыллаахха ": 5855,
      "▁ue ": 5856,
      "▁see": 5857,
      "in": 5858,
      "▁ much": 5859,
      "Who": 5860,
      "▁эргэ ": 5861,
      "▁else ": 5862,
      "▁lieve ": 5863,
      "▁list": 5864,
      "▁gone ": 5865,
      "▁ie ": 5866,
      "▁ace": 5867,
      "▁another ": 5868,
      "▁ready ": 5869,
      "▁exp": 5870,
      "▁orn": 5871,
      "▁ус ": 5872,
      "▁tain": 5873,
      "▁ who ": 5874,
      "if": 5875,
      "▁ыг": 5876,
      "▁уд": 5877,
      "▁ take ": 5878,
      "▁ this": 5879,
      "▁anything ": 5880,
      "▁hur": 5881,
      "▁я ": 5882,
      "▁э х": 5883,
      "▁ей": 5884,
      "▁ I s": 5885,
      "▁really": 5886,
      "▁try": 5887,
      "▁ох": 5888,
      "▁de": 5889,
      "▁аас ": 5890,
      "Where": 5891,
      "▁years ": 5892,
      "▁es and ": 5893,
      "▁told ": 5894,
      "▁этин ": 5895,
      "Sh": 5896,
      "Do you": 5897,
      "▁ild": 5898,
      "s b": 5899,
      "▁kid": 5900,
      "▁ ask": 5901,
      "▁ead ": 5902,
      "▁ at the ": 5903,
      "▁iz": 5904,
      "▁I know": 5905,
      "▁оп": 5906,
      "▁after": 5907,
      "▁ци": 5908,
      "▁ two ": 5909,
      "▁fa": 5910,
      "I said ": 5911,
      "▁read ": 5912,
      "to ": 5913,
      "▁ss": 5914,
      "▁асс": 5915,
      "▁ back": 5916,
      "▁fl": 5917,
      "▁ I know": 5918,
      "t do ": 5919,
      "▁төрөөбү": 5920,
      "▁gr": 5921,
      "▁да ": 5922,
      "▁s are ": 5923,
      "▁атегория ": 5924,
      "▁айы": 5925,
      "▁you got ": 5926,
      "▁ con": 5927,
      "▁ead": 5928,
      "диэн ": 5929,
      "▁ств": 5930,
      "▁ if": 5931,
      "▁үчүгэй": 5932,
      "▁ курдук": 5933,
      "▁ange ": 5934,
      "ол": 5935,
      "▁ан к": 5936,
      "▁аста": 5937,
      "▁grea": 5938,
      "▁home ": 5939,
      "▁you don": 5940,
      "▁ бил": 5941,
      "▁something ": 5942,
      "▁like that ": 5943,
      "poly ": 5944,
      "▁ make ": 5945,
      "▁pe ": 5946,
      "▁int": 5947,
      "▁гэр ": 5948,
      "▁ from": 5949,
      "▁ might ": 5950,
      "▁sort of": 5951,
      "▁came ": 5952,
      "▁ттар": 5953,
      "▁times ": 5954,
      "t want ": 5955,
      "you know": 5956,
      "▁ C": 5957,
      "▁игин ": 5958,
      "s it": 5959,
      "▁арыгар ": 5960,
      "▁ing for": 5961,
      "▁pt ": 5962,
      "▁tr": 5963,
      "Do": 5964,
      "we ": 5965,
      "▁eak": 5966,
      "▁ан с": 5967,
      "Mr": 5968,
      "▁tri": 5969,
      "▁lif": 5970,
      "▁always ": 5971,
      "▁ич ": 5972,
      "▁ again": 5973,
      "▁ҥҥ": 5974,
      "▁eight": 5975,
      "▁ция": 5976,
      "▁onth": 5977,
      "▁was": 5978,
      "▁оскуол": 5979,
      "▁sm": 5980,
      "▁liv": 5981,
      "▁try ": 5982,
      "Hell": 5983,
      "▁этэ": 5984,
      "▁туг": 5985,
      "▁ I think": 5986,
      "▁тэ ": 5987,
      "▁gotta ": 5988,
      "▁ол ": 5989,
      "▁ron": 5990,
      "▁уох ": 5991,
      "▁ something ": 5992,
      "▁ий ": 5993,
      "▁оһ": 5994,
      "▁ a m": 5995,
      "▁ when ": 5996,
      "▁иһи ": 5997,
      "▁уул": 5998,
      "▁numb": 5999,
      "▁pres": 6000,
      "▁the c": 6001,
      "▁body": 6002,
      "▁anyway": 6003,
      "▁мм": 6004,
      "▁ in the ": 6005,
      "▁underst": 6006,
      "▁tea": 6007,
      "▁erv": 6008,
      "▁ed up": 6009,
      "▁tru": 6010,
      "▁үй": 6011,
      "▁play": 6012,
      "▁арыг": 6013,
      "▁ing and ": 6014,
      "▁door": 6015,
      "t like ": 6016,
      "▁ык ": 6017,
      "▁eall": 6018,
      "▁ or": 6019,
      "▁у с": 6020,
      "▁үөск": 6021,
      "▁ bo": 6022,
      "s d": 6023,
      "▁with the ": 6024,
      "▁ because ": 6025,
      "no ": 6026,
      "Он": 6027,
      "▁bout ": 6028,
      "▁inet": 6029,
      "▁probably ": 6030,
      "▁ив": 6031,
      "▁gl": 6032,
      "▁ye ": 6033,
      "▁ааст": 6034,
      "▁кт": 6035,
      "on": 6036,
      "▁ьев": 6037,
      "Er m": 6038,
      "▁ three ": 6039,
      "▁ him ": 6040,
      "▁ I was ": 6041,
      "You don": 6042,
      "▁getting ": 6043,
      "▁something": 6044,
      "▁I mean ": 6045,
      "I didn": 6046,
      "▁school": 6047,
      "▁ө ": 6048,
      "▁аха сир": 6049,
      "▁lic": 6050,
      "▁ will": 6051,
      "▁iss ": 6052,
      "▁uc": 6053,
      "▁wouldn": 6054,
      "▁ быһ": 6055,
      "▁she said ": 6056,
      "▁een ": 6057,
      "▁сти": 6058,
      "▁уу ": 6059,
      "▁looks ": 6060,
      "▁arri": 6061,
      "▁go and ": 6062,
      "▁ы с": 6063,
      "▁анд": 6064,
      "▁those ": 6065,
      "▁эбит": 6066,
      "▁ it was ": 6067,
      "▁doing": 6068,
      "▁aren": 6069,
      "▁эн к": 6070,
      "▁bloody ": 6071,
      "▁had": 6072,
      "▁ in ": 6073,
      "▁col": 6074,
      "▁turn": 6075,
      "▁til": 6076,
      "Get ": 6077,
      "they ": 6078,
      "▁аҕал": 6079,
      "▁ies ": 6080,
      "▁ B": 6081,
      "▁an a": 6082,
      "▁өһ": 6083,
      "▁near": 6084,
      "▁I thought ": 6085,
      "▁old": 6086,
      "▁opp": 6087,
      "▁pos": 6088,
      "▁ing about ": 6089,
      "▁name ": 6090,
      "▁nice": 6091,
      "▁idea": 6092,
      "▁ery ": 6093,
      "▁coun": 6094,
      "▁coming ": 6095,
      "▁reak": 6096,
      "▁ope ": 6097,
      "▁nine ": 6098,
      "▁аг": 6099,
      "t c": 6100,
      "▁ now": 6101,
      "▁ump": 6102,
      "All": 6103,
      "▁knew": 6104,
      "Because ": 6105,
      "▁укт": 6106,
      "▁эпс": 6107,
      "▁енн": 6108,
      "▁уст": 6109,
      "You can": 6110,
      "▁туту": 6111,
      "▁ss ": 6112,
      "▁хаал": 6113,
      "▁go to ": 6114,
      "▁аабы": 6115,
      "▁stuff": 6116,
      "▁most ": 6117,
      "For": 6118,
      "▁ide ": 6119,
      "▁mum": 6120,
      "▁made ": 6121,
      "▁ounds ": 6122,
      "▁more": 6123,
      "дь": 6124,
      "▁тылл": 6125,
      "One ": 6126,
      "▁ation ": 6127,
      "▁ than": 6128,
      "oh": 6129,
      "▁ush": 6130,
      "▁ a s": 6131,
      "▁үһ": 6132,
      "▁ass ": 6133,
      "Mum": 6134,
      "▁sed to ": 6135,
      "▁ыыр": 6136,
      "▁eight ": 6137,
      "▁why ": 6138,
      "▁up to ": 6139,
      "▁ кэм": 6140,
      "▁ince ": 6141,
      "▁ would ": 6142,
      "▁а м": 6143,
      "▁окуу": 6144,
      "t be": 6145,
      "▁ by ": 6146,
      "What are ": 6147,
      "▁арый": 6148,
      "▁ifferent ": 6149,
      "▁ hear": 6150,
      "▁wal": 6151,
      "▁ must ": 6152,
      "▁dis": 6153,
      "▁uppose ": 6154,
      "rect ": 6155,
      "▁thing to ": 6156,
      "t w": 6157,
      "▁mer": 6158,
      "▁onder": 6159,
      "▁sure ": 6160,
      "▁ment": 6161,
      "▁эк": 6162,
      "s no ": 6163,
      "s only ": 6164,
      "▁хай": 6165,
      "▁ence ": 6166,
      "▁the s": 6167,
      "▁ment ": 6168,
      "Come on": 6169,
      "▁app": 6170,
      "▁ond ": 6171,
      "▁rid": 6172,
      "▁a f": 6173,
      "▁said": 6174,
      "▁very": 6175,
      "▁a little ": 6176,
      "▁таҥ": 6177,
      "▁эд": 6178,
      "▁eel": 6179,
      "▁of p": 6180,
      "▁те": 6181,
      "▁yet": 6182,
      "▁mp": 6183,
      "▁atur": 6184,
      "▁ with ": 6185,
      "▁ dear": 6186,
      "▁иб": 6187,
      "Some": 6188,
      "▁need": 6189,
      "▁уһаҕ": 6190,
      "▁ыын": 6191,
      "▁ohn": 6192,
      "To ": 6193,
      "▁look at ": 6194,
      "▁till ": 6195,
      "▁God": 6196,
      "▁өрд": 6197,
      "▁giv": 6198,
      "▁real": 6199,
      "▁астак": 6200,
      "▁эби": 6201,
      "▁it is ": 6202,
      "▁талл": 6203,
      "I just ": 6204,
      "▁you do": 6205,
      "20": 6206,
      "▁ыт ": 6207,
      "▁rew": 6208,
      "▁gotta": 6209,
      "▁hand": 6210,
      "▁kind ": 6211,
      "▁pick": 6212,
      "ll have to ": 6213,
      "▁угар ": 6214,
      "▁ah": 6215,
      "▁ин к": 6216,
      "▁ car": 6217,
      "▁er and ": 6218,
      "▁тон ": 6219,
      "Is that ": 6220,
      "▁ise ": 6221,
      "▁house ": 6222,
      "▁үүр": 6223,
      "▁иирд": 6224,
      "▁ told ": 6225,
      "▁ a f": 6226,
      "Are you ": 6227,
      "▁ouple ": 6228,
      "▁home": 6229,
      "▁ bu": 6230,
      "s w": 6231,
      "19": 6232,
      "▁orry ": 6233,
      "▁ always ": 6234,
      "▁have": 6235,
      "▁ a p": 6236,
      "▁gets ": 6237,
      "▁ one ": 6238,
      "▁иэн": 6239,
      "Дь": 6240,
      "▁open": 6241,
      "▁арг": 6242,
      "▁аад": 6243,
      "▁ef": 6244,
      "s that": 6245,
      "▁round": 6246,
      "▁ да ": 6247,
      "▁атт": 6248,
      "▁the p": 6249,
      "▁ут ": 6250,
      "er": 6251,
      "▁um ": 6252,
      "▁олл": 6253,
      "Good ": 6254,
      "▁show": 6255,
      "▁rit": 6256,
      "▁ all the ": 6257,
      "▁ninet": 6258,
      "▁uh": 6259,
      "▁teen": 6260,
      "▁ course ": 6261,
      "▁raw": 6262,
      "▁ out ": 6263,
      "▁gar": 6264,
      "▁tion ": 6265,
      "▁age": 6266,
      "▁sion": 6267,
      "▁still": 6268,
      "▁ip": 6269,
      "▁эҕэ ": 6270,
      "▁уннь": 6271,
      "▁ыры": 6272,
      "ll get ": 6273,
      "▁дойд": 6274,
      "▁м ": 6275,
      "▁өйдө": 6276,
      "Let": 6277,
      "▁ week": 6278,
      "▁bit ": 6279,
      "▁у б": 6280,
      "▁anna ": 6281,
      "▁en to ": 6282,
      "▁clo": 6283,
      "▁less ": 6284,
      "▁from the ": 6285,
      "▁friend": 6286,
      "▁олоҕ": 6287,
      "▁ D": 6288,
      "Then": 6289,
      "▁another": 6290,
      "▁light": 6291,
      "▁ылыр": 6292,
      "See ": 6293,
      "▁түм": 6294,
      "▁far": 6295,
      "▁blem": 6296,
      "▁aid": 6297,
      "▁of m": 6298,
      "▁ yeah": 6299,
      "▁start": 6300,
      "▁everything": 6301,
      "▁Christm": 6302,
      "▁mean": 6303,
      "no": 6304,
      "▁comes ": 6305,
      "▁okay": 6306,
      "▁nor": 6307,
      "ve got to ": 6308,
      "▁igh": 6309,
      "my ": 6310,
      "▁ттан ": 6311,
      "▁away ": 6312,
      "▁money ": 6313,
      "▁hard ": 6314,
      "▁аатт": 6315,
      "▁ done ": 6316,
      "▁pay ": 6317,
      "▁live ": 6318,
      "▁place ": 6319,
      "▁arl": 6320,
      "▁ээчч": 6321,
      "▁ing that ": 6322,
      "▁арынан ": 6323,
      "▁ones ": 6324,
      "So": 6325,
      "▁tomorrow": 6326,
      "Your": 6327,
      "▁you can ": 6328,
      "▁ hour": 6329,
      "▁s that ": 6330,
      "▁ка ": 6331,
      "▁аам": 6332,
      "▁аанн": 6333,
      "▁watch": 6334,
      "▁eople": 6335,
      "▁ээҕ": 6336,
      "▁iss": 6337,
      "▁asn": 6338,
      "▁and the ": 6339,
      "▁ы б": 6340,
      "▁sur": 6341,
      "▁need to ": 6342,
      "▁тиий": 6343,
      "▁where": 6344,
      "▁gonna be ": 6345,
      "▁оро": 6346,
      "▁play ": 6347,
      "▁eith": 6348,
      "▁ ch": 6349,
      "▁but": 6350,
      "Any": 6351,
      "▁ain ": 6352,
      "▁boy": 6353,
      "▁had to ": 6354,
      "▁ couldn": 6355,
      "I mean ": 6356,
      "Like ": 6357,
      "▁ кы": 6358,
      "▁anna": 6359,
      "he": 6360,
      "▁тыб": 6361,
      "▁eri": 6362,
      "▁оҕолор": 6363,
      "▁book": 6364,
      "▁аҥал": 6365,
      "▁pound ": 6366,
      "s that ": 6367,
      "t want to ": 6368,
      "▁I didn": 6369,
      "▁оч": 6370,
      "▁upposed to ": 6371,
      "▁ po": 6372,
      "▁dri": 6373,
      "▁thought ": 6374,
      "▁than": 6375,
      "▁ылаах": 6376,
      "▁couldn": 6377,
      "▁ousand ": 6378,
      "▁орд": 6379,
      "▁you see ": 6380,
      "▁up and ": 6381,
      "▁took": 6382,
      "▁ed in": 6383,
      "▁ааҕы ": 6384,
      "Or": 6385,
      "▁ though": 6386,
      "▁ques": 6387,
      "▁кка ": 6388,
      "▁aul": 6389,
      "▁ахх": 6390,
      "▁ring": 6391,
      "t he": 6392,
      "▁ан б": 6393,
      "▁th ": 6394,
      "▁олб": 6395,
      "▁ide": 6396,
      "▁had a ": 6397,
      "▁илигин ": 6398,
      "Do you ": 6399,
      "▁ak": 6400,
      "t know what ": 6401,
      "▁lease": 6402,
      "▁ man": 6403,
      "▁эпп": 6404,
      "▁from ": 6405,
      "▁ary": 6406,
      "▁phone ": 6407,
      "▁екс": 6408,
      "▁they were ": 6409,
      "s a b": 6410,
      "▁алай": 6411,
      "▁ат ": 6412,
      "▁it and ": 6413,
      "▁fucking ": 6414,
      "▁ mo": 6415,
      "▁low": 6416,
      "▁fore": 6417,
      "▁икки ": 6418,
      "s f": 6419,
      "▁ity": 6420,
      "ve been ": 6421,
      "s like ": 6422,
      "▁таб": 6423,
      "▁that was ": 6424,
      "▁ing s": 6425,
      "ve been": 6426,
      "▁ci": 6427,
      "▁уохт": 6428,
      "▁utt": 6429,
      "▁ киһи ": 6430,
      "▁cra": 6431,
      "▁you a": 6432,
      "I d": 6433,
      "this ": 6434,
      "▁sy": 6435,
      "▁ү ": 6436,
      "▁nothing": 6437,
      "Maybe ": 6438,
      "▁этэр ": 6439,
      "▁ера": 6440,
      "▁оҕо ": 6441,
      "▁aper": 6442,
      "Oh I": 6443,
      "Hey": 6444,
      "▁ылы": 6445,
      "▁иэт": 6446,
      "▁the f": 6447,
      "d be ": 6448,
      "▁ин б": 6449,
      "▁ук ": 6450,
      "▁comp": 6451,
      "▁guy": 6452,
      "▁иче": 6453,
      "▁өтт": 6454,
      "▁ону ": 6455,
      "▁yester": 6456,
      "▁ see": 6457,
      "don": 6458,
      "▁эри ": 6459,
      "▁hard": 6460,
      "▁ик ": 6461,
      "▁hasn": 6462,
      "▁retty ": 6463,
      "sir": 6464,
      "▁actually ": 6465,
      "▁ордук": 6466,
      "▁if I": 6467,
      "▁fifty ": 6468,
      "▁sec": 6469,
      "▁iec": 6470,
      "▁эй ": 6471,
      "▁cer": 6472,
      "▁ост": 6473,
      "▁ри": 6474,
      "▁ on ": 6475,
      "▁аата ": 6476,
      "▁bro": 6477,
      "▁ылар": 6478,
      "for": 6479,
      "▁today": 6480,
      "▁туһунан ": 6481,
      "▁ds ": 6482,
      "▁rain": 6483,
      "▁dam": 6484,
      "clock": 6485,
      "▁хар": 6486,
      "▁the w": 6487,
      "▁ed and ": 6488,
      "Reall": 6489,
      "▁stair": 6490,
      "▁to see ": 6491,
      "▁ҕа ": 6492,
      "▁eci": 6493,
      "ll have ": 6494,
      "▁name": 6495,
      "▁хам": 6496,
      "Ex": 6497,
      "I got ": 6498,
      "▁ more ": 6499,
      "▁олог": 6500,
      "▁олохто": 6501,
      "▁ about": 6502,
      "▁эрэ б": 6503,
      "▁whole ": 6504,
      "▁for you": 6505,
      "▁ээһ": 6506,
      "t see ": 6507,
      "▁life": 6508,
      "▁usin": 6509,
      "▁rac": 6510,
      "▁kay ": 6511,
      "▁исти": 6512,
      "▁gn": 6513,
      "▁ дьон ": 6514,
      "▁rep": 6515,
      "▁lad": 6516,
      "▁life ": 6517,
      "▁орто": 6518,
      "▁ets ": 6519,
      "▁түһ": 6520,
      "▁haps ": 6521,
      "▁ many ": 6522,
      "▁which": 6523,
      "▁trying to ": 6524,
      "▁doing ": 6525,
      "▁аар ": 6526,
      "▁таһ": 6527,
      "▁you were ": 6528,
      "▁өлө": 6529,
      "▁is the ": 6530,
      "▁minut": 6531,
      "▁ ar": 6532,
      "▁ long": 6533,
      "▁ин с": 6534,
      "▁tick": 6535,
      "▁ыыһ": 6536,
      "▁уон": 6537,
      "▁норуо": 6538,
      "▁Mr": 6539,
      "▁ with the ": 6540,
      "▁ze ": 6541,
      "▁arm": 6542,
      "▁итт": 6543,
      "not ": 6544,
      "▁ кыр": 6545,
      "▁ова ": 6546,
      "▁leg": 6547,
      "▁ҥ ": 6548,
      "▁иэти": 6549,
      "▁ance": 6550,
      "▁ through": 6551,
      "▁ tea": 6552,
      "▁ream": 6553,
      "▁ R": 6554,
      "▁until": 6555,
      "s your": 6556,
      "▁атегория с": 6557,
      "▁walk": 6558,
      "▁эрэ к": 6559,
      "▁in there": 6560,
      "▁many ": 6561,
      "▁weren": 6562,
      "▁тан с": 6563,
      "▁yourself": 6564,
      "▁тан к": 6565,
      "▁аҕын": 6566,
      "▁ten ": 6567,
      "▁ит ": 6568,
      "▁sol": 6569,
      "▁ach": 6570,
      "▁oot": 6571,
      "▁better": 6572,
      "▁ six": 6573,
      "▁үнүгэр ": 6574,
      "▁ ain": 6575,
      "Alright": 6576,
      "▁ven ": 6577,
      "▁it is": 6578,
      "▁anyway ": 6579,
      "▁buy ": 6580,
      "▁it to ": 6581,
      "▁ off": 6582,
      "▁else": 6583,
      "▁аа ": 6584,
      "▁таһы": 6585,
      "▁а сылдь": 6586,
      "▁уоб": 6587,
      "▁of it": 6588,
      "▁биэр": 6589,
      "▁ing up": 6590,
      "▁do you ": 6591,
      "▁and then": 6592,
      "▁side": 6593,
      "▁якут": 6594,
      "▁аллар ": 6595,
      "▁ J": 6596,
      "▁tually": 6597,
      "▁bad ": 6598,
      "▁cle": 6599,
      "Thank you": 6600,
      "▁абы": 6601,
      "▁эст": 6602,
      "▁эн с": 6603,
      "▁two": 6604,
      "Ол ": 6605,
      "▁wear": 6606,
      "▁back to ": 6607,
      "▁үөрэн": 6608,
      "▁she was ": 6609,
      "▁outh": 6610,
      "As ": 6611,
      "▁oman": 6612,
      "▁ H": 6613,
      "▁is it ": 6614,
      "▁you to ": 6615,
      "just ": 6616,
      "▁тах": 6617,
      "t b": 6618,
      "▁өст": 6619,
      "Eh": 6620,
      "▁бут ": 6621,
      "▁ront ": 6622,
      "▁ all ": 6623,
      "▁ыбы": 6624,
      "▁a good ": 6625,
      "▁ээбит": 6626,
      "▁эмм": 6627,
      "▁ail": 6628,
      "▁аҕар": 6629,
      "▁few": 6630,
      "▁hor": 6631,
      "▁heard ": 6632,
      "▁house": 6633,
      "▁ock": 6634,
      "▁аннык": 6635,
      "▁ааһ": 6636,
      "▁men": 6637,
      "▁indow": 6638,
      "▁read": 6639,
      "▁уонна к": 6640,
      "▁head": 6641,
      "▁эйэл": 6642,
      "m going to ": 6643,
      "▁унн": 6644,
      "And I": 6645,
      "▁ feel": 6646,
      "▁idd": 6647,
      "▁great ": 6648,
      "▁үлл": 6649,
      "▁bb": 6650,
      "▁able": 6651,
      "▁ whi": 6652,
      "Got ": 6653,
      "▁St": 6654,
      "▁ыйы": 6655,
      "▁ис ": 6656,
      "▁ talk": 6657,
      "▁lear": 6658,
      "▁looked ": 6659,
      "▁finish": 6660,
      "▁thank": 6661,
      "▁uti": 6662,
      "▁would be ": 6663,
      "▁өҥ": 6664,
      "▁убл": 6665,
      "Is it ": 6666,
      "▁in my ": 6667,
      "▁s of": 6668,
      "▁over the ": 6669,
      "▁I got ": 6670,
      "▁ign": 6671,
      "▁teen ": 6672,
      "we": 6673,
      "St": 6674,
      "▁point ": 6675,
      "▁now ": 6676,
      "If you": 6677,
      "▁sleep": 6678,
      "What do you": 6679,
      "▁vers": 6680,
      "▁Mar": 6681,
      "▁элбэх": 6682,
      "▁ian": 6683,
      "▁тун ": 6684,
      "I want ": 6685,
      "▁ E": 6686,
      "▁everything ": 6687,
      "▁gre": 6688,
      "▁ way ": 6689,
      "re going to ": 6690,
      "ve had ": 6691,
      "▁ tell you": 6692,
      "▁ who": 6693,
      "▁ing at ": 6694,
      "▁ call": 6695,
      "▁nothing ": 6696,
      "▁инэ ": 6697,
      "▁ дойд": 6698,
      "▁I just ": 6699,
      "▁dad": 6700,
      "what": 6701,
      "t I": 6702,
      "▁toge": 6703,
      "▁oot ": 6704,
      "▁эхх": 6705,
      "▁толор": 6706,
      "▁ day": 6707,
      "▁hip": 6708,
      "▁use": 6709,
      "▁stop": 6710,
      "▁g ": 6711,
      "▁тор": 6712,
      "▁form": 6713,
      "▁ель": 6714,
      "▁usu": 6715,
      "▁put it ": 6716,
      "▁уолл": 6717,
      "▁тар ": 6718,
      "▁инил": 6719,
      "▁inc": 6720,
      "Good": 6721,
      "▁ day ": 6722,
      "▁иһиг": 6723,
      "▁too": 6724,
      "▁бити": 6725,
      "▁love": 6726,
      "▁imp": 6727,
      "▁о с": 6728,
      "▁ait ": 6729,
      "▁remember ": 6730,
      "s why ": 6731,
      "▁ing me ": 6732,
      "▁vel": 6733,
      "▁su": 6734,
      "▁ence": 6735,
      "▁ fuck": 6736,
      "yes": 6737,
      "▁in there ": 6738,
      "▁ross ": 6739,
      "▁аз": 6740,
      "▁and he ": 6741,
      "▁ater ": 6742,
      "▁өр ": 6743,
      "▁problem": 6744,
      "▁ed me ": 6745,
      "Of": 6746,
      "▁үү ": 6747,
      "▁ies": 6748,
      "▁асты": 6749,
      "▁irst ": 6750,
      "t go ": 6751,
      "▁wrong": 6752,
      "▁ show": 6753,
      "▁oy": 6754,
      "▁question": 6755,
      "▁reck": 6756,
      "▁тан б": 6757,
      "▁tur": 6758,
      "Was ": 6759,
      "▁өҕ": 6760,
      "▁ буолан ": 6761,
      "▁ублик": 6762,
      "▁inv": 6763,
      "▁act ": 6764,
      "▁ er ": 6765,
      "▁ on the ": 6766,
      "▁итэ ": 6767,
      "▁ then ": 6768,
      "▁үт": 6769,
      "do ": 6770,
      "▁ory ": 6771,
      "▁once ": 6772,
      "▁арын к": 6773,
      "▁ G": 6774,
      "▁ P": 6775,
      "▁ann": 6776,
      "▁Fri": 6777,
      "▁ дьон": 6778,
      "▁ытты": 6779,
      "▁илли": 6780,
      "I have ": 6781,
      "▁эмиэ ": 6782,
      "▁lish": 6783,
      "▁aying ": 6784,
      "▁ттар ": 6785,
      "You w": 6786,
      "▁ҥэ ": 6787,
      "▁IN": 6788,
      "▁the same ": 6789,
      "or": 6790,
      "s it ": 6791,
      "▁eath": 6792,
      "▁please": 6793,
      "▁төрү": 6794,
      "s p": 6795,
      "▁спублик": 6796,
      "▁бат": 6797,
      "▁аллар": 6798,
      "▁уучч": 6799,
      "▁cha": 6800,
      "▁эрэ с": 6801,
      "Did you ": 6802,
      "▁ before ": 6803,
      "is ": 6804,
      "▁ which": 6805,
      "▁ait": 6806,
      "▁ite": 6807,
      "▁мн": 6808,
      "▁of them": 6809,
      "▁ I can": 6810,
      "Yeah but ": 6811,
      "▁bed": 6812,
      "▁bott": 6813,
      "▁тутту": 6814,
      "▁ves ": 6815,
      "▁ you can": 6816,
      "▁этт": 6817,
      "▁ake": 6818,
      "▁oc": 6819,
      "▁quick": 6820,
      "▁Christmas ": 6821,
      "▁иниг": 6822,
      "▁ing m": 6823,
      "▁арын с": 6824,
      "▁least ": 6825,
      "▁үөһ": 6826,
      "m gonna ": 6827,
      "▁or something": 6828,
      "▁tak": 6829,
      "▁gave ": 6830,
      "▁trou": 6831,
      "▁тэл": 6832,
      "▁head ": 6833,
      "▁аҥалас ": 6834,
      "▁уус ": 6835,
      "▁ L": 6836,
      "▁ев ": 6837,
      "▁your m": 6838,
      "she ": 6839,
      "Will": 6840,
      "Oh well": 6841,
      "▁young": 6842,
      "▁он б": 6843,
      "▁уль": 6844,
      "▁inute": 6845,
      "Tell": 6846,
      "▁ыытынан ": 6847,
      "▁pe": 6848,
      "▁seven": 6849,
      "▁ as well": 6850,
      "▁олк": 6851,
      "▁эригэр ": 6852,
      "▁ people ": 6853,
      "▁years": 6854,
      "how": 6855,
      "Hello": 6856,
      "▁нэн ": 6857,
      "▁ase ": 6858,
      "▁укк": 6859,
      "▁ылар ": 6860,
      "▁ouch": 6861,
      "▁enc": 6862,
      "▁look ": 6863,
      "▁ actually ": 6864,
      "▁solut": 6865,
      "▁in and ": 6866,
      "▁аннык ": 6867,
      "▁An": 6868,
      "▁ hundred ": 6869,
      "▁бур": 6870,
      "▁тик": 6871,
      "▁ya": 6872,
      "▁оф": 6873,
      "▁rite ": 6874,
      "▁lot": 6875,
      "▁битт": 6876,
      "▁ily ": 6877,
      "With": 6878,
      "Well that": 6879,
      "▁child": 6880,
      "▁ax": 6881,
      "▁ooh": 6882,
      "▁ O": 6883,
      "▁якутск": 6884,
      "Mm mm": 6885,
      "▁bit": 6886,
      "▁s on": 6887,
      "▁for a": 6888,
      "▁both": 6889,
      "▁etwe": 6890,
      "▁атыгар ": 6891,
      "▁u ": 6892,
      "▁like to ": 6893,
      "▁elve ": 6894,
      "▁record": 6895,
      "▁unch": 6896,
      "▁үлэһ": 6897,
      "Oh yes": 6898,
      "Two ": 6899,
      "▁light ": 6900,
      "▁үрү": 6901,
      "▁ought": 6902,
      "A ": 6903,
      "▁ire ": 6904,
      "s right ": 6905,
      "▁туох": 6906,
      "▁ing you": 6907,
      "▁ose": 6908,
      "▁forty ": 6909,
      "Aye": 6910,
      "▁lik": 6911,
      "▁Satur": 6912,
      "▁is that ": 6913,
      "▁уонна с": 6914,
      "▁ger": 6915,
      "▁ball": 6916,
      "▁өп ": 6917,
      "▁dog": 6918,
      "▁your f": 6919,
      "with": 6920,
      "▁lau": 6921,
      "▁ооннь": 6922,
      "▁с с": 6923,
      "Really": 6924,
      "▁ыта ": 6925,
      "▁өсс": 6926,
      "▁are you ": 6927,
      "▁ed that ": 6928,
      "▁үс ": 6929,
      "▁makes ": 6930,
      "▁ W": 6931,
      "Let ": 6932,
      "▁on it": 6933,
      "▁interest": 6934,
      "▁shop": 6935,
      "▁ork": 6936,
      "▁hour": 6937,
      "▁eauti": 6938,
      "▁lost ": 6939,
      "▁ha ": 6940,
      "▁when you": 6941,
      "▁оҥорор": 6942,
      "▁таҕ": 6943,
      "▁s in": 6944,
      "▁fort": 6945,
      "▁ам ": 6946,
      "▁hate ": 6947,
      "▁lovely ": 6948,
      "▁ug": 6949,
      "▁үнэн ": 6950,
      "▁ыҥ": 6951,
      "▁answ": 6952,
      "▁high": 6953,
      "▁рд": 6954,
      "▁it down": 6955,
      "▁хтор": 6956,
      "▁окуускай": 6957,
      "▁around ": 6958,
      "▁Sund": 6959,
      "▁ardon": 6960,
      "▁ing on": 6961,
      "▁й ": 6962,
      "▁ed it": 6963,
      "▁ sort ": 6964,
      "▁this is ": 6965,
      "s my ": 6966,
      "▁chang": 6967,
      "What did ": 6968,
      "▁бэт": 6969,
      "t it ": 6970,
      "▁а суох": 6971,
      "▁асил": 6972,
      "▁person": 6973,
      "▁there was ": 6974,
      "▁man ": 6975,
      "▁myself": 6976,
      "re gonna ": 6977,
      "▁sort of ": 6978,
      "▁you have ": 6979,
      "▁did": 6980,
      "▁exact": 6981,
      "That was ": 6982,
      "▁уун": 6983,
      "s been": 6984,
      "Mm ": 6985,
      "▁thirty ": 6986,
      "▁ the b": 6987,
      "▁Mon": 6988,
      "▁seem": 6989,
      "▁start ": 6990,
      "m just ": 6991,
      "▁ean": 6992,
      "▁a l": 6993,
      "▁ just ": 6994,
      "▁ do you": 6995,
      "▁away": 6996,
      "▁ things ": 6997,
      "▁unno": 6998,
      "▁enti": 6999,
      "▁эйд": 7000,
      "Does ": 7001,
      "▁анан ": 7002,
      "s been ": 7003,
      "▁five": 7004,
      "▁ whe": 7005,
      "▁reat": 7006,
      "▁ber": 7007,
      "t say ": 7008,
      "▁dec": 7009,
      "▁ун к": 7010,
      "▁pr": 7011,
      "▁vis": 7012,
      "▁уз": 7013,
      "No I": 7014,
      "Put ": 7015,
      "▁in f": 7016,
      "▁bad": 7017,
      "He was ": 7018,
      "▁just": 7019,
      "▁y and ": 7020,
      "▁гр": 7021,
      "▁will be ": 7022,
      "▁ er": 7023,
      "Dad": 7024,
      "▁let": 7025,
      "▁ little ": 7026,
      "▁aying": 7027,
      "▁ович ": 7028,
      "▁udd": 7029,
      "▁knows ": 7030,
      "s so ": 7031,
      "▁ing it": 7032,
      "t really ": 7033,
      "▁ress": 7034,
      "▁ I mean": 7035,
      "▁аах с": 7036,
      "t we": 7037,
      "▁ese": 7038,
      "▁you want": 7039,
      "Aha": 7040,
      "Erm ": 7041,
      "▁land": 7042,
      "▁each": 7043,
      "▁ь ": 7044,
      "▁irth": 7045,
      "▁hon": 7046,
      "▁ninety ": 7047,
      "▁ue": 7048,
      "▁raight ": 7049,
      "▁ously ": 7050,
      "▁hind ": 7051,
      "▁exc": 7052,
      "▁still ": 7053,
      "▁reason": 7054,
      "▁ oh": 7055,
      "▁eautiful": 7056,
      "▁alright": 7057,
      "I haven": 7058,
      "▁ара б": 7059,
      "▁son ": 7060,
      "What about ": 7061,
      "▁ start ": 7062,
      "▁иь": 7063,
      "▁ stop": 7064,
      "▁understand ": 7065,
      "they": 7066,
      "▁people": 7067,
      "▁comm": 7068,
      "there": 7069,
      "▁of c": 7070,
      "▁туур": 7071,
      "▁somebody ": 7072,
      "▁guy ": 7073,
      "▁ course": 7074,
      "▁being ": 7075,
      "▁ probably ": 7076,
      "▁ of the ": 7077,
      "▁os": 7078,
      "▁ i": 7079,
      "▁ali": 7080,
      "▁тул": 7081,
      "And then": 7082,
      "▁sed": 7083,
      "▁ing a ": 7084,
      "▁point": 7085,
      "▁а диэн ": 7086,
      "он": 7087,
      "▁үм": 7088,
      "▁ Y": 7089,
      "▁will ": 7090,
      "▁үөрэҕ": 7091,
      "▁ куор": 7092,
      "▁ tod": 7093,
      "▁бүт": 7094,
      "▁тэҥ": 7095,
      "▁e and ": 7096,
      "▁in that ": 7097,
      "▁ттэр к": 7098,
      "s m": 7099,
      "▁арын": 7100,
      "▁icul": 7101,
      "▁ran": 7102,
      "▁ring ": 7103,
      "▁ per": 7104,
      "▁ hope ": 7105,
      "▁rest ": 7106,
      "▁ric": 7107,
      "Well it": 7108,
      "▁in this ": 7109,
      "▁ does ": 7110,
      "▁found ": 7111,
      "▁ирд": 7112,
      "▁учуу": 7113,
      "▁called ": 7114,
      "▁ератур": 7115,
      "ll do ": 7116,
      "▁ no ": 7117,
      "▁ener": 7118,
      "▁eg": 7119,
      "▁хоһ": 7120,
      "▁охс": 7121,
      "▁hang": 7122,
      "▁иэм": 7123,
      "▁гы ": 7124,
      "Have you ": 7125,
      "Oh dear": 7126,
      "▁еп": 7127,
      "▁norm": 7128,
      "▁the other": 7129,
      "▁place": 7130,
      "▁me to ": 7131,
      "▁hm": 7132,
      "▁luck": 7133,
      "▁ctor": 7134,
      "▁you could ": 7135,
      "I b": 7136,
      "▁гын": 7137,
      "▁иц": 7138,
      "▁have you ": 7139,
      "▁of s": 7140,
      "ve done ": 7141,
      "▁John": 7142,
      "▁ and I": 7143,
      "▁I haven": 7144,
      "▁ings ": 7145,
      "▁итиһ": 7146,
      "▁ hm": 7147,
      "▁ытта ": 7148,
      "▁mov": 7149,
      "▁ after": 7150,
      "▁bought ": 7151,
      "▁ыый": 7152,
      "like ": 7153,
      "▁лит": 7154,
      "▁you do ": 7155,
      "s very ": 7156,
      "At ": 7157,
      "▁00": 7158,
      "▁аалл": 7159,
      "▁runn": 7160,
      "▁EN": 7161,
      "▁the d": 7162,
      "▁sha": 7163,
      "▁арын б": 7164,
      "▁ hou": 7165,
      "▁must be ": 7166,
      "▁ыай": 7167,
      "▁этэр": 7168,
      "Sorry": 7169,
      "▁road ": 7170,
      "▁олус ": 7171,
      "▁ир ": 7172,
      "then": 7173,
      "▁money": 7174,
      "t she": 7175,
      "▁to me": 7176,
      "▁ school": 7177,
      "▁rang": 7178,
      "▁о к": 7179,
      "▁ came ": 7180,
      "And": 7181,
      "▁nock": 7182,
      "▁amp": 7183,
      "▁god": 7184,
      "Every": 7185,
      "s going to ": 7186,
      "▁ been": 7187,
      "▁иэхэ ": 7188,
      "▁sy ": 7189,
      "▁тр": 7190,
      "▁тэрил": 7191,
      "▁min": 7192,
      "▁tel": 7193,
      "▁part ": 7194,
      "Well you": 7195,
      "mm": 7196,
      "▁ition": 7197,
      "▁эни ": 7198,
      "▁er to ": 7199,
      "▁ular": 7200,
      "▁ird ": 7201,
      "▁ыгар ": 7202,
      "Fuck": 7203,
      "▁box": 7204,
      "▁████████████████████████████████": 7205,
      "▁in it": 7206,
      "▁set ": 7207,
      "Very ": 7208,
      "▁pic": 7209,
      "▁pound": 7210,
      "▁anybody ": 7211,
      "ар": 7212,
      "▁нуучч": 7213,
      "▁ ho": 7214,
      "▁ for ": 7215,
      "▁тэн ": 7216,
      "▁с к": 7217,
      "▁resp": 7218,
      "Do you want ": 7219,
      "▁rought ": 7220,
      "of": 7221,
      "▁pre": 7222,
      "▁alright ": 7223,
      "all": 7224,
      "▁ents ": 7225,
      "Can ": 7226,
      "All ": 7227,
      "▁mil": 7228,
      "▁үнн": 7229,
      "▁ones": 7230,
      "▁ed by ": 7231,
      "t have to ": 7232,
      "▁уҥ": 7233,
      "▁уллуб": 7234,
      "▁тыыр": 7235,
      "▁reg": 7236,
      "▁ыыт": 7237,
      "It is ": 7238,
      "▁ары к": 7239,
      "▁ dis": 7240,
      "▁ord ": 7241,
      "▁listen": 7242,
      "▁ыллар ": 7243,
      "▁про": 7244,
      "▁республик": 7245,
      "▁tonight": 7246,
      "▁ bloody ": 7247,
      "▁ бэй": 7248,
      "Here ": 7249,
      "▁laugh": 7250,
      "▁az": 7251,
      "▁it on": 7252,
      "▁ сылдь": 7253,
      "▁fam": 7254,
      "▁туһан": 7255,
      "▁ start": 7256,
      "▁part": 7257,
      "Oh that": 7258,
      "▁I have ": 7259,
      "▁ame": 7260,
      "▁өйө": 7261,
      "Take ": 7262,
      "▁ыта": 7263,
      "t even ": 7264,
      "▁он к": 7265,
      "▁ov": 7266,
      "▁аран ": 7267,
      "▁before": 7268,
      "▁ээн": 7269,
      "▁having ": 7270,
      "▁ollow": 7271,
      "▁ung": 7272,
      "▁аатынан ": 7273,
      "ll go ": 7274,
      "▁анал": 7275,
      "▁аҥа ": 7276,
      "He said ": 7277,
      "▁you go ": 7278,
      "t wor": 7279,
      "▁тард": 7280,
      "▁possi": 7281,
      "▁log": 7282,
      "▁a big": 7283,
      "▁yet ": 7284,
      "But I": 7285,
      "▁раф": 7286,
      "Ch": 7287,
      "▁either": 7288,
      "▁баран ": 7289,
      "▁аҕа с": 7290,
      "▁les ": 7291,
      "▁эллэр": 7292,
      "▁ I said ": 7293,
      "cos ": 7294,
      "▁ did": 7295,
      "▁иэст": 7296,
      "▁ой ": 7297,
      "▁guess ": 7298,
      "▁out and ": 7299,
      "▁but I": 7300,
      "t believe ": 7301,
      "▁че": 7302,
      "▁you know ": 7303,
      "▁black": 7304,
      "s gonna ": 7305,
      "▁ am ": 7306,
      "▁аан б": 7307,
      "No it": 7308,
      "▁elt ": 7309,
      "m sure ": 7310,
      "▁rill": 7311,
      "she": 7312,
      "▁bor": 7313,
      "▁арыт": 7314,
      "▁альнай ": 7315,
      "▁inst": 7316,
      "You s": 7317,
      "▁the one ": 7318,
      "▁supposed to ": 7319,
      "▁ха": 7320,
      "▁э буол": 7321,
      "▁өтө": 7322,
      "▁aught": 7323,
      "▁ ah": 7324,
      "▁ago": 7325,
      "▁flo": 7326,
      "▁number ": 7327,
      "▁hadn": 7328,
      "▁ather": 7329,
      "▁if we ": 7330,
      "▁today ": 7331,
      "▁you are ": 7332,
      "▁арыта ": 7333,
      "▁иһин ": 7334,
      "▁ото": 7335,
      "▁ts": 7336,
      "▁өтү": 7337,
      "▁унта": 7338,
      "▁sing": 7339,
      "▁ саха ": 7340,
      "▁oo ": 7341,
      "▁soon": 7342,
      "▁a few": 7343,
      "Erm": 7344,
      "▁dad ": 7345,
      "▁ that was ": 7346,
      "▁your b": 7347,
      "▁nes": 7348,
      "s going ": 7349,
      "Ha": 7350,
      "M hm": 7351,
      "▁ than ": 7352,
      "▁obvi": 7353,
      "▁астакы ": 7354,
      "Which": 7355,
      "▁ing with": 7356,
      "▁rem": 7357,
      "▁well ": 7358,
      "▁past ": 7359,
      "▁lease ": 7360,
      "▁айыл": 7361,
      "▁өрдө": 7362,
      "▁road": 7363,
      "▁we were ": 7364,
      "▁emp": 7365,
      "▁ues": 7366,
      "▁ I have ": 7367,
      "▁ed with": 7368,
      "▁ a bit ": 7369,
      "as ": 7370,
      "▁oes ": 7371,
      "m sorry": 7372,
      "▁ара к": 7373,
      "▁ster": 7374,
      "▁ went ": 7375,
      "▁ want": 7376,
      "▁ сыл": 7377,
      "Would ": 7378,
      "▁tell me ": 7379,
      "▁such": 7380,
      "Some ": 7381,
      "▁ ad": 7382,
      "You got ": 7383,
      "▁ward": 7384,
      "▁аһыл": 7385,
      "▁gone": 7386,
      "▁matter": 7387,
      "▁истор": 7388,
      "▁reali": 7389,
      "▁law": 7390,
      "s really ": 7391,
      "Oh no": 7392,
      "▁able to ": 7393,
      "▁inner": 7394,
      "▁тер": 7395,
      "▁der": 7396,
      "▁эс ": 7397,
      "▁ mum": 7398,
      "▁ellow": 7399,
      "▁уларый": 7400,
      "▁үөн": 7401,
      "Mhm": 7402,
      "▁ buy ": 7403,
      "▁ive": 7404,
      "▁I had ": 7405,
      "t know ": 7406,
      "▁ys": 7407,
      "▁you see": 7408,
      "Give ": 7409,
      "▁ thing ": 7410,
      "▁ won": 7411,
      "▁элбэх ": 7412,
      "s alright": 7413,
      "▁эп": 7414,
      "▁get the ": 7415,
      "▁if they ": 7416,
      "▁in your": 7417,
      "▁noon": 7418,
      "▁vo": 7419,
      "▁элэр ": 7420,
      "▁diff": 7421,
      "▁to me ": 7422,
      "Pro": 7423,
      "▁үөл": 7424,
      "▁олобур": 7425,
      "▁into the ": 7426,
      "▁eor": 7427,
      "▁eng": 7428,
      "▁an hour": 7429,
      "▁at all": 7430,
      "▁ stuff": 7431,
      "▁talk to ": 7432,
      "▁чы ": 7433,
      "▁им ": 7434,
      "▁быһаар": 7435,
      "▁full": 7436,
      "▁ove ": 7437,
      "▁ins": 7438,
      "▁ола": 7439,
      "▁ dri": 7440,
      "▁ds": 7441,
      "▁ tomorrow": 7442,
      "▁ович": 7443,
      "▁hold ": 7444,
      "▁funny ": 7445,
      "re": 7446,
      "▁тыы": 7447,
      "▁cut ": 7448,
      "▁ready": 7449,
      "▁ost ": 7450,
      "▁des": 7451,
      "▁and they ": 7452,
      "▁уоҕ": 7453,
      "▁ been ": 7454,
      "▁ун б": 7455,
      "▁оль": 7456,
      "▁everybody ": 7457,
      "▁riend": 7458,
      "▁cho": 7459,
      "▁lose ": 7460,
      "▁usic": 7461,
      "▁pen": 7462,
      "▁rank": 7463,
      "▁улууһун ": 7464,
      "▁наад": 7465,
      "▁аан к": 7466,
      "▁hundred and ": 7467,
      "▁for a ": 7468,
      "▁usb": 7469,
      "ve just ": 7470,
      "▁ути": 7471,
      "▁long ": 7472,
      "▁stay ": 7473,
      "▁эҥэ х": 7474,
      "▁фор": 7475,
      "▁ory": 7476,
      "▁орг": 7477,
      "▁эх ": 7478,
      "▁nine": 7479,
      "▁each ": 7480,
      "▁three": 7481,
      "▁бэл": 7482,
      "▁ made ": 7483,
      "▁bec": 7484,
      "▁ hand": 7485,
      "▁loody ": 7486,
      "▁times": 7487,
      "▁and then ": 7488,
      "▁together": 7489,
      "Yeah I": 7490,
      "▁оҕур": 7491,
      "▁morning ": 7492,
      "▁learn": 7493,
      "▁дьон": 7494,
      "▁without ": 7495,
      "right": 7496,
      "▁after ": 7497,
      "▁when I": 7498,
      "▁sen": 7499,
      "▁уга ": 7500,
      "▁үтэр": 7501,
      "▁sell": 7502,
      "▁итэҕ": 7503,
      "▁ма": 7504,
      "▁иэк": 7505,
      "ll just ": 7506,
      "▁bar": 7507,
      "▁pounds ": 7508,
      "▁үүн": 7509,
      "▁ed out ": 7510,
      "▁bottom": 7511,
      "▁э сылдь": 7512,
      "▁tape ": 7513,
      "Ити": 7514,
      "▁ a lot ": 7515,
      "▁литератур": 7516,
      "▁things": 7517,
      "▁drink": 7518,
      "▁ four": 7519,
      "▁thousand ": 7520,
      "▁tro": 7521,
      "▁ди": 7522,
      "▁up the ": 7523,
      "An": 7524,
      "▁█ ": 7525,
      "▁эрин к": 7526,
      "▁enty": 7527,
      "▁you think": 7528,
      "▁ыйын ": 7529,
      "Pardon": 7530,
      "▁wall": 7531,
      "▁er the ": 7532,
      "▁ one": 7533,
      "▁Eng": 7534,
      "▁done": 7535,
      "▁гынан ": 7536,
      "▁ый ": 7537,
      "▁knock": 7538,
      "▁ачч": 7539,
      "Yeahbut ": 7540,
      "▁хом": 7541,
      "▁ise": 7542,
      "▁have been": 7543,
      "▁эбиэ": 7544,
      "▁upp": 7545,
      "▁аах к": 7546,
      "▁month": 7547,
      "But": 7548,
      "▁ a d": 7549,
      "▁iddle ": 7550,
      "▁hh": 7551,
      "▁mis": 7552,
      "▁wants ": 7553,
      "Yep": 7554,
      "▁ыбыт": 7555,
      "▁ walk": 7556,
      "▁эҥэ хаҥалас ": 7557,
      "▁rel": 7558,
      "▁early ": 7559,
      "▁rat": 7560,
      "▁AR": 7561,
      "▁hand ": 7562,
      "▁иллэр ": 7563,
      "▁иҥҥ": 7564,
      "▁te ": 7565,
      "▁give me ": 7566,
      "▁cri": 7567,
      "▁on my ": 7568,
      "▁les": 7569,
      "▁хал": 7570,
      "▁ia": 7571,
      "▁bag": 7572,
      "▁x ": 7573,
      "I like ": 7574,
      "▁iece ": 7575,
      "▁plain": 7576,
      "ll s": 7577,
      "▁илэр": 7578,
      "when": 7579,
      "▁ырд": 7580,
      "▁father": 7581,
      "▁оҥҥ": 7582,
      "▁meric": 7583,
      "▁тэрий": 7584,
      "▁ find ": 7585,
      "▁ing down": 7586,
      "▁qui": 7587,
      "now": 7588,
      "▁ыары": 7589,
      "▁wash": 7590,
      "▁ she said ": 7591,
      "▁ut up": 7592,
      "▁are you": 7593,
      "▁ford ": 7594,
      "▁plan": 7595,
      "▁better ": 7596,
      "▁ER": 7597,
      "▁used ": 7598,
      "▁cept ": 7599,
      "Бу ": 7600,
      "▁happy ": 7601,
      "▁hael": 7602,
      "▁de ": 7603,
      "▁do it ": 7604,
      "▁plet": 7605,
      "▁ better ": 7606,
      "▁usually ": 7607,
      "▁exactly ": 7608,
      "▁rown": 7609,
      "If you ": 7610,
      "▁cu": 7611,
      "▁Jo": 7612,
      "s quite ": 7613,
      "▁may ": 7614,
      "▁does": 7615,
      "▁эмн": 7616,
      "because ": 7617,
      "▁фед": 7618,
      "▁enjo": 7619,
      "▁if he ": 7620,
      "▁ санаал": 7621,
      "▁ыыл": 7622,
      "Didn": 7623,
      "▁wif": 7624,
      "▁ital": 7625,
      "▁God ": 7626,
      "▁rible ": 7627,
      "▁mother": 7628,
      "▁tell you": 7629,
      "▁эллэр ": 7630,
      "▁poli": 7631,
      "▁ore": 7632,
      "▁пр": 7633,
      "▁than ": 7634,
      "▁иэл": 7635,
      "▁ minut": 7636,
      "▁ска ": 7637,
      "When ": 7638,
      "▁eap": 7639,
      "▁first": 7640,
      "▁break": 7641,
      "▁таты": 7642,
      "▁орой": 7643,
      "▁talking": 7644,
      "▁ун с": 7645,
      "▁yo ": 7646,
      "▁vie": 7647,
      "▁lovely": 7648,
      "▁different ": 7649,
      "▁on that ": 7650,
      "▁cent": 7651,
      "▁understand": 7652,
      "▁ N": 7653,
      "▁hit ": 7654,
      "▁true": 7655,
      "▁ина ": 7656,
      "Qu": 7657,
      "▁иит": 7658,
      "ve gotta ": 7659,
      "▁ently ": 7660,
      "▁ны": 7661,
      "▁pull": 7662,
      "▁араас ": 7663,
      "▁аан дойд": 7664,
      "▁ыттан ": 7665,
      "I want to ": 7666,
      "▁олохтоо": 7667,
      "▁хаһ": 7668,
      "▁быты": 7669,
      "Un": 7670,
      "▁апп": 7671,
      "▁уус": 7672,
      "▁уруйаачч": 7673,
      "▁s the ": 7674,
      "▁you say ": 7675,
      "▁wait": 7676,
      "▁аатын ": 7677,
      "▁ chi": 7678,
      "▁kept ": 7679,
      "▁га к": 7680,
      "▁I went ": 7681,
      "▁хайд": 7682,
      "▁egg": 7683,
      "▁ last ": 7684,
      "▁ана ": 7685,
      "▁ing out ": 7686,
      "▁coll": 7687,
      "▁seen": 7688,
      "▁cas": 7689,
      "▁ бэл": 7690,
      "▁рав": 7691,
      "▁унтаар ": 7692,
      "201": 7693,
      "▁imag": 7694,
      "▁with you": 7695,
      "▁the mom": 7696,
      "▁you are": 7697,
      "▁ichael": 7698,
      "▁days ": 7699,
      "▁I would ": 7700,
      "▁ буолар ": 7701,
      "Yeah well": 7702,
      "ll take ": 7703,
      "▁finit": 7704,
      "▁solutely ": 7705,
      "▁ref": 7706,
      "▁saying": 7707,
      "s alright ": 7708,
      "▁ham": 7709,
      "▁off the ": 7710,
      "▁үүһ": 7711,
      "▁on and ": 7712,
      "▁урдук ": 7713,
      "▁иэһ": 7714,
      "▁өх": 7715,
      "▁өйдөбүл": 7716,
      "I am": 7717,
      "Then ": 7718,
      "▁ednes": 7719,
      "▁someone ": 7720,
      "▁Paul": 7721,
      "▁illy ": 7722,
      "have ": 7723,
      "▁the hell": 7724,
      "▁town": 7725,
      "s one ": 7726,
      "She said ": 7727,
      "▁ассыый": 7728,
      "▁гар к": 7729,
      "▁ны ": 7730,
      "oh ": 7731,
      "tw": 7732,
      "▁үүл": 7733,
      "▁of that ": 7734,
      "▁ыннь": 7735,
      "▁ыстыб": 7736,
      "▁of f": 7737,
      "▁ better": 7738,
      "Oh it": 7739,
      "▁rop": 7740,
      "▁ somebody ": 7741,
      "▁in a ": 7742,
      "▁shit": 7743,
      "Look at ": 7744,
      "▁аны к": 7745,
      "ll see ": 7746,
      "About ": 7747,
      "▁to have ": 7748,
      "▁ower": 7749,
      "▁ical": 7750,
      "▁ this is ": 7751,
      "▁IO": 7752,
      "▁өн ": 7753,
      "▁that one ": 7754,
      "▁спүү": 7755,
      "▁ too ": 7756,
      "▁you just ": 7757,
      "Only ": 7758,
      "▁ственн": 7759,
      "▁of it ": 7760,
      "▁cur": 7761,
      "▁ drink": 7762,
      "▁for me": 7763,
      "▁он с": 7764,
      "▁ dad": 7765,
      "▁алар ": 7766,
      "▁ ton": 7767,
      "▁урап": 7768,
      "▁paper": 7769,
      "▁saw": 7770,
      "And he ": 7771,
      "▁ when you": 7772,
      "▁nearly ": 7773,
      "▁ымнь": 7774,
      "▁уһаҕан ": 7775,
      "▁wants to ": 7776,
      "▁rand": 7777,
      "▁marri": 7778,
      "▁аха сирин ": 7779,
      "▁get it ": 7780,
      "▁бүлүк": 7781,
      "▁рг": 7782,
      "▁ суол": 7783,
      "Do you know": 7784,
      "▁алты": 7785,
      "▁if ": 7786,
      "s on": 7787,
      "▁fair": 7788,
      "▁while ": 7789,
      "▁спүүбүлүк": 7790,
      "▁ырдь": 7791,
      "▁үөрэхт": 7792,
      "▁check": 7793,
      "em": 7794,
      "▁ буолуо": 7795,
      "Non": 7796,
      "▁ курдук ": 7797,
      "▁you want ": 7798,
      "▁unno ": 7799,
      "▁paid ": 7800,
      "▁tin": 7801,
      "▁уоһ": 7802,
      "▁айыы": 7803,
      "▁I could ": 7804,
      "Go": 7805,
      "▁утт": 7806,
      "▁ich": 7807,
      "▁анна ": 7808,
      "▁лен": 7809,
      "▁damn": 7810,
      "сыл": 7811,
      "▁might be ": 7812,
      "▁land ": 7813,
      "▁fter": 7814,
      "▁таһаар": 7815,
      "▁nam": 7816,
      "▁гар с": 7817,
      "▁change ": 7818,
      "▁when we ": 7819,
      "▁ app": 7820,
      "Here": 7821,
      "▁ сэр": 7822,
      "▁ che": 7823,
      "▁outside ": 7824,
      "▁kitch": 7825,
      "▁ about it": 7826,
      "▁best ": 7827,
      "▁ a t": 7828,
      "▁оннор": 7829,
      "▁ахалар ": 7830,
      "▁tap": 7831,
      "▁war": 7832,
      "▁upid ": 7833,
      "▁gard": 7834,
      "▁s like ": 7835,
      "▁off ": 7836,
      "▁төрөөбүттэр к": 7837,
      "▁ di": 7838,
      "there ": 7839,
      "▁эриг": 7840,
      "▁sure": 7841,
      "How much": 7842,
      "▁if it": 7843,
      "▁happened": 7844,
      "▁a st": 7845,
      "▁ииргэ ": 7846,
      "Six": 7847,
      "▁view": 7848,
      "▁ V": 7849,
      "▁не": 7850,
      "▁along": 7851,
      "s all ": 7852,
      "Go on": 7853,
      "▁anyone ": 7854,
      "Be": 7855,
      "are ": 7856,
      "▁пре": 7857,
      "▁ try": 7858,
      "▁about": 7859,
      "▁reat ": 7860,
      "▁алайаачч": 7861,
      "▁этигэр ": 7862,
      "▁энниттэн ": 7863,
      "▁ыыр ": 7864,
      "▁they don": 7865,
      "▁very much": 7866,
      "▁аҕый": 7867,
      "▁ alright": 7868,
      "▁ээт": 7869,
      "Sure": 7870,
      "d have ": 7871,
      "▁mon": 7872,
      "Alright ": 7873,
      "▁want to ": 7874,
      "▁ордук ": 7875,
      "▁тап": 7876,
      "List": 7877,
      "▁we can": 7878,
      "▁fil": 7879,
      "▁s of ": 7880,
      "▁ to the ": 7881,
      "▁pped ": 7882,
      "▁beg": 7883,
      "▁ быр": 7884,
      "s a good ": 7885,
      "▁twelve ": 7886,
      "▁ild ": 7887,
      "▁ doing": 7888,
      "▁анаал": 7889,
      "▁ буолуу": 7890,
      "▁number": 7891,
      "▁ыыны ": 7892,
      "▁yesterday": 7893,
      "▁s for": 7894,
      "▁васил": 7895,
      "▁lack": 7896,
      "▁өрс": 7897,
      "▁өрдөр": 7898,
      "s a bit ": 7899,
      "▁ike": 7900,
      "▁ограф": 7901,
      "▁yesterday ": 7902,
      "▁ted ": 7903,
      "▁ month": 7904,
      "▁ doesn": 7905,
      "▁about it": 7906,
      "▁import": 7907,
      "▁already ": 7908,
      "▁in c": 7909,
      "▁тик ": 7910,
      "▁arling": 7911,
      "Hi": 7912,
      "▁ F": 7913,
      "▁okay ": 7914,
      "▁эринэн ": 7915,
      "▁undred": 7916,
      "re all": 7917,
      "▁quid ": 7918,
      "▁ара с": 7919,
      "▁roll": 7920,
      "▁уонна б": 7921,
      "▁afternoon": 7922,
      "I would ": 7923,
      "▁of b": 7924,
      "▁о б": 7925,
      "▁of your": 7926,
      "▁getting": 7927,
      "ve got a ": 7928,
      "▁worth": 7929,
      "▁ or ": 7930,
      "Ар": 7931,
      "▁ээхт": 7932,
      "▁New": 7933,
      "▁that one": 7934,
      "▁eh": 7935,
      "▁ past ": 7936,
      "▁ture ": 7937,
      "▁ my": 7938,
      "▁forget ": 7939,
      "▁иэри ": 7940,
      "▁үтт": 7941,
      "m gonna": 7942,
      "▁акк": 7943,
      "▁эг": 7944,
      "▁ кэл": 7945,
      "▁олорор": 7946,
      "▁тусп": 7947,
      "Three ": 7948,
      "▁great": 7949,
      "▁mark": 7950,
      "▁ I got ": 7951,
      "▁ twenty ": 7952,
      "▁оз": 7953,
      "▁мэҥэ хаҥалас ": 7954,
      "at ": 7955,
      "Mind ": 7956,
      "Per": 7957,
      "▁in t": 7958,
      "▁скэй": 7959,
      "▁ what I": 7960,
      "Twenty ": 7961,
      "▁gain": 7962,
      "▁cour": 7963,
      "▁тыл ": 7964,
      "▁лекс": 7965,
      "s not": 7966,
      "▁э д": 7967,
      "▁ she was ": 7968,
      "Has ": 7969,
      "▁is a ": 7970,
      "▁быр": 7971,
      "▁ көм": 7972,
      "▁от ": 7973,
      "▁ас б": 7974,
      "▁let me ": 7975,
      "t take ": 7976,
      "His ": 7977,
      "▁уйд": 7978,
      "▁back ": 7979,
      "▁last night": 7980,
      "▁speak": 7981,
      "▁bur": 7982,
      "▁өт": 7983,
      "▁go on": 7984,
      "▁Ar": 7985,
      "▁ watch": 7986,
      "▁аҕа": 7987,
      "▁mar": 7988,
      "▁hurs": 7989,
      "▁үк ": 7990,
      "▁ a little ": 7991,
      "Could ": 7992,
      "look": 7993,
      "▁элб": 7994,
      "▁boy ": 7995,
      "▁ed him": 7996,
      "▁sive ": 7997,
      "and I": 7998,
      "▁ big": 7999,
      "man": 8000,
      "▁wom": 8001,
      "▁ves": 8002,
      "▁cup": 8003,
      "▁the way ": 8004,
      "▁a week": 8005,
      "I wouldn": 8006,
      "▁өссө": 8007,
      "▁ааһын ": 8008,
      "▁ bit ": 8009,
      "▁ыра ": 8010,
      "So I": 8011,
      "▁load": 8012,
      "s gone ": 8013,
      "▁орто ": 8014,
      "▁ley ": 8015,
      "I had ": 8016,
      "▁wanted to ": 8017,
      "▁easi": 8018,
      "▁later": 8019,
      "▁kn": 8020,
      "▁еев": 8021,
      "▁хоһо": 8022,
      "s about ": 8023,
      "▁world ": 8024,
      "▁росс": 8025,
      "▁ile ": 8026,
      "▁ans": 8027,
      "Nothing": 8028,
      "▁ыллыбыт": 8029,
      "▁ыахт": 8030,
      "▁ations": 8031,
      "▁yeah ": 8032,
      "▁innit": 8033,
      "Can you ": 8034,
      "▁eter": 8035,
      "▁all that ": 8036,
      "▁ets": 8037,
      "▁гер": 8038,
      "why ": 8039,
      "▁ their ": 8040,
      "▁att": 8041,
      "▁inn it": 8042,
      "▁омм": 8043,
      "▁to you": 8044,
      "▁raid ": 8045,
      "▁itting ": 8046,
      "▁you like ": 8047,
      "▁talking about ": 8048,
      "▁sign": 8049,
      "▁takes ": 8050,
      "▁тох": 8051,
      "▁аарыыл": 8052,
      "I told ": 8053,
      "▁ахтар": 8054,
      "Well it ": 8055,
      "▁wonder": 8056,
      "▁stick": 8057,
      "▁ and then": 8058,
      "▁usiness": 8059,
      "▁чий": 8060,
      "▁ and the ": 8061,
      "▁you have to ": 8062,
      "You can ": 8063,
      "▁what I": 8064,
      "▁epend": 8065,
      "▁ated ": 8066,
      "▁stand": 8067,
      "▁dear": 8068,
      "▁ие": 8069,
      "▁арх": 8070,
      "▁ps": 8071,
      "▁өн": 8072,
      "▁shall": 8073,
      "▁ wouldn": 8074,
      "Yeah I know": 8075,
      "t make ": 8076,
      "▁чин": 8077,
      "▁ they were ": 8078,
      "▁итинн": 8079,
      "▁ heard ": 8080,
      "▁gun": 8081,
      "▁kids ": 8082,
      "▁олаев": 8083,
      "▁akes ": 8084,
      "▁it up": 8085,
      "▁teach": 8086,
      "▁олус": 8087,
      "▁өлбү": 8088,
      "▁ааннь": 8089,
      "What do ": 8090,
      "▁ен ": 8091,
      "▁behind ": 8092,
      "▁colour": 8093,
      "What was ": 8094,
      "▁spital": 8095,
      "Ac": 8096,
      "▁since ": 8097,
      "▁clean": 8098,
      "▁ into ": 8099,
      "▁vide": 8100,
      "▁аах б": 8101,
      "▁якути": 8102,
      "▁ection": 8103,
      "▁опп": 8104,
      "▁er s": 8105,
      "▁ five ": 8106,
      "▁ you see ": 8107,
      "▁ахп": 8108,
      "▁late ": 8109,
      "▁ция ": 8110,
      "▁дьон ": 8111,
      "▁хо ": 8112,
      "▁онтон ": 8113,
      "▁move ": 8114,
      "▁эбэтэр ": 8115,
      "▁ not ": 8116,
      "▁ей ": 8117,
      "▁ сайд": 8118,
      "▁a couple ": 8119,
      "▁hed": 8120,
      "▁ stay ": 8121,
      "s too ": 8122,
      "▁аналл": 8123,
      "▁what you": 8124,
      "▁эбит ": 8125,
      "▁saying ": 8126,
      "▁funny": 8127,
      "▁отт": 8128,
      "▁key": 8129,
      "▁whe": 8130,
      "▁омук": 8131,
      "▁ isn": 8132,
      "And the ": 8133,
      "s a s": 8134,
      "▁ mm mm": 8135,
      "▁pain": 8136,
      "▁айымнь": 8137,
      "▁that I": 8138,
      "▁care": 8139,
      "get ": 8140,
      "some": 8141,
      "▁lin": 8142,
      "▁нар": 8143,
      "Your ": 8144,
      "▁left": 8145,
      "▁you doing": 8146,
      "▁rubb": 8147,
      "▁тугу ": 8148,
      "▁или": 8149,
      "▁ n": 8150,
      "▁kind of": 8151,
      "▁ r": 8152,
      "re just ": 8153,
      "▁исп": 8154,
      "▁ale ": 8155,
      "▁ shouldn": 8156,
      "Are you": 8157,
      "▁етр": 8158,
      "▁ thousand ": 8159,
      "▁of course ": 8160,
      "▁ried ": 8161,
      "▁like a ": 8162,
      "▁clear": 8163,
      "▁ультур": 8164,
      "sh": 8165,
      "▁actually": 8166,
      "▁үүст": 8167,
      "▁in b": 8168,
      "▁үнүг": 8169,
      "▁obviously ": 8170,
      "▁ way": 8171,
      "▁Friday ": 8172,
      "▁bus": 8173,
      "▁ de": 8174,
      "▁Sunday ": 8175,
      "▁аабыт": 8176,
      "▁add": 8177,
      "▁US": 8178,
      "▁es are ": 8179,
      "▁пор": 8180,
      "▁тим": 8181,
      "▁usiness ": 8182,
      "▁and it": 8183,
      "▁ do it ": 8184,
      "▁by": 8185,
      "▁well I": 8186,
      "▁should be ": 8187,
      "▁rick": 8188,
      "▁лад": 8189,
      "▁train": 8190,
      "▁урб": 8191,
      "▁grand": 8192,
      "ол ": 8193,
      "▁eff": 8194,
      "t remember": 8195,
      "Oh right": 8196,
      "▁days": 8197,
      "▁eave ": 8198,
      "▁jump": 8199,
      "▁etw": 8200,
      "▁straight ": 8201,
      "▁have you": 8202,
      "Is it": 8203,
      "▁window": 8204,
      "▁expect ": 8205,
      "▁хары": 8206,
      "▁һиг": 8207,
      "▁econd ": 8208,
      "▁этэ с": 8209,
      "▁ress ": 8210,
      "t mind ": 8211,
      "▁one of the ": 8212,
      "▁ator": 8213,
      "▁out of the ": 8214,
      "▁туруор": 8215,
      "▁үтүөл": 8216,
      "▁reckon": 8217,
      "▁ around ": 8218,
      "▁Saturday ": 8219,
      "▁letter": 8220,
      "▁өй сан": 8221,
      "▁bed ": 8222,
      "▁and she ": 8223,
      "▁ээччил": 8224,
      "▁ес": 8225,
      "Hello ": 8226,
      "▁less": 8227,
      "▁looking for": 8228,
      "▁ыны ": 8229,
      "▁ered": 8230,
      "▁by the ": 8231,
      "God": 8232,
      "▁өбүл": 8233,
      "▁улаа": 8234,
      "▁ are you": 8235,
      "▁serv": 8236,
      "s this ": 8237,
      "▁ say": 8238,
      "▁of my ": 8239,
      "▁ого ": 8240,
      "Let me ": 8241,
      "▁Ro": 8242,
      "▁Nor": 8243,
      "▁a half": 8244,
      "▁on a ": 8245,
      "▁ turn": 8246,
      "▁өйд": 8247,
      "▁ right ": 8248,
      "ll give ": 8249,
      "▁ your f": 8250,
      "▁atter ": 8251,
      "▁seven ": 8252,
      "▁ойуу": 8253,
      "Jes": 8254,
      "▁Thurs": 8255,
      "re gonna": 8256,
      "▁тутул": 8257,
      "▁ бал": 8258,
      "▁буол": 8259,
      "▁ away ": 8260,
      "▁rible": 8261,
      "How do ": 8262,
      "▁ousand": 8263,
      "▁альнай": 8264,
      "your": 8265,
      "▁экк": 8266,
      "t need ": 8267,
      "▁ thirty ": 8268,
      "▁your s": 8269,
      "▁down the ": 8270,
      "▁but it": 8271,
      "▁Wednes": 8272,
      "▁started ": 8273,
      "▁spo": 8274,
      "▁Americ": 8275,
      "▁илии": 8276,
      "▁ and he ": 8277,
      "▁cold ": 8278,
      "▁you and ": 8279,
      "▁ident": 8280,
      "▁ for the ": 8281,
      "▁it was": 8282,
      "▁Dav": 8283,
      "▁ward ": 8284,
      "▁in the m": 8285,
      "▁иилээх": 8286,
      "▁алг": 8287,
      "▁ took": 8288,
      "Be ": 8289,
      "Oh no ": 8290,
      "▁pretty ": 8291,
      "▁пер": 8292,
      "▁come": 8293,
      "▁өрүҥ": 8294,
      "▁кур": 8295,
      "▁long as ": 8296,
      "▁it all": 8297,
      "t they ": 8298,
      "▁told me ": 8299,
      "▁lie ": 8300,
      "▁акка ": 8301,
      "▁Al": 8302,
      "▁got to ": 8303,
      "▁төрүтт": 8304,
      "Whi": 8305,
      "▁хх": 8306,
      "I love ": 8307,
      "▁trouble ": 8308,
      "▁өйө сан": 8309,
      "▁looking ": 8310,
      "▁ comp": 8311,
      "▁the other ": 8312,
      "▁etween": 8313,
      "▁алп": 8314,
      "▁ull ": 8315,
      "In the ": 8316,
      "▁ээҕи ": 8317,
      "And then ": 8318,
      "▁exper": 8319,
      "▁says": 8320,
      "▁ mind ": 8321,
      "▁rilli": 8322,
      "▁floor": 8323,
      "▁ings": 8324,
      "▁ aren": 8325,
      "▁Mark": 8326,
      "▁have been ": 8327,
      "▁wait ": 8328,
      "▁ someone ": 8329,
      "▁ey": 8330,
      "▁ try ": 8331,
      "▁үлүү ": 8332,
      "▁ness ": 8333,
      "▁ates ": 8334,
      "▁sev": 8335,
      "▁ыар": 8336,
      "▁этиг": 8337,
      "▁ tap": 8338,
      "ал": 8339,
      "▁ING": 8340,
      "s gonna be ": 8341,
      "▁а киир": 8342,
      "▁easy ": 8343,
      "▁radi": 8344,
      "▁four ": 8345,
      "▁тоҕ": 8346,
      "▁ may ": 8347,
      "▁ киһи": 8348,
      "▁tainly ": 8349,
      "▁onder ": 8350,
      "▁бакк": 8351,
      "▁ буоллаҕын": 8352,
      "▁so much": 8353,
      "▁а буолл": 8354,
      "▁husb": 8355,
      "▁ыйын к": 8356,
      "▁учуутал": 8357,
      "▁it doesn": 8358,
      "▁██ ": 8359,
      "▁pack": 8360,
      "▁аан с": 8361,
      "▁a and ": 8362,
      "▁nobody ": 8363,
      "▁ily": 8364,
      "▁ I get ": 8365,
      "▁ there was ": 8366,
      "▁а дойд": 8367,
      "▁tice ": 8368,
      "I could ": 8369,
      "▁ычч": 8370,
      "▁friend ": 8371,
      "▁ving ": 8372,
      "▁also ": 8373,
      "▁аларын ": 8374,
      "▁арыттан ": 8375,
      "▁үн с": 8376,
      "▁ents": 8377,
      "▁children": 8378,
      "st": 8379,
      "▁ while ": 8380,
      "▁ing my ": 8381,
      "s c": 8382,
      "▁ today": 8383,
      "Саха ": 8384,
      "▁ top": 8385,
      "▁аннь": 8386,
      "▁for it": 8387,
      "▁up there ": 8388,
      "▁ what you": 8389,
      "Oh yes ": 8390,
      "▁emb": 8391,
      "▁illion": 8392,
      "▁ээй": 8393,
      "These ": 8394,
      "▁upstair": 8395,
      "▁асп": 8396,
      "▁could be ": 8397,
      "What are you ": 8398,
      "▁итэ": 8399,
      "  ": 8400,
      "▁word ": 8401,
      "al": 8402,
      "▁ник ": 8403,
      "▁оном": 8404,
      "▁ames ": 8405,
      "▁ураты": 8406,
      "▁have a look": 8407,
      "▁ K": 8408,
      "▁ enough": 8409,
      "▁sit ": 8410,
      "▁ thought": 8411,
      "▁ диэн с": 8412,
      "▁гор": 8413,
      "one ": 8414,
      "▁быта": 8415,
      "Ooh ": 8416,
      "▁ness": 8417,
      "▁the first ": 8418,
      "▁тир": 8419,
      "Shall": 8420,
      "▁ i ": 8421,
      "▁ago ": 8422,
      "▁tast": 8423,
      "t come ": 8424,
      "▁ co": 8425,
      "s gonna": 8426,
      "▁бир": 8427,
      "Please": 8428,
      "▁ par": 8429,
      "▁next week": 8430,
      "▁van": 8431,
      "▁ister": 8432,
      "▁э м": 8433,
      "You were ": 8434,
      "▁ыллыбыт ": 8435,
      "▁eighty ": 8436,
      "too": 8437,
      "▁grow": 8438,
      "▁ыга ": 8439,
      "▁кс": 8440,
      "▁means ": 8441,
      "▁ne ": 8442,
      "▁cent ": 8443,
      "How many ": 8444,
      "▁ are you ": 8445,
      "Why don": 8446,
      "▁иэхт": 8447,
      "▁эр д": 8448,
      "▁ision": 8449,
      "▁cover": 8450,
      "▁world": 8451,
      "▁maybe ": 8452,
      "▁аахт": 8453,
      "▁тарҕ": 8454,
      "▁on to ": 8455,
      "▁ыалдь": 8456,
      "▁ving": 8457,
      "▁эт ": 8458,
      "s always ": 8459,
      "▁in his ": 8460,
      "▁I wouldn": 8461,
      "▁йд": 8462,
      "▁order": 8463,
      "▁а киһ": 8464,
      "▁about the ": 8465,
      "▁гар б": 8466,
      "▁en and ": 8467,
      "▁I say ": 8468,
      "▁when you ": 8469,
      "▁эрин": 8470,
      "▁арс": 8471,
      "▁for you ": 8472,
      "▁ары б": 8473,
      "▁ alright ": 8474,
      "▁went to ": 8475,
      "▁llar": 8476,
      "▁алаах ": 8477,
      "▁blo": 8478,
      "▁а саха ": 8479,
      "▁gram": 8480,
      "▁ип": 8481,
      "▁очч": 8482,
      "▁ сылл": 8483,
      "Oh my ": 8484,
      "▁coming": 8485,
      "▁ old ": 8486,
      "▁ил ": 8487,
      "▁touch": 8488,
      "▁everyone ": 8489,
      "▁itu": 8490,
      "▁ane": 8491,
      "▁а бил": 8492,
      "▁ута": 8493,
      "▁white ": 8494,
      "▁үөрэти": 8495,
      "▁char": 8496,
      "▁allow": 8497,
      "ve got": 8498,
      "▁арахс": 8499,
      "▁фр": 8500,
      "▁алдь": 8501,
      "▁any more ": 8502,
      "▁OU": 8503,
      "▁ouble ": 8504,
      "▁ thank": 8505,
      "▁оҥоһ": 8506,
      "▁rid ": 8507,
      "▁believe ": 8508,
      "▁инсти": 8509,
      "▁ext ": 8510,
      "▁алекс": 8511,
      "▁ after ": 8512,
      "▁ed in ": 8513,
      "▁ I had ": 8514,
      "▁айм": 8515,
      "▁араас": 8516,
      "▁sum": 8517,
      "▁ding": 8518,
      "▁ing you ": 8519,
      "▁үгү": 8520,
      "▁arr": 8521,
      "▁атыр": 8522,
      "▁ическай ": 8523,
      "can": 8524,
      "▁үрүн ": 8525,
      "▁phone": 8526,
      "▁ахалыы ": 8527,
      "▁hot ": 8528,
      "▁fish": 8529,
      "▁eeth": 8530,
      "▁speci": 8531,
      "▁we got ": 8532,
      "▁line ": 8533,
      "▁thir": 8534,
      "▁the only ": 8535,
      "▁урапчы ": 8536,
      "▁water": 8537,
      "▁brought ": 8538,
      "▁ens": 8539,
      "▁asic": 8540,
      "▁иэ ": 8541,
      "▁бэһ": 8542,
      "▁л ": 8543,
      "▁last": 8544,
      "▁ cl": 8545,
      "▁төрөпп": 8546,
      "▁үөрэт": 8547,
      "▁try and ": 8548,
      "▁omb": 8549,
      "▁ sc": 8550,
      "▁its": 8551,
      "▁out the ": 8552,
      "▁эҕинэ ": 8553,
      "▁when he ": 8554,
      "▁альн": 8555,
      "ve never": 8556,
      "▁ыларын ": 8557,
      "▁rather": 8558,
      "▁ave": 8559,
      "▁ былыр": 8560,
      "ve only ": 8561,
      "▁атын с": 8562,
      "▁ буолбут": 8563,
      "▁graph": 8564,
      "▁мэҥэ хаҥалас улууһа ": 8565,
      "a ": 8566,
      "▁ whether ": 8567,
      "▁erence ": 8568,
      "▁nit": 8569,
      "▁k ": 8570,
      "I guess ": 8571,
      "▁эргэн": 8572,
      "Exc": 8573,
      "▁craz": 8574,
      "▁lex": 8575,
      "▁do it": 8576,
      "▁quart": 8577,
      "▁эрин с": 8578,
      "▁ был": 8579,
      "▁ you don": 8580,
      "▁ I just ": 8581,
      "▁please ": 8582,
      "Four": 8583,
      "▁Дь": 8584,
      "▁deal": 8585,
      "▁ын с": 8586,
      "▁urs": 8587,
      "▁ pick": 8588,
      "▁lean": 8589,
      "▁эр дь": 8590,
      "but I": 8591,
      "▁бутт": 8592,
      "▁OR": 8593,
      "▁атегория сыллаахха ": 8594,
      "▁ards ": 8595,
      "▁igg": 8596,
      "Isn": 8597,
      "▁ erm ": 8598,
      "▁тум": 8599,
      "▁быта ": 8600,
      "I think I": 8601,
      "▁ox": 8602,
      "▁follow": 8603,
      "▁ээ ": 8604,
      "▁өб": 8605,
      "▁ытын ": 8606,
      "▁ott": 8607,
      "s what I": 8608,
      "Re": 8609,
      "▁мин": 8610,
      "▁putt": 8611,
      "▁Tues": 8612,
      "▁ley": 8613,
      "▁goes": 8614,
      "She was ": 8615,
      "▁ but": 8616,
      "Mar": 8617,
      "t know how": 8618,
      "▁айылҕ": 8619,
      "▁лов": 8620,
      "▁in here": 8621,
      "▁woman": 8622,
      "▁чуг": 8623,
      "▁алҕ": 8624,
      "▁on it ": 8625,
      "▁эс": 8626,
      "▁да": 8627,
      "And you": 8628,
      "▁own ": 8629,
      "▁ще": 8630,
      "▁likes ": 8631,
      "▁нан": 8632,
      "▁тамм": 8633,
      "▁то ": 8634,
      "▁rest": 8635,
      "▁улах": 8636,
      "▁killed ": 8637,
      "t that ": 8638,
      "▁oub": 8639,
      "▁park": 8640,
      "▁the st": 8641,
      "▁cook": 8642,
      "▁туор": 8643,
      "▁ things": 8644,
      "s wrong": 8645,
      "▁дан ": 8646,
      "I f": 8647,
      "s he ": 8648,
      "▁алыы": 8649,
      "▁ause": 8650,
      "▁ I mean ": 8651,
      "▁тыгар ": 8652,
      "▁rother": 8653,
      "Okay ": 8654,
      "▁  and ": 8655,
      "▁get a ": 8656,
      "▁er m ": 8657,
      "▁атын к": 8658,
      "▁mall": 8659,
      "▁fast": 8660,
      "▁or something ": 8661,
      "▁ар м": 8662,
      "▁of this ": 8663,
      "▁rack": 8664,
      "yes ": 8665,
      "▁am ": 8666,
      "▁ылаах ": 8667,
      "▁kind": 8668,
      "▁ner": 8669,
      "▁fall": 8670,
      "▁олоҕун ": 8671,
      "s st": 8672,
      "▁thou": 8673,
      "▁ mind": 8674,
      "▁and it ": 8675,
      "▁one of them": 8676,
      "▁ire": 8677,
      "▁draw": 8678,
      "▁ быһы": 8679,
      "▁аттан ": 8680,
      "▁offee ": 8681,
      "▁ing this ": 8682,
      "▁live": 8683,
      "▁а суох ": 8684,
      "▁English": 8685,
      "▁er than": 8686,
      "▁and you": 8687,
      "And what ": 8688,
      "▁ dog": 8689,
      "▁irthday ": 8690,
      "Thanks": 8691,
      "▁үлэлээбит": 8692,
      "▁their ": 8693,
      "come ": 8694,
      "▁битэ ": 8695,
      "Stop": 8696,
      "▁and that": 8697,
      "▁aper ": 8698,
      "I hope ": 8699,
      "John": 8700,
      "▁а уонна ": 8701,
      "Oh you": 8702,
      "▁той": 8703,
      "▁ious ": 8704,
      "▁ез": 8705,
      "▁god ": 8706,
      "m going ": 8707,
      "▁ский ": 8708,
      "▁Cl": 8709,
      "▁ион": 8710,
      "ve gotta": 8711,
      "▁ shop": 8712,
      "▁cap": 8713,
      "You think": 8714,
      "▁for me ": 8715,
      "▁бат ": 8716,
      "▁тык ": 8717,
      "▁truth": 8718,
      "▁ade": 8719,
      "▁so I": 8720,
      "▁төрөөбүт": 8721,
      "▁ yourself": 8722,
      "ул": 8723,
      "▁ылг": 8724,
      "▁in it ": 8725,
      "▁оннор ": 8726,
      "▁ us ": 8727,
      "▁олох ": 8728,
      "▁I said": 8729,
      "▁fill": 8730,
      "▁key ": 8731,
      "▁ili": 8732,
      "be": 8733,
      "▁эн б": 8734,
      "s still": 8735,
      "t matter": 8736,
      "▁cop": 8737,
      "▁versation": 8738,
      "▁kick": 8739,
      "▁өлүөн": 8740,
      "▁how much": 8741,
      "▁ест": 8742,
      "s probably ": 8743,
      "▁ money ": 8744,
      "Well he ": 8745,
      "▁too much": 8746,
      "▁ултуур": 8747,
      "▁ буолуохт": 8748,
      "▁did you ": 8749,
      "thank": 8750,
      "▁таҥара ": 8751,
      "▁face ": 8752,
      "All right": 8753,
      "ай": 8754,
      "▁прав": 8755,
      "▁rap": 8756,
      "▁thing is ": 8757,
      "▁арҕ": 8758,
      "▁ите": 8759,
      "▁front ": 8760,
      "▁ баар": 8761,
      "▁do you think": 8762,
      "▁ге": 8763,
      "▁of w": 8764,
      "re going ": 8765,
      "▁унтаар улууһа ": 8766,
      "▁ерс": 8767,
      "▁finitely ": 8768,
      "t tell": 8769,
      "▁ when I": 8770,
      "▁late": 8771,
      "▁битэ": 8772,
      "where ": 8773,
      "▁ony ": 8774,
      "▁last week": 8775,
      "▁ial": 8776,
      "▁AN": 8777,
      "▁cal": 8778,
      "▁sea": 8779,
      "t even": 8780,
      "▁ gu": 8781,
      "Think": 8782,
      "▁mine": 8783,
      "▁аасп": 8784,
      "▁ары с": 8785,
      "Bye": 8786,
      "▁has to ": 8787,
      "▁уопс": 8788,
      "▁iscu": 8789,
      "▁get some ": 8790,
      "▁cot": 8791,
      "▁rug": 8792,
      "Have you got ": 8793,
      "▁glad ": 8794,
      "▁ book": 8795,
      "▁aby": 8796,
      "▁нэһилиэгэ мэҥэ хаҥалас улууһа ": 8797,
      "▁ing them": 8798,
      "I think it": 8799,
      "▁үҥ": 8800,
      "▁imm": 8801,
      "▁элээх ": 8802,
      "▁ati": 8803,
      "▁уон ": 8804,
      "Say ": 8805,
      "s an ": 8806,
      "▁listen to ": 8807,
      "▁eyes ": 8808,
      "▁тив": 8809,
      "▁ар дь": 8810,
      "And they ": 8811,
      "▁бын": 8812,
      "▁in the b": 8813,
      "▁ugg": 8814,
      "▁иигэ ": 8815,
      "▁бэкк": 8816,
      "▁or what": 8817,
      "▁happened to ": 8818,
      "▁пол": 8819,
      "▁үрдүк": 8820,
      "▁Ник": 8821,
      "▁ why": 8822,
      "▁we had ": 8823,
      "▁And": 8824,
      "▁туттулл": 8825,
      "▁ount ": 8826,
      "▁expen": 8827,
      "▁proper": 8828,
      "▁ wasn": 8829,
      "t d": 8830,
      "▁холб": 8831,
      "▁eb": 8832,
      "▁up with": 8833,
      "▁ane ": 8834,
      "▁ту ": 8835,
      "▁arry ": 8836,
      "▁хамс": 8837,
      "▁ие ": 8838,
      "▁отор": 8839,
      "▁цион": 8840,
      "▁нов": 8841,
      "▁cheap": 8842,
      "You want ": 8843,
      "▁бытт": 8844,
      "▁put the ": 8845,
      "▁care ": 8846,
      "did ": 8847,
      "it was ": 8848,
      "▁ different ": 8849,
      "▁ed for": 8850,
      "▁ков": 8851,
      "▁ris": 8852,
      "▁lots ": 8853,
      "▁уобал": 8854,
      "▁ct": 8855,
      "▁омп": 8856,
      "▁ини к": 8857,
      "▁a g": 8858,
      "▁ сур": 8859,
      "▁Ric": 8860,
      "▁do with": 8861,
      "▁talking to ": 8862,
      "▁half past ": 8863,
      "▁like the ": 8864,
      "▁ыллар": 8865,
      "▁cos I": 8866,
      "▁minutes ": 8867,
      "▁aff": 8868,
      "▁ out": 8869,
      "▁look like ": 8870,
      "▁illy": 8871,
      "▁эйэтин ": 8872,
      "▁rum": 8873,
      "And that": 8874,
      "▁гос": 8875,
      "▁лэр": 8876,
      "▁corn": 8877,
      "▁uni": 8878,
      "▁иэҥ": 8879,
      "any": 8880,
      "t we ": 8881,
      "▁ар д": 8882,
      "▁peci": 8883,
      "▁your h": 8884,
      "10": 8885,
      "▁issed ": 8886,
      "▁if it ": 8887,
      "▁усту": 8888,
      "▁ыытын ": 8889,
      "▁иһиги ": 8890,
      "▁ist ": 8891,
      "▁ pri": 8892,
      "▁runk": 8893,
      "▁ony": 8894,
      "▁you didn": 8895,
      "▁ wrong": 8896,
      "▁same": 8897,
      "▁plac": 8898,
      "▁half ": 8899,
      "▁чинчий": 8900,
      "▁ing in": 8901,
      "m sorry ": 8902,
      "huh": 8903,
      "▁write ": 8904,
      "▁mine ": 8905,
      "▁ҕо": 8906,
      "▁this morning": 8907,
      "▁fucking": 8908,
      "▁үттэн ": 8909,
      "▁dro": 8910,
      "▁мит": 8911,
      "▁пар": 8912,
      "▁led": 8913,
      "▁ house ": 8914,
      "So what ": 8915,
      "Com": 8916,
      "▁ when we ": 8917,
      "▁trol": 8918,
      "▁ылара ": 8919,
      "▁ал ": 8920,
      "▁ааттан": 8921,
      "▁ын к": 8922,
      "▁араар": 8923,
      "▁алара ": 8924,
      "▁ope": 8925,
      "▁ you can ": 8926,
      "▁ where": 8927,
      "▁a minute": 8928,
      "▁ins ": 8929,
      "go ": 8930,
      "which": 8931,
      "▁Car": 8932,
      "Pl": 8933,
      "▁got a ": 8934,
      "▁ сы": 8935,
      "▁have the ": 8936,
      "▁like this ": 8937,
      "▁down to ": 8938,
      "Er ": 8939,
      "▁аь": 8940,
      "▁looking at ": 8941,
      "▁sent ": 8942,
      "▁on this ": 8943,
      "▁aven": 8944,
      "▁of you": 8945,
      "▁he says ": 8946,
      "▁up there": 8947,
      "▁cold": 8948,
      "By ": 8949,
      "▁ууст": 8950,
      "▁ tri": 8951,
      "▁ология": 8952,
      "▁known": 8953,
      "▁алаах": 8954,
      "I bet ": 8955,
      "▁ a w": 8956,
      "Me": 8957,
      "isn": 8958,
      "s a f": 8959,
      "Never": 8960,
      "▁over there": 8961,
      "this is ": 8962,
      "▁нан к": 8963,
      "Jo": 8964,
      "▁pay": 8965,
      "▁ clo": 8966,
      "t he ": 8967,
      "▁shit ": 8968,
      "Our": 8969,
      "I can ": 8970,
      "▁know what ": 8971,
      "▁up of": 8972,
      "▁amn": 8973,
      "▁hurt ": 8974,
      "▁ side ": 8975,
      "▁ киир": 8976,
      "▁эч": 8977,
      "▁rather ": 8978,
      "▁иһи": 8979,
      "▁again ": 8980,
      "▁when they ": 8981,
      "▁you say": 8982,
      "▁төһ": 8983,
      "▁expect": 8984,
      "Probably ": 8985,
      "▁жд": 8986,
      "▁thy ": 8987,
      "▁ург": 8988,
      "I do ": 8989,
      "▁answer": 8990,
      "▁ual": 8991,
      "▁этин с": 8992,
      "▁удар": 8993,
      "▁second ": 8994,
      "What is ": 8995,
      "What is it": 8996,
      "▁open ": 8997,
      "▁small": 8998,
      "▁squ": 8999,
      "▁ET": 9000,
      "▁to say ": 9001,
      "You are ": 9002,
      "▁ours ": 9003,
      "▁jack": 9004,
      "▁dead": 9005,
      "▁sion ": 9006,
      "Yeah yeah": 9007,
      "▁Ann": 9008,
      "▁cus": 9009,
      "▁in s": 9010,
      "▁урукк": 9011,
      "▁ахсаан": 9012,
      "▁иэ к": 9013,
      "▁элэн ": 9014,
      "▁seen ": 9015,
      "▁аҕан ": 9016,
      "▁needs ": 9017,
      "▁ыыта ": 9018,
      "s good ": 9019,
      "▁эҕин": 9020,
      "▁imagine ": 9021,
      "▁аап": 9022,
      "▁улун ": 9023,
      "d like ": 9024,
      "▁talking about": 9025,
      "▁арык": 9026,
      "who ": 9027,
      "In ": 9028,
      "▁ris ": 9029,
      "▁ction": 9030,
      "▁лав": 9031,
      "Jack": 9032,
      "▁soon as ": 9033,
      "▁нэһилиэннь": 9034,
      "▁ and then ": 9035,
      "Онн": 9036,
      "ур": 9037,
      "▁the car": 9038,
      "▁your p": 9039,
      "▁come to ": 9040,
      "▁tow": 9041,
      "▁tive ": 9042,
      "I need ": 9043,
      "▁cep": 9044,
      "▁ON": 9045,
      "▁and that ": 9046,
      "▁he had ": 9047,
      "▁use me": 9048,
      "▁aught ": 9049,
      "▁ диэ": 9050,
      "▁cor": 9051,
      "▁Ju": 9052,
      "▁Jack": 9053,
      "▁on your": 9054,
      "▁ches ": 9055,
      "▁aughter": 9056,
      "▁duc": 9057,
      "▁have you got ": 9058,
      "▁send ": 9059,
      "▁история": 9060,
      "▁beautiful": 9061,
      "▁эмэ ": 9062,
      "▁inner ": 9063,
      "▁ая ": 9064,
      "▁иһи б": 9065,
      "No no ": 9066,
      "▁I can ": 9067,
      "▁ I could ": 9068,
      "▁wanted ": 9069,
      "▁ believe ": 9070,
      "Fif": 9071,
      "▁conf": 9072,
      "▁inute ": 9073,
      "▁either ": 9074,
      "▁aj": 9075,
      "▁ilt ": 9076,
      "▁happened ": 9077,
      "▁ыҥыр": 9078,
      "▁with me": 9079,
      "I won": 9080,
      "▁board ": 9081,
      "▁othree": 9082,
      "▁ he was ": 9083,
      "I suppose ": 9084,
      "Uh": 9085,
      "▁chair": 9086,
      "▁бэт ": 9087,
      "▁васильев": 9088,
      "▁bye": 9089,
      "▁ман": 9090,
      "▁we don": 9091,
      "I will": 9092,
      "▁buy": 9093,
      "▁garden": 9094,
      "▁аахп": 9095,
      "▁үрэхт": 9096,
      "▁ticular": 9097,
      "▁нэһилиэгэ с": 9098,
      "▁арыгар к": 9099,
      "▁val": 9100,
      "Any ": 9101,
      "I should ": 9102,
      "▁to make ": 9103,
      "and then": 9104,
      "▁brother": 9105,
      "▁иинэ ": 9106,
      "▁sal": 9107,
      "▁he didn": 9108,
      "▁олай ": 9109,
      "▁ohn ": 9110,
      "I dunno": 9111,
      "▁ерд": 9112,
      "▁үтүөлээх ": 9113,
      "I did ": 9114,
      "▁put": 9115,
      "▁out of ": 9116,
      "▁come back": 9117,
      "▁нэһилиэг": 9118,
      "t worry ": 9119,
      "▁ing around ": 9120,
      "▁oul": 9121,
      "▁ент": 9122,
      "▁Rob": 9123,
      "▁of d": 9124,
      "ve never ": 9125,
      "But it": 9126,
      "▁аайы ": 9127,
      "▁Monday ": 9128,
      "▁ суох": 9129,
      "▁loy": 9130,
      "▁table ": 9131,
      "▁fire ": 9132,
      "▁ын б": 9133,
      "s his ": 9134,
      "▁for that ": 9135,
      "▁very good ": 9136,
      "▁раз": 9137,
      "▁ бу ": 9138,
      "▁fell": 9139,
      "▁owl": 9140,
      "▁it wasn": 9141,
      "▁ саҥ": 9142,
      "s a p": 9143,
      "▁ doing ": 9144,
      "▁иван": 9145,
      "▁ni": 9146,
      "▁zz": 9147,
      "▁nothing to ": 9148,
      "Well they ": 9149,
      "▁ I went ": 9150,
      "Listen": 9151,
      "▁wise ": 9152,
      "s in": 9153,
      "▁тылын ": 9154,
      "▁абыт": 9155,
      "▁ trying to ": 9156,
      "▁ES": 9157,
      "▁lip": 9158,
      "▁эйг": 9159,
      "▁I get ": 9160,
      "▁үск": 9161,
      "▁ shit": 9162,
      "Perhaps ": 9163,
      "▁ I thought ": 9164,
      "▁offee": 9165,
      "▁equ": 9166,
      "▁ред": 9167,
      "in the ": 9168,
      "▁I said to ": 9169,
      "▁инилэр ": 9170,
      "▁ved ": 9171,
      "▁go out ": 9172,
      "▁athroom": 9173,
      "▁fig": 9174,
      "▁I b": 9175,
      "▁I want ": 9176,
      "▁а дь": 9177,
      "▁ээнн": 9178,
      "▁ along": 9179,
      "▁ize ": 9180,
      "▁sick": 9181,
      "▁sounds ": 9182,
      "▁unless ": 9183,
      "Which ": 9184,
      "▁эри": 9185,
      "God ": 9186,
      "Мин ": 9187,
      "▁но": 9188,
      "▁эриттэн ": 9189,
      "▁not to ": 9190,
      "▁оци": 9191,
      "▁hoto": 9192,
      "There was ": 9193,
      "▁of a ": 9194,
      "And it": 9195,
      "▁I want": 9196,
      "▁pass": 9197,
      "▁тугар ": 9198,
      "▁үүр ": 9199,
      "▁cle ": 9200,
      "▁upid": 9201,
      "▁you know what ": 9202,
      "▁иитин ": 9203,
      "▁ms ": 9204,
      "▁of people ": 9205,
      "▁тат": 9206,
      "▁eld": 9207,
      "▁ a few": 9208,
      "▁нэһилиэгэ сунтаар улууһа ": 9209,
      "▁eleven": 9210,
      "▁оллор": 9211,
      "▁a new": 9212,
      "▁alf": 9213,
      "▁lol": 9214,
      "▁etween ": 9215,
      "▁ju": 9216,
      "▁түбэһ": 9217,
      "▁ with you": 9218,
      "▁one of those ": 9219,
      "▁die": 9220,
      "t let ": 9221,
      "▁me and ": 9222,
      "Well we ": 9223,
      "▁ at all": 9224,
      "▁kitchen": 9225,
      "▁liev": 9226,
      "▁ов с": 9227,
      "▁du": 9228,
      "▁уттан ": 9229,
      "▁udden": 9230,
      "▁ting": 9231,
      "▁under ": 9232,
      "Of course ": 9233,
      "s where ": 9234,
      "▁s in ": 9235,
      "▁lar": 9236,
      "▁си": 9237,
      "▁маҥ": 9238,
      "▁reet": 9239,
      "▁ maybe ": 9240,
      "▁ fucking ": 9241,
      "▁lives ": 9242,
      "Che": 9243,
      "I p": 9244,
      "See": 9245,
      "ыр": 9246,
      "▁were": 9247,
      "▁s at ": 9248,
      "▁алпаб": 9249,
      "Cor": 9250,
      "From": 9251,
      "Sir": 9252,
      "▁notic": 9253,
      "▁ыкт": 9254,
      "▁bother": 9255,
      "▁ors": 9256,
      "▁elect": 9257,
      "▁инг": 9258,
      "▁taking ": 9259,
      "Anyway ": 9260,
      "▁level": 9261,
      "▁record ": 9262,
      "▁ннар": 9263,
      "▁ird": 9264,
      "▁exam": 9265,
      "▁оруоб": 9266,
      "▁үлэ ": 9267,
      "▁эйэтэ ": 9268,
      "▁ер ": 9269,
      "▁himself": 9270,
      "▁ being ": 9271,
      "▁ost": 9272,
      "▁ing d": 9273,
      "▁ категория ": 9274,
      "▁ дии": 9275,
      "you can": 9276,
      "▁across ": 9277,
      "s how": 9278,
      "ll come ": 9279,
      "▁doctor": 9280,
      "▁last night ": 9281,
      "▁үлэлиир": 9282,
      "▁ сирд": 9283,
      "I am ": 9284,
      "okay": 9285,
      "▁тай": 9286,
      "▁eed ": 9287,
      "▁гар": 9288,
      "▁oper": 9289,
      "▁gan": 9290,
      "▁ the other": 9291,
      "▁ааһын": 9292,
      "▁ifferent": 9293,
      "▁ser": 9294,
      "▁эттэн ": 9295,
      "▁I am": 9296,
      "▁anger": 9297,
      "▁ two": 9298,
      "200": 9299,
      "▁ян": 9300,
      "▁ттон ": 9301,
      "▁ct ": 9302,
      "▁ern": 9303,
      "▁тэн": 9304,
      "▁а сайд": 9305,
      "▁it back": 9306,
      "▁ буолар": 9307,
      "▁finished ": 9308,
      "▁ киниг": 9309,
      "ll put ": 9310,
      "They were ": 9311,
      "▁уруо": 9312,
      "▁ияҕа ": 9313,
      "▁го ": 9314,
      "▁build": 9315,
      "▁nic": 9316,
      "▁ох ": 9317,
      "ve seen": 9318,
      "▁like this": 9319,
      "▁өк": 9320,
      "▁ bag": 9321,
      "▁аайыстыб": 9322,
      "▁ да к": 9323,
      "▁ toge": 9324,
      "▁ture": 9325,
      "Aye ": 9326,
      "▁I do ": 9327,
      "▁fast ": 9328,
      "▁perf": 9329,
      "▁ааск": 9330,
      "ll b": 9331,
      "▁наук": 9332,
      "▁ сал": 9333,
      "▁ээн к": 9334,
      "Wait ": 9335,
      "was ": 9336,
      "▁scar": 9337,
      "▁bedroom": 9338,
      "▁ици": 9339,
      "▁убул": 9340,
      "▁аш": 9341,
      "got ": 9342,
      "▁load ": 9343,
      "▁скэй ": 9344,
      "m f": 9345,
      "▁arently ": 9346,
      "▁ately ": 9347,
      "▁арыты": 9348,
      "ve got the ": 9349,
      "▁ittle": 9350,
      "Come on ": 9351,
      "▁ child": 9352,
      "бил": 9353,
      "▁ли": 9354,
      "▁they are ": 9355,
      "Ah ": 9356,
      "▁thin": 9357,
      "▁inger": 9358,
      "s nice ": 9359,
      "▁of t": 9360,
      "▁ you s": 9361,
      "▁туй": 9362,
      "▁used to be ": 9363,
      "▁guys ": 9364,
      "▁өрүө": 9365,
      "How long": 9366,
      "You have ": 9367,
      "▁perhaps ": 9368,
      "▁ancy ": 9369,
      "▁police ": 9370,
      "▁pub": 9371,
      "▁ини б": 9372,
      "First ": 9373,
      "Or ": 9374,
      "▁а п": 9375,
      "▁таҥар": 9376,
      "▁ondon": 9377,
      "▁тата ": 9378,
      "▁ship": 9379,
      "▁ааб": 9380,
      "▁like it": 9381,
      "▁go to the ": 9382,
      "▁уотт": 9383,
      "▁ic ": 9384,
      "▁ooh ": 9385,
      "re a ": 9386,
      "Those ": 9387,
      "No I don": 9388,
      "▁through the ": 9389,
      "▁омукт": 9390,
      "▁элин ": 9391,
      "d like to ": 9392,
      "▁батах": 9393,
      "▁acc": 9394,
      "▁close ": 9395,
      "▁фан": 9396,
      "▁reet ": 9397,
      "▁sho": 9398,
      "▁vy ": 9399,
      "▁ons": 9400,
      "▁stopp": 9401,
      "▁өлл": 9402,
      "▁ boy": 9403,
      "▁ в": 9404,
      "▁эриэ": 9405,
      "▁ross": 9406,
      "s got a ": 9407,
      "▁иск": 9408,
      "▁ first ": 9409,
      "▁important ": 9410,
      "▁and he": 9411,
      "▁ele": 9412,
      "Mmmm": 9413,
      "s a lot ": 9414,
      "I saw": 9415,
      "▁fortun": 9416,
      "▁dark": 9417,
      "▁бута": 9418,
      "do": 9419,
      "▁mind ": 9420,
      "▁умн": 9421,
      "re not": 9422,
      "▁тех": 9423,
      "▁in here ": 9424,
      "▁ weren": 9425,
      "▁ыыс": 9426,
      "▁of us ": 9427,
      "▁thinks ": 9428,
      "un": 9429,
      "▁ert ": 9430,
      "▁oose ": 9431,
      "▁complet": 9432,
      "▁er  ": 9433,
      "▁урд": 9434,
      "▁keep ": 9435,
      "▁орто оскуол": 9436,
      "Ай": 9437,
      "уонн": 9438,
      "▁туо": 9439,
      "▁ed you": 9440,
      "▁pounds": 9441,
      "▁rush": 9442,
      "▁lunch": 9443,
      "▁хор": 9444,
      "▁ээбит ": 9445,
      "▁shouldn": 9446,
      "Well I don": 9447,
      "s your ": 9448,
      "You could ": 9449,
      "▁ бир": 9450,
      "▁tain ": 9451,
      "▁ппыт": 9452,
      "▁lott": 9453,
      "▁тири": 9454,
      "▁ames": 9455,
      "▁stem": 9456,
      "▁the best ": 9457,
      "▁ец": 9458,
      "s had ": 9459,
      "▁ииг": 9460,
      "And she ": 9461,
      "▁өрөн ": 9462,
      "▁эбэт": 9463,
      "▁аммыт": 9464,
      "▁seri": 9465,
      "▁unny ": 9466,
      "▁ити ": 9467,
      "▁uppose": 9468,
      "▁үүтү": 9469,
      "▁ g h": 9470,
      "▁ he said ": 9471,
      "▁vill": 9472,
      "▁the fuck": 9473,
      "▁ биир": 9474,
      "Oh a": 9475,
      "▁your d": 9476,
      "▁any more": 9477,
      "▁weet ": 9478,
      "▁somewhere ": 9479,
      "Have you": 9480,
      "t work": 9481,
      "▁ини": 9482,
      "▁of a": 9483,
      "▁event": 9484,
      "▁эм ": 9485,
      "▁aking ": 9486,
      "▁ife": 9487,
      "▁тириэрд": 9488,
      "▁grou": 9489,
      "▁үһү": 9490,
      "▁vol": 9491,
      "▁if she ": 9492,
      "▁with it": 9493,
      "▁push": 9494,
      "▁а сыл": 9495,
      "▁arry": 9496,
      "▁ished": 9497,
      "▁өрө ": 9498,
      "▁to take ": 9499,
      "▁ done": 9500,
      "▁аахтар": 9501,
      "▁ is it": 9502,
      "▁ play ": 9503,
      "▁ай с": 9504,
      "▁end of the ": 9505,
      "▁s in the ": 9506,
      "t give ": 9507,
      "▁атын б": 9508,
      "▁иллэн ": 9509,
      "▁жен": 9510,
      "▁sixty ": 9511,
      "▁I won": 9512,
      "▁ I see": 9513,
      "▁га б": 9514,
      "m not": 9515,
      "▁evil": 9516,
      "▁эннэ ": 9517,
      "▁государ": 9518,
      "i ": 9519,
      "▁ed my ": 9520,
      "▁ан иһ": 9521,
      "▁pot": 9522,
      "▁ута ": 9523,
      "▁ myself": 9524,
      "▁hop": 9525,
      "▁orts ": 9526,
      "▁арты": 9527,
      "s good": 9528,
      "▁race": 9529,
      "▁I suppose ": 9530,
      "▁ house": 9531,
      "▁hundred": 9532,
      "You should ": 9533,
      "▁үөрэх": 9534,
      "▁aybe": 9535,
      "▁right now": 9536,
      "▁rip": 9537,
      "▁ting ": 9538,
      "▁c ": 9539,
      "▁осс": 9540,
      "▁ I didn": 9541,
      "▁итин ": 9542,
      "▁ pay ": 9543,
      "▁bly ": 9544,
      "▁ed on": 9545,
      "▁███ ": 9546,
      "Well you ": 9547,
      "▁very well": 9548,
      "▁rench": 9549,
      "▁true ": 9550,
      "▁normally ": 9551,
      "▁careful": 9552,
      "▁dic": 9553,
      "▁уоруй": 9554,
      "▁чилиэ": 9555,
      "▁you said ": 9556,
      "▁ууһ": 9557,
      "▁non": 9558,
      "▁май": 9559,
      "Keep": 9560,
      "▁door ": 9561,
      "▁тохто": 9562,
      "▁ray": 9563,
      "▁neck": 9564,
      "▁there and ": 9565,
      "▁hospital": 9566,
      "▁Christmas": 9567,
      "▁game ": 9568,
      "▁mach": 9569,
      "▁ up ": 9570,
      "▁арассыый": 9571,
      "▁you haven": 9572,
      "▁скайд": 9573,
      "▁I have to ": 9574,
      "▁ it is ": 9575,
      "▁ыытынан к": 9576,
      "▁эххэ ": 9577,
      "▁erry ": 9578,
      "▁ you do ": 9579,
      "▁aster": 9580,
      "Do you think": 9581,
      "▁range ": 9582,
      "▁tack": 9583,
      "They don": 9584,
      "▁kind of ": 9585,
      "▁vir": 9586,
      "▁эск": 9587,
      "ex": 9588,
      "▁үб": 9589,
      "▁of them ": 9590,
      "Did you": 9591,
      "Sp": 9592,
      "▁es to ": 9593,
      "▁ыбыт ": 9594,
      "▁ fif": 9595,
      "So you": 9596,
      "▁бата": 9597,
      "▁chick": 9598,
      "m af": 9599,
      "▁sist": 9600,
      "▁турар ": 9601,
      "▁ tonight": 9602,
      "▁lit": 9603,
      "▁ром": 9604,
      "▁уруу": 9605,
      "▁office ": 9606,
      "▁having a": 9607,
      "▁эрин б": 9608,
      "▁ please": 9609,
      "▁ it up": 9610,
      "uh": 9611,
      "▁you had ": 9612,
      "▁having": 9613,
      "Why not": 9614,
      "▁га": 9615,
      "▁I should ": 9616,
      "▁үлүү": 9617,
      "▁difficul": 9618,
      "▁bel": 9619,
      "▁tonight ": 9620,
      "▁etting ": 9621,
      "Mummy": 9622,
      "please": 9623,
      "▁стыб": 9624,
      "▁has": 9625,
      "▁эрт": 9626,
      "▁ылааҕ": 9627,
      "I have to ": 9628,
      "▁аҕаны ": 9629,
      "▁ытык": 9630,
      "s in the ": 9631,
      "▁earth": 9632,
      "s the matter": 9633,
      "▁realize ": 9634,
      "▁ik": 9635,
      "s a c": 9636,
      "▁ play": 9637,
      "▁taken": 9638,
      "maybe ": 9639,
      "▁als ": 9640,
      "▁ин д": 9641,
      "▁хаалл": 9642,
      "▁rock": 9643,
      "▁атегория дь": 9644,
      "▁reen": 9645,
      "Hey ": 9646,
      "I couldn": 9647,
      "about ": 9648,
      "Yeah it": 9649,
      "▁or not": 9650,
      "▁уол ": 9651,
      "▁board": 9652,
      "▁kids": 9653,
      "Bloody ": 9654,
      "let": 9655,
      "▁urder": 9656,
      "▁аҕын ": 9657,
      "▁Friday": 9658,
      "▁sir": 9659,
      "▁ a couple ": 9660,
      "▁циял": 9661,
      "What do you mean": 9662,
      "▁given": 9663,
      "оҕ": 9664,
      "▁онто": 9665,
      "▁аатта ": 9666,
      "▁enjoy": 9667,
      "▁uter": 9668,
      "▁mom": 9669,
      "▁foot": 9670,
      "▁ since ": 9671,
      "▁last year": 9672,
      "▁sat ": 9673,
      "▁Michael": 9674,
      "Ал": 9675,
      "▁gener": 9676,
      "▁much ": 9677,
      "▁исс": 9678,
      "▁ away": 9679,
      "▁ession": 9680,
      "Yeahthat": 9681,
      "▁ from the ": 9682,
      "For ": 9683,
      "Huh": 9684,
      "▁ door": 9685,
      "▁ still": 9686,
      "▁would": 9687,
      "▁ will be ": 9688,
      "s two ": 9689,
      "▁toil": 9690,
      "▁glass": 9691,
      "▁ийэ ": 9692,
      "▁ton ": 9693,
      "▁for s": 9694,
      "▁word": 9695,
      "▁if you don": 9696,
      "right ": 9697,
      "▁an and ": 9698,
      "▁yellow": 9699,
      "▁girls ": 9700,
      "reall": 9701,
      "▁Char": 9702,
      "▁ cut ": 9703,
      "You see ": 9704,
      "You didn": 9705,
      "▁minutes": 9706,
      "▁lady ": 9707,
      "▁тупс": 9708,
      "а ": 9709,
      "▁чурапчы ": 9710,
      "▁эрэ буол": 9711,
      "▁уус уст": 9712,
      "Up": 9713,
      "▁wful": 9714,
      "ll tell you": 9715,
      "▁уйан ": 9716,
      "▁more than": 9717,
      "I see": 9718,
      "▁улахан к": 9719,
      "▁time to ": 9720,
      "▁against ": 9721,
      "▁ whole ": 9722,
      "▁ey ": 9723,
      "▁ле": 9724,
      "▁arter": 9725,
      "▁they can": 9726,
      "▁биһиг": 9727,
      "▁турар": 9728,
      "▁tot": 9729,
      "▁ about it ": 9730,
      "▁the last ": 9731,
      "▁igar": 9732,
      "▁итин": 9733,
      "▁eather": 9734,
      "I hate ": 9735,
      "▁эбин": 9736,
      "▁аатыр": 9737,
      "▁Geor": 9738,
      "▁тин": 9739,
      "▁ext": 9740,
      "▁амс": 9741,
      "▁ыһыанн": 9742,
      "Nice ": 9743,
      "▁аата": 9744,
      "▁cost ": 9745,
      "▁ stand ": 9746,
      "▁ze": 9747,
      "▁piec": 9748,
      "▁ wait": 9749,
      "▁атыыр": 9750,
      "We can": 9751,
      "▁теп": 9752,
      "▁cli": 9753,
      "▁онно ": 9754,
      "▁по": 9755,
      "▁ing me": 9756,
      "▁he can": 9757,
      "▁your c": 9758,
      "Of course": 9759,
      "▁arn": 9760,
      "▁thinking ": 9761,
      "▁үчүгэй ": 9762,
      "▁hom": 9763,
      "▁ give ": 9764,
      "▁ men": 9765,
      "▁and get ": 9766,
      "▁ dec": 9767,
      "▁тус": 9768,
      "▁ахха ": 9769,
      "▁all this ": 9770,
      "▁with that ": 9771,
      "▁I saw": 9772,
      "▁unt ": 9773,
      "▁ийэ к": 9774,
      "Five ": 9775,
      "▁odd ": 9776,
      "Please ": 9777,
      "▁Sp": 9778,
      "▁chur": 9779,
      "▁ахсаанн": 9780,
      "▁иверс": 9781,
      "▁cat": 9782,
      "▁UC": 9783,
      "▁throw": 9784,
      "t f": 9785,
      "▁er I": 9786,
      "▁ acc": 9787,
      "▁smo": 9788,
      "▁sub": 9789,
      "▁иэхх": 9790,
      "▁ holi": 9791,
      "Cour": 9792,
      "▁inside ": 9793,
      "▁ына ": 9794,
      "▁Mrs ": 9795,
      "▁Saturday": 9796,
      "▁fter ": 9797,
      "▁ky ": 9798,
      "▁tired ": 9799,
      "▁down ": 9800,
      "Can I": 9801,
      "▁mit": 9802,
      "▁a t": 9803,
      "▁иин ": 9804,
      "▁experi": 9805,
      "Nor": 9806,
      "didn": 9807,
      "▁рө": 9808,
      "▁got the ": 9809,
      "▁ылы ": 9810,
      "12": 9811,
      "▁sing ": 9812,
      "ll probably ": 9813,
      "▁ your b": 9814,
      "▁come on": 9815,
      "▁mum ": 9816,
      "▁өх ": 9817,
      "▁ des": 9818,
      "▁иэнн": 9819,
      "▁ages ": 9820,
      "▁баран": 9821,
      "▁ier": 9822,
      "▁mell": 9823,
      "▁олоҥ": 9824,
      "▁pop": 9825,
      "▁ white ": 9826,
      "▁ult": 9827,
      "▁ates": 9828,
      "▁иял": 9829,
      "▁ounc": 9830,
      "▁ыыга ": 9831,
      "▁атыыл": 9832,
      "▁he said": 9833,
      "We don": 9834,
      "▁sex": 9835,
      "▁түрг": 9836,
      "t see": 9837,
      "Are you s": 9838,
      "▁thank you": 9839,
      "▁ дойдул": 9840,
      "▁ дир": 9841,
      "▁аҕаны": 9842,
      "you don": 9843,
      "▁ya ": 9844,
      "▁игэлэр ": 9845,
      "▁music": 9846,
      "▁etwothree": 9847,
      "▁anymore": 9848,
      "▁fine": 9849,
      "▁Ар": 9850,
      "s  ": 9851,
      "▁ester": 9852,
      "▁ of them": 9853,
      "▁s me ": 9854,
      "▁инд": 9855,
      "▁onsi": 9856,
      "▁аҕа к": 9857,
      "▁ang on": 9858,
      "▁ will ": 9859,
      "▁offic": 9860,
      "▁ыыһы": 9861,
      "▁овна ": 9862,
      "▁this one ": 9863,
      "You just ": 9864,
      "▁ҥҥа ": 9865,
      "Make ": 9866,
      "▁туох ": 9867,
      "▁s up": 9868,
      "▁is not ": 9869,
      "▁ritt": 9870,
      "▁бин": 9871,
      "t there": 9872,
      "s okay": 9873,
      "▁if I ": 9874,
      "▁this week": 9875,
      "Oh God": 9876,
      "11": 9877,
      "or ": 9878,
      "▁ girl": 9879,
      "▁oop": 9880,
      "▁стр": 9881,
      "▁they do ": 9882,
      "▁we have ": 9883,
      "▁ours": 9884,
      "▁entle": 9885,
      "▁enn": 9886,
      "Thank you ": 9887,
      "▁ when you ": 9888,
      "▁ком": 9889,
      "▁нан с": 9890,
      "▁ without ": 9891,
      "▁үөрэмм": 9892,
      "▁ are": 9893,
      "▁at the mom": 9894,
      "▁surpri": 9895,
      "▁sometimes ": 9896,
      "▁AT": 9897,
      "▁once": 9898,
      "▁easy": 9899,
      "▁ase": 9900,
      "▁quid": 9901,
      "▁something to ": 9902,
      "▁The ": 9903,
      "How did ": 9904,
      "Every ": 9905,
      "▁ fin": 9906,
      "▁itting": 9907,
      "▁ort of ": 9908,
      "▁анг": 9909,
      "▁науч": 9910,
      "▁eyes": 9911,
      "What does ": 9912,
      "▁down and ": 9913,
      "▁I say": 9914,
      "▁s to be ": 9915,
      "▁үкс": 9916,
      "▁Алекс": 9917,
      "▁Phi": 9918,
      "▁ans ": 9919,
      "▁ about the ": 9920,
      "Shut up": 9921,
      "Jesus": 9922,
      "but": 9923,
      "▁game": 9924,
      "▁hall ": 9925,
      "▁тутуһ": 9926,
      "▁turn ": 9927,
      "▁хаачч": 9928,
      "▁irt ": 9929,
      "▁in the car": 9930,
      "▁ас биирд": 9931,
      "▁if they": 9932,
      "▁түг": 9933,
      "▁игэ ": 9934,
      "▁ар кы": 9935,
      "Yeah that": 9936,
      "▁over there ": 9937,
      "t care ": 9938,
      "for ": 9939,
      "▁it would ": 9940,
      "▁тылб": 9941,
      "▁twenty five ": 9942,
      "▁ hundred and ": 9943,
      "▁ister ": 9944,
      "Билигин ": 9945,
      "I wish": 9946,
      "▁real ": 9947,
      "▁hy": 9948,
      "▁ife ": 9949,
      "күнүгэр ": 9950,
      "▁ those": 9951,
      "▁уот": 9952,
      "▁a nice ": 9953,
      "▁ word ": 9954,
      "▁et me ": 9955,
      "эр": 9956,
      "▁мат": 9957,
      "t find ": 9958,
      "▁have it ": 9959,
      "▁that you": 9960,
      "▁ you get ": 9961,
      "▁ this morning": 9962,
      "▁going to be ": 9963,
      "▁ кэпс": 9964,
      "▁тык": 9965,
      "▁round the ": 9966,
      "▁ort of": 9967,
      "▁hold": 9968,
      "▁ээх с": 9969,
      "▁фанас": 9970,
      "▁pool": 9971,
      "▁know ": 9972,
      "▁IC": 9973,
      "▁фил": 9974,
      "▁Ed": 9975,
      "▁LL": 9976,
      "▁London": 9977,
      "▁fifteen": 9978,
      "▁ sw": 9979,
      "▁бакка ": 9980,
      "▁bil": 9981,
      "▁ery": 9982,
      "▁ both": 9983,
      "▁I like ": 9984,
      "▁оскв": 9985,
      "▁Sunday": 9986,
      "▁ааны ": 9987,
      "▁ coming ": 9988,
      "▁ated": 9989,
      "If I": 9990,
      "▁flow": 9991,
      "▁улун тут": 9992,
      "▁ s ": 9993,
      "▁ кон": 9994,
      "▁rote ": 9995,
      "▁үлэһитт": 9996,
      "Con": 9997,
      "▁ буолла": 9998,
      "▁тыынн": 9999,
      "▁led ": 10000,
      "▁of that": 10001,
      "▁he goes ": 10002,
      "▁ кыл": 10003,
      "▁urpri": 10004,
      "▁amer": 10005,
      "▁ well ": 10006,
      "▁ove": 10007,
      "▁to do": 10008,
      "re doing": 10009,
      "ll make ": 10010,
      "▁econd": 10011,
      "em ": 10012,
      "▁ҥа ": 10013,
      "▁stuck": 10014,
      "▁out there": 10015,
      "re all ": 10016,
      "▁ do you ": 10017,
      "▁in a m": 10018,
      "by ": 10019,
      "▁stand ": 10020,
      "▁этэн ": 10021,
      "▁guess": 10022,
      "▁ууну": 10023,
      "▁ing them ": 10024,
      "▁it in": 10025,
      "▁irst": 10026,
      "▁uper": 10027,
      "▁этиннь": 10028,
      "good ": 10029,
      "▁kid ": 10030,
      "▁окуускай ": 10031,
      "▁ киһи б": 10032,
      "▁hum": 10033,
      "▁ттэр": 10034,
      "▁имн": 10035,
      "▁рад": 10036,
      "▁looks like ": 10037,
      "▁writ": 10038,
      "▁lipp": 10039,
      "▁notice ": 10040,
      "▁тутт": 10041,
      "▁ black": 10042,
      "▁yn": 10043,
      "▁ seen": 10044,
      "▁ a h": 10045,
      "▁elve": 10046,
      "▁ерг": 10047,
      "Ar": 10048,
      "▁этин к": 10049,
      "▁to come ": 10050,
      "▁looking": 10051,
      "▁blow": 10052,
      "▁everybody": 10053,
      "▁ме": 10054,
      "▁keeps ": 10055,
      "Char": 10056,
      "▁eil": 10057,
      "▁ale": 10058,
      "s some ": 10059,
      "then ": 10060,
      "▁утун ": 10061,
      "▁ая": 10062,
      "▁ste": 10063,
[...]
