{
  "version": "1.0",
  "truncation": null,
  "padding": null,
  "added_tokens": [
    {
      "id": 0,
      "content": "<|begin_of_text|>",
      "single_word": false,
      "lstrip": false,
      "rstrip": false,
      "normalized": false,
      "special": true
    },
    {
      "id": 1,
      "content": "<|end_of_text|>",
      "single_word": false,
      "lstrip": false,
      "rstrip": false,
      "normalized": false,
      "special": true
    },
    {
      "id": 2,
      "content": "<unk>",
      "single_word": false,
      "lstrip": false,
      "rstrip": false,
      "normalized": false,
      "special": true
    },
    {
      "id": 3,
      "content": "<pad>",
      "single_word": false,
      "lstrip": false,
      "rstrip": false,
      "normalized": false,
      "special": true
    },
    {
      "id": 4,
      "content": "<en>",
      "single_word": false,
      "lstrip": false,
      "rstrip": false,
      "normalized": false,
      "special": true
    },
    {
      "id": 5,
      "content": "<ru>",
      "single_word": false,
      "lstrip": false,
      "rstrip": false,
      "normalized": false,
      "special": true
    },
    {
      "id": 6,
      "content": "<sah>",
      "single_word": false,
      "lstrip": false,
      "rstrip": false,
      "normalized": false,
      "special": true
    }
  ],
  "normalizer": null,
  "pre_tokenizer": {
    "type": "Sequence",
    "pretokenizers": [
      {
        "type": "WhitespaceSplit"
      },
      {
        "type": "Punctuation",
        "behavior": "Isolated"
      }
    ]
  },
  "post_processor": null,
  "decoder": {
    "type": "Sequence",
    "decoders": [
      {
        "type": "Replace",
        "pattern": {
          "String": "▁"
        },
        "content": ""
      },
      {
        "type": "ByteLevel",
        "add_prefix_space": true,
        "trim_offsets": true,
        "use_regex": true
      }
    ]
  },
  "model": {
    "type": "BPE",
    "dropout": null,
    "unk_token": "<unk>",
    "continuing_subword_prefix": "",
    "end_of_word_suffix": null,
    "fuse_unk": true,
    "byte_fallback": false,
    "ignore_merges": false,
    "vocab": {
      "<|begin_of_text|>": 0,
      "<|end_of_text|>": 1,
      "<unk>": 2,
      "<pad>": 3,
      "<en>": 4,
      "<ru>": 5,
      "<sah>": 6,
      "!": 7,
      "\"": 8,
      "#": 9,
      "$": 10,
      "%": 11,
      "&": 12,
      "'": 13,
      "(": 14,
      ")": 15,
      "*": 16,
      "+": 17,
      ",": 18,
      "-": 19,
      ".": 20,
      "/": 21,
      "0": 22,
      "1": 23,
      "2": 24,
      "3": 25,
      "4": 26,
      "5": 27,
      "6": 28,
      "7": 29,
      "8": 30,
      "9": 31,
      ":": 32,
      ";": 33,
      "<": 34,
      "=": 35,
      ">": 36,
      "?": 37,
      "@": 38,
      "A": 39,
      "B": 40,
      "C": 41,
      "D": 42,
      "E": 43,
      "F": 44,
      "G": 45,
      "H": 46,
      "I": 47,
      "J": 48,
      "K": 49,
      "L": 50,
      "M": 51,
      "N": 52,
      "O": 53,
      "P": 54,
      "Q": 55,
      "R": 56,
      "S": 57,
      "T": 58,
      "U": 59,
      "V": 60,
      "W": 61,
      "X": 62,
      "Y": 63,
      "Z": 64,
      "[": 65,
      "\\": 66,
      "]": 67,
      "^": 68,
      "_": 69,
      "`": 70,
      "a": 71,
      "b": 72,
      "c": 73,
      "d": 74,
      "e": 75,
      "f": 76,
      "g": 77,
      "h": 78,
      "i": 79,
      "j": 80,
      "k": 81,
      "l": 82,
      "m": 83,
      "n": 84,
      "o": 85,
      "p": 86,
      "q": 87,
      "r": 88,
      "s": 89,
      "t": 90,
      "u": 91,
      "v": 92,
      "w": 93,
      "x": 94,
      "y": 95,
      "z": 96,
      "{": 97,
      "|": 98,
      "}": 99,
      "~": 100,
      "": 101,
      "¡": 102,
      "¢": 103,
      "£": 104,
      "¤": 105,
      "¥": 106,
      "¦": 107,
      "§": 108,
      "¨": 109,
      "©": 110,
      "ª": 111,
      "«": 112,
      "¬": 113,
      "­": 114,
      "®": 115,
      "¯": 116,
      "°": 117,
      "±": 118,
      "²": 119,
      "³": 120,
      "´": 121,
      "µ": 122,
      "¶": 123,
      "·": 124,
      "¸": 125,
      "¹": 126,
      "º": 127,
      "»": 128,
      "¼": 129,
      "½": 130,
      "¾": 131,
      "¿": 132,
      "À": 133,
      "Á": 134,
      "Â": 135,
      "Ã": 136,
      "Ä": 137,
      "Å": 138,
      "Æ": 139,
      "Ç": 140,
      "È": 141,
      "É": 142,
      "Ê": 143,
      "Ë": 144,
      "Ì": 145,
      "Í": 146,
      "Î": 147,
      "Ï": 148,
      "Ð": 149,
      "Ñ": 150,
      "Ò": 151,
      "Ó": 152,
      "Ô": 153,
      "Õ": 154,
      "Ö": 155,
      "×": 156,
      "Ø": 157,
      "Ù": 158,
      "Ú": 159,
      "Û": 160,
      "Ü": 161,
      "Ý": 162,
      "Þ": 163,
      "ß": 164,
      "à": 165,
      "á": 166,
      "â": 167,
      "ã": 168,
      "ä": 169,
      "å": 170,
      "æ": 171,
      "ç": 172,
      "è": 173,
      "é": 174,
      "ê": 175,
      "ë": 176,
      "ì": 177,
      "í": 178,
      "î": 179,
      "ï": 180,
      "ð": 181,
      "ñ": 182,
      "ò": 183,
      "ó": 184,
      "ô": 185,
      "õ": 186,
      "ö": 187,
      "÷": 188,
      "ø": 189,
      "ù": 190,
      "ú": 191,
      "û": 192,
      "ü": 193,
      "ý": 194,
      "þ": 195,
      "ÿ": 196,
      "Ā": 197,
      "ā": 198,
      "Ă": 199,
      "ă": 200,
      "Ą": 201,
      "ą": 202,
      "Ć": 203,
      "ć": 204,
      "Ĉ": 205,
      "ĉ": 206,
      "Ċ": 207,
      "ċ": 208,
      "Č": 209,
      "č": 210,
      "Ď": 211,
      "ď": 212,
      "Đ": 213,
      "đ": 214,
      "Ē": 215,
      "ē": 216,
      "Ĕ": 217,
      "ĕ": 218,
      "Ė": 219,
      "ė": 220,
      "Ę": 221,
      "ę": 222,
      "Ě": 223,
      "ě": 224,
      "Ĝ": 225,
      "ĝ": 226,
      "Ğ": 227,
      "ğ": 228,
      "Ġ": 229,
      "ġ": 230,
      "Ģ": 231,
      "ģ": 232,
      "Ĥ": 233,
      "ĥ": 234,
      "Ħ": 235,
      "ħ": 236,
      "Ĩ": 237,
      "ĩ": 238,
      "Ī": 239,
      "ī": 240,
      "Ĭ": 241,
      "ĭ": 242,
      "Į": 243,
      "į": 244,
      "İ": 245,
      "ı": 246,
      "Ĳ": 247,
      "ĳ": 248,
      "Ĵ": 249,
      "ĵ": 250,
      "Ķ": 251,
      "ķ": 252,
      "ĸ": 253,
      "Ĺ": 254,
      "ĺ": 255,
      "Ļ": 256,
      "ļ": 257,
      "Ľ": 258,
      "ľ": 259,
      "Ŀ": 260,
      "ŀ": 261,
      "Ł": 262,
      "ł": 263,
      "Ń": 264,
      "ń": 265,
      "ŋ": 266,
      "ō": 267,
      "œ": 268,
      "ř": 269,
      "ś": 270,
      "ş": 271,
      "š": 272,
      "ū": 273,
      "ż": 274,
      "ž": 275,
      "Ɵ": 276,
      "ƽ": 277,
      "ǎ": 278,
      "ǐ": 279,
      "ǒ": 280,
      "ǔ": 281,
      "ț": 282,
      "ɐ": 283,
      "ɒ": 284,
      "ɔ": 285,
      "ə": 286,
      "ɡ": 287,
      "ɪ": 288,
      "ɯ": 289,
      "ɵ": 290,
      "ʁ": 291,
      "ʂ": 292,
      "ʃ": 293,
      "ʏ": 294,
      "ʐ": 295,
      "ʒ": 296,
      "ʲ": 297,
      "ʷ": 298,
      "ʻ": 299,
      "ʼ": 300,
      "ʿ": 301,
      "ˈ": 302,
      "ː": 303,
      "̀": 304,
      "́": 305,
      "̃": 306,
      "Ε": 307,
      "Ι": 308,
      "Υ": 309,
      "ά": 310,
      "έ": 311,
      "ή": 312,
      "ί": 313,
      "α": 314,
      "β": 315,
      "γ": 316,
      "δ": 317,
      "ε": 318,
      "ζ": 319,
      "η": 320,
      "θ": 321,
      "ι": 322,
      "κ": 323,
      "λ": 324,
      "μ": 325,
      "ν": 326,
      "ο": 327,
      "π": 328,
      "ρ": 329,
      "ς": 330,
      "σ": 331,
      "τ": 332,
      "υ": 333,
      "φ": 334,
      "χ": 335,
      "ω": 336,
      "ό": 337,
      "ύ": 338,
      "ϗ": 339,
      "Ё": 340,
      "Ѕ": 341,
      "І": 342,
      "Ї": 343,
      "Ј": 344,
      "А": 345,
      "Б": 346,
      "В": 347,
      "Г": 348,
      "Д": 349,
      "Е": 350,
      "Ж": 351,
      "З": 352,
      "И": 353,
      "Й": 354,
      "К": 355,
      "Л": 356,
      "М": 357,
      "Н": 358,
      "О": 359,
      "П": 360,
      "Р": 361,
      "С": 362,
      "Т": 363,
      "У": 364,
      "Ф": 365,
      "Х": 366,
      "Ц": 367,
      "Ч": 368,
      "Ш": 369,
      "Щ": 370,
      "Ъ": 371,
      "Ы": 372,
      "Ь": 373,
      "Э": 374,
      "Ю": 375,
      "Я": 376,
      "а": 377,
      "б": 378,
      "в": 379,
      "г": 380,
      "д": 381,
      "е": 382,
      "ж": 383,
      "з": 384,
      "и": 385,
      "й": 386,
      "к": 387,
      "л": 388,
      "м": 389,
      "н": 390,
      "о": 391,
      "п": 392,
      "р": 393,
      "с": 394,
      "т": 395,
      "у": 396,
      "ф": 397,
      "х": 398,
      "ц": 399,
      "ч": 400,
      "ш": 401,
      "щ": 402,
      "ъ": 403,
      "ы": 404,
      "ь": 405,
      "э": 406,
      "ю": 407,
      "я": 408,
      "ё": 409,
      "ђ": 410,
      "є": 411,
      "і": 412,
      "ї": 413,
      "ј": 414,
      "ћ": 415,
      "ў": 416,
      "Ѳ": 417,
      "ѳ": 418,
      "ҋ": 419,
      "Ґ": 420,
      "ґ": 421,
      "ғ": 422,
      "Ҕ": 423,
      "ҕ": 424,
      "ҙ": 425,
      "қ": 426,
      "ҡ": 427,
      "ң": 428,
      "Ҥ": 429,
      "ҥ": 430,
      "ҫ": 431,
      "Ү": 432,
      "ү": 433,
      "ұ": 434,
      "Һ": 435,
      "һ": 436,
      "ӄ": 437,
      "ӈ": 438,
      "ӊ": 439,
      "ӏ": 440,
      "ӑ": 441,
      "ӗ": 442,
      "ә": 443,
      "Ө": 444,
      "ө": 445,
      "Հ": 446,
      "ա": 447,
      "ե": 448,
      "ի": 449,
      "կ": 450,
      "հ": 451,
      "յ": 452,
      "ն": 453,
      "ո": 454,
      "ս": 455,
      "տ": 456,
      "ր": 457,
      "א": 458,
      "ב": 459,
      "ד": 460,
      "ה": 461,
      "ו": 462,
      "ח": 463,
      "י": 464,
      "ל": 465,
      "ם": 466,
      "מ": 467,
      "נ": 468,
      "ע": 469,
      "פ": 470,
      "צ": 471,
      "ק": 472,
      "ר": 473,
      "ש": 474,
      "ת": 475,
      "ء": 476,
      "أ": 477,
      "إ": 478,
      "ئ": 479,
      "ا": 480,
      "ب": 481,
      "ة": 482,
      "ت": 483,
      "ث": 484,
      "ج": 485,
      "ح": 486,
      "خ": 487,
      "د": 488,
      "ر": 489,
      "ز": 490,
      "س": 491,
      "ش": 492,
      "ص": 493,
      "ط": 494,
      "ع": 495,
      "غ": 496,
      "ف": 497,
      "ق": 498,
      "ك": 499,
      "ل": 500,
      "م": 501,
      "ن": 502,
      "ه": 503,
      "و": 504,
      "ى": 505,
      "ي": 506,
      "پ": 507,
      "چ": 508,
      "ڭ": 509,
      "ۇ": 510,
      "ی": 511,
      "ە": 512,
      "क": 513,
      "त": 514,
      "द": 515,
      "न": 516,
      "म": 517,
      "र": 518,
      "ह": 519,
      "ा": 520,
      "्": 521,
      "ব": 522,
      "র": 523,
      "া": 524,
      "்": 525,
      "ก": 526,
      "ง": 527,
      "ท": 528,
      "ภ": 529,
      "ร": 530,
      "ล": 531,
      "อ": 532,
      "า": 533,
      "เ": 534,
      "ະ": 535,
      "າ": 536,
      "ა": 537,
      "ე": 538,
      "ი": 539,
      "ო": 540,
      "ᐃ": 541,
      "ᠡ": 542,
      "ᠢ": 543,
      "ᠭ": 544,
      "ᠯ": 545,
      "ḥ": 546,
      "ṣ": 547,
      "ệ": 548,
      "ỉ": 549,
      "ị": 550,
      "ἐ": 551,
      "​": 552,
      "‍": 553,
      "‎": 554,
      "‒": 555,
      "–": 556,
      "—": 557,
      "―": 558,
      "’": 559,
      "“": 560,
      "”": 561,
      "„": 562,
      "•": 563,
      "…": 564,
      "‼": 565,
      "⁄": 566,
      "⃣": 567,
      "№": 568,
      "←": 569,
      "↑": 570,
      "→": 571,
      "↵": 572,
      "−": 573,
      "▀": 574,
      "▄": 575,
      "█": 576,
      "▌": 577,
      "░": 578,
      "▒": 579,
      "▓": 580,
      "▬": 581,
      "◤": 582,
      "◥": 583,
      "☀": 584,
      "☎": 585,
      "☕": 586,
      "☠": 587,
      "☹": 588,
      "☺": 589,
      "♀": 590,
      "♂": 591,
      "♥": 592,
      "⚾": 593,
      "✊": 594,
      "✋": 595,
      "✌": 596,
      "✨": 597,
      "❖": 598,
      "❤": 599,
      "、": 600,
      "。": 601,
      "《": 602,
      "》": 603,
      "あ": 604,
      "い": 605,
      "う": 606,
      "え": 607,
      "お": 608,
      "か": 609,
      "が": 610,
      "き": 611,
      "く": 612,
      "こ": 613,
      "ご": 614,
      "さ": 615,
      "ざ": 616,
      "し": 617,
      "す": 618,
      "せ": 619,
      "た": 620,
      "だ": 621,
      "ち": 622,
      "っ": 623,
      "つ": 624,
      "て": 625,
      "で": 626,
      "と": 627,
      "ど": 628,
      "な": 629,
      "に": 630,
      "ね": 631,
      "の": 632,
      "は": 633,
      "ば": 634,
      "ま": 635,
      "み": 636,
      "め": 637,
      "も": 638,
      "よ": 639,
      "ら": 640,
      "り": 641,
      "る": 642,
      "れ": 643,
      "ろ": 644,
      "を": 645,
      "ん": 646,
      "ア": 647,
      "ィ": 648,
      "イ": 649,
      "ウ": 650,
      "オ": 651,
      "カ": 652,
      "ガ": 653,
      "キ": 654,
      "ギ": 655,
      "ク": 656,
      "グ": 657,
      "ゲ": 658,
      "コ": 659,
      "ゴ": 660,
      "サ": 661,
      "シ": 662,
      "ジ": 663,
      "ス": 664,
      "ズ": 665,
      "タ": 666,
      "ダ": 667,
      "ッ": 668,
      "ツ": 669,
      "デ": 670,
      "ト": 671,
      "ド": 672,
      "ナ": 673,
      "ニ": 674,
      "バ": 675,
      "パ": 676,
      "ビ": 677,
      "ピ": 678,
      "フ": 679,
      "ブ": 680,
      "プ": 681,
      "ベ": 682,
      "ボ": 683,
      "ポ": 684,
      "マ": 685,
      "ミ": 686,
      "ム": 687,
      "メ": 688,
      "モ": 689,
      "ャ": 690,
      "ヤ": 691,
      "ュ": 692,
      "ョ": 693,
      "ラ": 694,
      "リ": 695,
      "ル": 696,
      "レ": 697,
      "ロ": 698,
      "ワ": 699,
      "ン": 700,
      "ー": 701,
      "一": 702,
      "万": 703,
      "三": 704,
      "上": 705,
      "下": 706,
      "不": 707,
      "东": 708,
      "中": 709,
      "丹": 710,
      "之": 711,
      "乐": 712,
      "了": 713,
      "京": 714,
      "人": 715,
      "以": 716,
      "会": 717,
      "何": 718,
      "你": 719,
      "保": 720,
      "元": 721,
      "光": 722,
      "公": 723,
      "円": 724,
      "分": 725,
      "加": 726,
      "化": 727,
      "北": 728,
      "区": 729,
      "华": 730,
      "南": 731,
      "古": 732,
      "台": 733,
      "合": 734,
      "同": 735,
      "名": 736,
      "吗": 737,
      "君": 738,
      "吾": 739,
      "哈": 740,
      "国": 741,
      "國": 742,
      "在": 743,
      "基": 744,
      "報": 745,
      "場": 746,
      "大": 747,
      "天": 748,
      "太": 749,
      "夫": 750,
      "女": 751,
      "好": 752,
      "子": 753,
      "字": 754,
      "学": 755,
      "安": 756,
      "家": 757,
      "寺": 758,
      "小": 759,
      "少": 760,
      "山": 761,
      "島": 762,
      "州": 763,
      "市": 764,
      "度": 765,
      "开": 766,
      "强": 767,
      "志": 768,
      "愛": 769,
      "我": 770,
      "手": 771,
      "打": 772,
      "払": 773,
      "放": 774,
      "文": 775,
      "新": 776,
      "方": 777,
      "族": 778,
      "无": 779,
      "日": 780,
      "明": 781,
      "春": 782,
      "是": 783,
      "普": 784,
      "景": 785,
      "有": 786,
      "木": 787,
      "本": 788,
      "来": 789,
      "東": 790,
      "校": 791,
      "歳": 792,
      "民": 793,
      "気": 794,
      "水": 795,
      "汉": 796,
      "江": 797,
      "河": 798,
      "海": 799,
      "減": 800,
      "漢": 801,
      "爾": 802,
      "物": 803,
      "理": 804,
      "生": 805,
      "疆": 806,
      "白": 807,
      "的": 808,
      "知": 809,
      "祖": 810,
      "神": 811,
      "私": 812,
      "穷": 813,
      "算": 814,
      "维": 815,
      "自": 816,
      "莘": 817,
      "華": 818,
      "行": 819,
      "西": 820,
      "訟": 821,
      "訴": 822,
      "話": 823,
      "語": 824,
      "话": 825,
      "语": 826,
      "赫": 827,
      "路": 828,
      "辉": 829,
      "返": 830,
      "通": 831,
      "過": 832,
      "道": 833,
      "還": 834,
      "都": 835,
      "酬": 836,
      "里": 837,
      "金": 838,
      "音": 839,
      "額": 840,
      "龍": 841,
      "가": 842,
      "과": 843,
      "국": 844,
      "기": 845,
      "나": 846,
      "니": 847,
      "다": 848,
      "대": 849,
      "로": 850,
      "리": 851,
      "말": 852,
      "사": 853,
      "산": 854,
      "서": 855,
      "선": 856,
      "세": 857,
      "어": 858,
      "요": 859,
      "우": 860,
      "으": 861,
      "은": 862,
      "을": 863,
      "이": 864,
      "일": 865,
      "조": 866,
      "하": 867,
      "한": 868,
      "화": 869,
      "": 870,
      "": 871,
      "": 872,
      "": 873,
      "️": 874,
      "﻿": 875,
      "🇸": 876,
      "🇺": 877,
      "🌙": 878,
      "🌚": 879,
      "🌞": 880,
      "🌟": 881,
      "🌲": 882,
      "🌴": 883,
      "🌹": 884,
      "🌺": 885,
      "🍃": 886,
      "🍖": 887,
      "🎂": 888,
      "🎃": 889,
      "🎈": 890,
      "🎉": 891,
      "🎊": 892,
      "🎤": 893,
      "🏀": 894,
      "🏻": 895,
      "🏼": 896,
      "🏽": 897,
      "🏾": 898,
      "🏿": 899,
      "🐌": 900,
      "🐝": 901,
      "🐣": 902,
      "🐧": 903,
      "👀": 904,
      "👉": 905,
      "👊": 906,
      "👋": 907,
      "👌": 908,
      "👍": 909,
      "👎": 910,
      "👏": 911,
      "👫": 912,
      "👻": 913,
      "💀": 914,
      "💁": 915,
      "💃": 916,
      "💅": 917,
      "💋": 918,
      "💐": 919,
      "💕": 920,
      "💖": 921,
      "💗": 922,
      "💘": 923,
      "💙": 924,
      "💛": 925,
      "💜": 926,
      "💞": 927,
      "💤": 928,
      "💨": 929,
      "💪": 930,
      "💯": 931,
      "💰": 932,
      "💵": 933,
      "💻": 934,
      "🔥": 935,
      "🔮": 936,
      "🖕": 937,
      "🗣": 938,
      "😀": 939,
      "😁": 940,
      "😂": 941,
      "😃": 942,
      "😄": 943,
      "😅": 944,
      "😆": 945,
      "😇": 946,
      "😈": 947,
      "😉": 948,
      "😊": 949,
      "😋": 950,
      "😌": 951,
      "😍": 952,
      "😎": 953,
      "😏": 954,
      "😐": 955,
      "😑": 956,
      "😒": 957,
      "😓": 958,
      "😔": 959,
      "😕": 960,
      "😖": 961,
      "😘": 962,
      "😚": 963,
      "😛": 964,
      "😜": 965,
      "😝": 966,
      "😞": 967,
      "😟": 968,
      "😠": 969,
      "😡": 970,
      "😢": 971,
      "😣": 972,
      "😤": 973,
      "😩": 974,
      "😪": 975,
      "😫": 976,
      "😬": 977,
      "😭": 978,
      "😯": 979,
      "😰": 980,
      "😱": 981,
      "😳": 982,
      "😴": 983,
      "😷": 984,
      "😹": 985,
      "😻": 986,
      "😼": 987,
      "🙁": 988,
      "🙂": 989,
      "🙃": 990,
      "🙄": 991,
      "🙆": 992,
      "🙈": 993,
      "🙋": 994,
      "🙌": 995,
      "🙏": 996,
      "🚨": 997,
      "🚩": 998,
      "🚮": 999,
      "🤑": 1000,
      "🤓": 1001,
      "🤔": 1002,
      "🤗": 1003,
      "🤘": 1004,
      "🤣": 1005,
      "🤦": 1006,
      "th": 1007,
      "ou": 1008,
      "in": 1009,
      "ар": 1010,
      "er": 1011,
      "на": 1012,
      "an": 1013,
      "то": 1014,
      "the": 1015,
      "at": 1016,
      "on": 1017,
      "та": 1018,
      "you": 1019,
      "ла": 1020,
      "it": 1021,
      "ll": 1022,
      "но": 1023,
      "re": 1024,
      "эр": 1025,
      "ст": 1026,
      "ол": 1027,
      "ни": 1028,
      "ка": 1029,
      "не": 1030,
      "ра": 1031,
      "he": 1032,
      "ing": 1033,
      "to": 1034,
      "ли": 1035,
      "me": 1036,
      "го": 1037,
      "ро": 1038,
      "ко": 1039,
      "ve": 1040,
      "is": 1041,
      "по": 1042,
      "or": 1043,
      "ит": 1044,
      "ал": 1045,
      "no": 1046,
      "бы": 1047,
      "as": 1048,
      "and": 1049,
      "ан": 1050,
      "во": 1051,
      "ты": 1052,
      "ин": 1053,
      "ea": 1054,
      "ре": 1055,
      "st": 1056,
      "ки": 1057,
      "se": 1058,
      "да": 1059,
      "go": 1060,
      "en": 1061,
      "он": 1062,
      "ha": 1063,
      "ри": 1064,
      "that": 1065,
      "эн": 1066,
      "ту": 1067,
      "бу": 1068,
      "ах": 1069,
      "ве": 1070,
      "ere": 1071,
      "ay": 1072,
      "ру": 1073,
      "ва": 1074,
      "es": 1075,
      "де": 1076,
      "те": 1077,
      "hat": 1078,
      "of": 1079,
      "ло": 1080,
      "gh": 1081,
      "be": 1082,
      "id": 1083,
      "ку": 1084,
      "le": 1085,
      "са": 1086,
      "do": 1087,
      "we": 1088,
      "ar": 1089,
      "ары": 1090,
      "ны": 1091,
      "до": 1092,
      "ke": 1093,
      "ме": 1094,
      "се": 1095,
      "ил": 1096,
      "██": 1097,
      "ть": 1098,
      "же": 1099,
      "за": 1100,
      "эт": 1101,
      "ut": 1102,
      "ди": 1103,
      "дь": 1104,
      "че": 1105,
      "ght": 1106,
      "eah": 1107,
      "ыл": 1108,
      "ся": 1109,
      "ба": 1110,
      "now": 1111,
      "ле": 1112,
      "ми": 1113,
      "мо": 1114,
      "all": 1115,
      "li": 1116,
      "ду": 1117,
      "et": 1118,
      "что": 1119,
      "со": 1120,
      "one": 1121,
      "ld": 1122,
      "so": 1123,
      "ма": 1124,
      "му": 1125,
      "өр": 1126,
      "ха": 1127,
      "ho": 1128,
      "ed": 1129,
      "lo": 1130,
      "оло": 1131,
      "nd": 1132,
      "сь": 1133,
      "хо": 1134,
      "ви": 1135,
      "ста": 1136,
      "ара": 1137,
      "ight": 1138,
      "ic": 1139,
      "was": 1140,
      "ro": 1141,
      "out": 1142,
      "al": 1143,
      "Yeah": 1144,
      "би": 1145,
      "co": 1146,
      "си": 1147,
      "ти": 1148,
      "know": 1149,
      "су": 1150,
      "ver": 1151,
      "have": 1152,
      "for": 1153,
      "they": 1154,
      "ac": 1155,
      "ль": 1156,
      "лу": 1157,
      "ыы": 1158,
      "от": 1159,
      "га": 1160,
      "вы": 1161,
      "про": 1162,
      "эл": 1163,
      "эх": 1164,
      "пе": 1165,
      "ну": 1166,
      "wi": 1167,
      "ly": 1168,
      "ell": 1169,
      "ча": 1170,
      "No": 1171,
      "ска": 1172,
      "You": 1173,
      "got": 1174,
      "нь": 1175,
      "бе": 1176,
      "ше": 1177,
      "don": 1178,
      "ust": 1179,
      "Oh": 1180,
      "һи": 1181,
      "кы": 1182,
      "what": 1183,
      "up": 1184,
      "here": 1185,
      "ad": 1186,
      "ab": 1187,
      "there": 1188,
      "ould": 1189,
      "thing": 1190,
      "she": 1191,
      "бо": 1192,
      "od": 1193,
      "get": 1194,
      "ch": 1195,
      "ir": 1196,
      "sa": 1197,
      "сто": 1198,
      "are": 1199,
      "can": 1200,
      "при": 1201,
      "████": 1202,
      "if": 1203,
      "not": 1204,
      "ҕа": 1205,
      "ne": 1206,
      "гэ": 1207,
      "like": 1208,
      "нан": 1209,
      "this": 1210,
      "ня": 1211,
      "эрэ": 1212,
      "из": 1213,
      "гар": 1214,
      "үл": 1215,
      "ры": 1216,
      "һа": 1217,
      "все": 1218,
      "ti": 1219,
      "тт": 1220,
      "my": 1221,
      "with": 1222,
      "чи": 1223,
      "your": 1224,
      "ant": 1225,
      "ink": 1226,
      "кэ": 1227,
      "ын": 1228,
      "үн": 1229,
      "but": 1230,
      "ир": 1231,
      "сп": 1232,
      "сыл": 1233,
      "ет": 1234,
      "What": 1235,
      "some": 1236,
      "его": 1237,
      "ok": 1238,
      "это": 1239,
      "буол": 1240,
      "ай": 1241,
      "It": 1242,
      "бит": 1243,
      "ля": 1244,
      "just": 1245,
      "тан": 1246,
      "im": 1247,
      "как": 1248,
      "ther": 1249,
      "тын": 1250,
      "Well": 1251,
      "did": 1252,
      "The": 1253,
      "гэр": 1254,
      "ши": 1255,
      "уон": 1256,
      "think": 1257,
      "ter": 1258,
      "раз": 1259,
      "об": 1260,
      "лы": 1261,
      "аа": 1262,
      "And": 1263,
      "лар": 1264,
      "ta": 1265,
      "right": 1266,
      "our": 1267,
      "ги": 1268,
      "уу": 1269,
      "мы": 1270,
      "нно": 1271,
      "any": 1272,
      "ще": 1273,
      "бэ": 1274,
      "said": 1275,
      "сти": 1276,
      "po": 1277,
      "ent": 1278,
      "эри": 1279,
      "сы": 1280,
      "гу": 1281,
      "ох": 1282,
      "us": 1283,
      "mo": 1284,
      "un": 1285,
      "way": 1286,
      "нэ": 1287,
      "ur": 1288,
      "ор": 1289,
      "want": 1290,
      "about": 1291,
      "уонна": 1292,
      "ally": 1293,
      "them": 1294,
      "say": 1295,
      "тү": 1296,
      "na": 1297,
      "ние": 1298,
      "чу": 1299,
      "then": 1300,
      "оль": 1301,
      "лю": 1302,
      "hen": 1303,
      "ear": 1304,
      "диэн": 1305,
      "tr": 1306,
      "тар": 1307,
      "лаах": 1308,
      "ить": 1309,
      "пре": 1310,
      "see": 1311,
      "That": 1312,
      "сть": 1313,
      "зна": 1314,
      "ag": 1315,
      "wn": 1316,
      "her": 1317,
      "well": 1318,
      "use": 1319,
      "ск": 1320,
      "ce": 1321,
      "ck": 1322,
      "сво": 1323,
      "pe": 1324,
      "һы": 1325,
      "am": 1326,
      "Mm": 1327,
      "ive": 1328,
      "па": 1329,
      "ack": 1330,
      "үр": 1331,
      "арын": 1332,
      "wo": 1333,
      "very": 1334,
      "ill": 1335,
      "ите": 1336,
      "ско": 1337,
      "вер": 1338,
      "He": 1339,
      "day": 1340,
      "him": 1341,
      "ния": 1342,
      "um": 1343,
      "had": 1344,
      "wor": 1345,
      "bo": 1346,
      "тэ": 1347,
      "гда": 1348,
      "үө": 1349,
      "sh": 1350,
      "она": 1351,
      "his": 1352,
      "yeah": 1353,
      "этэ": 1354,
      "це": 1355,
      "ca": 1356,
      "ря": 1357,
      "под": 1358,
      "ion": 1359,
      "mean": 1360,
      "жи": 1361,
      "ain": 1362,
      "гово": 1363,
      "һу": 1364,
      "ша": 1365,
      "кото": 1366,
      "oh": 1367,
      "сах": 1368,
      "when": 1369,
      "ound": 1370,
      "эти": 1371,
      "going": 1372,
      "ее": 1373,
      "пи": 1374,
      "луу": 1375,
      "Yes": 1376,
      "лэр": 1377,
      "од": 1378,
      "thou": 1379,
      "ri": 1380,
      "time": 1381,
      "ола": 1382,
      "эҕ": 1383,
      "үөр": 1384,
      "дру": 1385,
      "вал": 1386,
      "ple": 1387,
      "qu": 1388,
      "ды": 1389,
      "pl": 1390,
      "киһи": 1391,
      "ty": 1392,
      "так": 1393,
      "So": 1394,
      "fe": 1395,
      "would": 1396,
      "чч": 1397,
      "ци": 1398,
      "ас": 1399,
      "най": 1400,
      "come": 1401,
      "оҕ": 1402,
      "ный": 1403,
      "бил": 1404,
      "гы": 1405,
      "кө": 1406,
      "бү": 1407,
      "быт": 1408,
      "ind": 1409,
      "аны": 1410,
      "пу": 1411,
      "████████": 1412,
      "мне": 1413,
      "тэр": 1414,
      "ast": 1415,
      "ски": 1416,
      "ээх": 1417,
      "үү": 1418,
      "look": 1419,
      "But": 1420,
      "ей": 1421,
      "ком": 1422,
      "ry": 1423,
      "hy": 1424,
      "ine": 1425,
      "бар": 1426,
      "ma": 1427,
      "nt": 1428,
      "меня": 1429,
      "were": 1430,
      "наа": 1431,
      "ҕы": 1432,
      "el": 1433,
      "было": 1434,
      "көр": 1435,
      "йд": 1436,
      "ву": 1437,
      "down": 1438,
      "off": 1439,
      "ство": 1440,
      "ити": 1441,
      "pp": 1442,
      "back": 1443,
      "тта": 1444,
      "ge": 1445,
      "скай": 1446,
      "оҥ": 1447,
      "улуу": 1448,
      "кой": 1449,
      "We": 1450,
      "лаа": 1451,
      "put": 1452,
      "сле": 1453,
      "йа": 1454,
      "how": 1455,
      "жа": 1456,
      "ттан": 1457,
      "өл": 1458,
      "рия": 1459,
      "зал": 1460,
      "или": 1461,
      "ной": 1462,
      "ra": 1463,
      "ig": 1464,
      "didn": 1465,
      "rom": 1466,
      "could": 1467,
      "пере": 1468,
      "ice": 1469,
      "te": 1470,
      "был": 1471,
      "other": 1472,
      "пер": 1473,
      "пол": 1474,
      "good": 1475,
      "art": 1476,
      "ven": 1477,
      "per": 1478,
      "тыл": 1479,
      "il": 1480,
      "been": 1481,
      "рас": 1482,
      "su": 1483,
      "вич": 1484,
      "two": 1485,
      "ody": 1486,
      "onna": 1487,
      "лиэ": 1488,
      "ҥа": 1489,
      "went": 1490,
      "ong": 1491,
      "really": 1492,
      "ного": 1493,
      "end": 1494,
      "ээ": 1495,
      "ке": 1496,
      "саха": 1497,
      "гла": 1498,
      "king": 1499,
      "ев": 1500,
      "ep": 1501,
      "gonna": 1502,
      "дьон": 1503,
      "man": 1504,
      "нар": 1505,
      "нэһи": 1506,
      "төр": 1507,
      "fu": 1508,
      "ос": 1509,
      "эм": 1510,
      "ard": 1511,
      "дук": 1512,
      "сту": 1513,
      "сө": 1514,
      "ree": 1515,
      "им": 1516,
      "from": 1517,
      "пп": 1518,
      "fo": 1519,
      "ные": 1520,
      "ow": 1521,
      "лась": 1522,
      "They": 1523,
      "com": 1524,
      "биир": 1525,
      "нов": 1526,
      "их": 1527,
      "лько": 1528,
      "ца": 1529,
      "ге": 1530,
      "ус": 1531,
      "сте": 1532,
      "сир": 1533,
      "мал": 1534,
      "who": 1535,
      "ie": 1536,
      "ort": 1537,
      "рав": 1538,
      "ик": 1539,
      "itt": 1540,
      "ый": 1541,
      "ite": 1542,
      "where": 1543,
      "ick": 1544,
      "She": 1545,
      "том": 1546,
      "ct": 1547,
      "шь": 1548,
      "хан": 1549,
      "cause": 1550,
      "und": 1551,
      "lf": 1552,
      "оро": 1553,
      "тэн": 1554,
      "ex": 1555,
      "does": 1556,
      "red": 1557,
      "pro": 1558,
      "эй": 1559,
      "ate": 1560,
      "ему": 1561,
      "ана": 1562,
      "con": 1563,
      "нэһилиэ": 1564,
      "стар": 1565,
      "только": 1566,
      "бары": 1567,
      "гра": 1568,
      "Co": 1569,
      "лись": 1570,
      "ем": 1571,
      "will": 1572,
      "уо": 1573,
      "тыы": 1574,
      "бя": 1575,
      "дела": 1576,
      "бэй": 1577,
      "этин": 1578,
      "тах": 1579,
      "bit": 1580,
      "өө": 1581,
      "de": 1582,
      "ber": 1583,
      "cos": 1584,
      "something": 1585,
      "ков": 1586,
      "tell": 1587,
      "ess": 1588,
      "act": 1589,
      "спо": 1590,
      "тре": 1591,
      "дой": 1592,
      "sp": 1593,
      "кур": 1594,
      "вши": 1595,
      "күн": 1596,
      "Он": 1597,
      "кате": 1598,
      "Do": 1599,
      "зы": 1600,
      "ак": 1601,
      "ник": 1602,
      "yes": 1603,
      "дол": 1604,
      "ist": 1605,
      "only": 1606,
      "over": 1607,
      "more": 1608,
      "эрин": 1609,
      "жно": 1610,
      "тал": 1611,
      "si": 1612,
      "На": 1613,
      "тыгар": 1614,
      "гория": 1615,
      "сты": 1616,
      "ным": 1617,
      "лове": 1618,
      "категория": 1619,
      "олох": 1620,
      "били": 1621,
      "үлэ": 1622,
      "итель": 1623,
      "ked": 1624,
      "стра": 1625,
      "санаа": 1626,
      "сылдь": 1627,
      "когда": 1628,
      "сил": 1629,
      "take": 1630,
      "кини": 1631,
      "ун": 1632,
      "сли": 1633,
      "mu": 1634,
      "иһ": 1635,
      "вать": 1636,
      "воз": 1637,
      "лся": 1638,
      "стве": 1639,
      "ных": 1640,
      "сло": 1641,
      "by": 1642,
      "уже": 1643,
      "won": 1644,
      "слу": 1645,
      "every": 1646,
      "голо": 1647,
      "ттар": 1648,
      "чем": 1649,
      "чал": 1650,
      "еще": 1651,
      "тон": 1652,
      "которы": 1653,
      "дал": 1654,
      "thought": 1655,
      "По": 1656,
      "ble": 1657,
      "ough": 1658,
      "ная": 1659,
      "ҥэ": 1660,
      "челове": 1661,
      "вз": 1662,
      "жал": 1663,
      "ют": 1664,
      "лары": 1665,
      "ий": 1666,
      "Но": 1667,
      "эбит": 1668,
      "af": 1669,
      "ней": 1670,
      "таах": 1671,
      "let": 1672,
      "than": 1673,
      "ide": 1674,
      "чего": 1675,
      "ittle": 1676,
      "body": 1677,
      "буола": 1678,
      "ople": 1679,
      "ину": 1680,
      "дя": 1681,
      "Не": 1682,
      "sc": 1683,
      "Go": 1684,
      "ное": 1685,
      "erm": 1686,
      "ров": 1687,
      "таа": 1688,
      "la": 1689,
      "ран": 1690,
      "суох": 1691,
      "wh": 1692,
      "гин": 1693,
      "сказал": 1694,
      "него": 1695,
      "мя": 1696,
      "ation": 1697,
      "дет": 1698,
      "little": 1699,
      "говори": 1700,
      "бут": 1701,
      "because": 1702,
      "much": 1703,
      "ol": 1704,
      "mm": 1705,
      "үгэр": 1706,
      "ой": 1707,
      "ер": 1708,
      "Er": 1709,
      "фи": 1710,
      "суру": 1711,
      "people": 1712,
      "never": 1713,
      "ting": 1714,
      "should": 1715,
      "курдук": 1716,
      "вая": 1717,
      "ous": 1718,
      "ман": 1719,
      "ers": 1720,
      "сс": 1721,
      "three": 1722,
      "лан": 1723,
      "жет": 1724,
      "tal": 1725,
      "wee": 1726,
      "ul": 1727,
      "дар": 1728,
      "res": 1729,
      "боль": 1730,
      "mor": 1731,
      "How": 1732,
      "has": 1733,
      "дойду": 1734,
      "che": 1735,
      "бэт": 1736,
      "need": 1737,
      "тя": 1738,
      "car": 1739,
      "гля": 1740,
      "bet": 1741,
      "doing": 1742,
      "lot": 1743,
      "give": 1744,
      "кэл": 1745,
      "love": 1746,
      "Th": 1747,
      "Is": 1748,
      "ут": 1749,
      "There": 1750,
      "work": 1751,
      "ving": 1752,
      "ился": 1753,
      "чно": 1754,
      "была": 1755,
      "gu": 1756,
      "говор": 1757,
      "Да": 1758,
      "ула": 1759,
      "тынан": 1760,
      "нии": 1761,
      "too": 1762,
      "тель": 1763,
      "year": 1764,
      "сан": 1765,
      "ning": 1766,
      "bu": 1767,
      "пред": 1768,
      "кон": 1769,
      "оста": 1770,
      "дьи": 1771,
      "ace": 1772,
      "тор": 1773,
      "нее": 1774,
      "сме": 1775,
      "сыллаах": 1776,
      "для": 1777,
      "уч": 1778,
      "итэ": 1779,
      "нэһилиэгэ": 1780,
      "перь": 1781,
      "ave": 1782,
      "ять": 1783,
      "make": 1784,
      "хай": 1785,
      "үгэ": 1786,
      "int": 1787,
      "дэ": 1788,
      "br": 1789,
      "вре": 1790,
      "week": 1791,
      "сэ": 1792,
      "read": 1793,
      "шел": 1794,
      "скэ": 1795,
      "тө": 1796,
      "ever": 1797,
      "друг": 1798,
      "һыы": 1799,
      "ур": 1800,
      "om": 1801,
      "ылар": 1802,
      "Why": 1803,
      "ок": 1804,
      "ase": 1805,
      "мол": 1806,
      "ыт": 1807,
      "ment": 1808,
      "night": 1809,
      "быть": 1810,
      "ора": 1811,
      "har": 1812,
      "ose": 1813,
      "жен": 1814,
      "өй": 1815,
      "Right": 1816,
      "смо": 1817,
      "вой": 1818,
      "үк": 1819,
      "ору": 1820,
      "вс": 1821,
      "сказа": 1822,
      "why": 1823,
      "быһа": 1824,
      "киир": 1825,
      "без": 1826,
      "these": 1827,
      "again": 1828,
      "оҕо": 1829,
      "five": 1830,
      "isn": 1831,
      "fore": 1832,
      "инэ": 1833,
      "ny": 1834,
      "того": 1835,
      "four": 1836,
      "ich": 1837,
      "blo": 1838,
      "ом": 1839,
      "done": 1840,
      "sto": 1841,
      "стоя": 1842,
      "алар": 1843,
      "икки": 1844,
      "кка": 1845,
      "оче": 1846,
      "ход": 1847,
      "эргэ": 1848,
      "бли": 1849,
      "сыллаахха": 1850,
      "ция": 1851,
      "которо": 1852,
      "Don": 1853,
      "ish": 1854,
      "бол": 1855,
      "ез": 1856,
      "сер": 1857,
      "last": 1858,
      "оп": 1859,
      "щи": 1860,
      "new": 1861,
      "sort": 1862,
      "ps": 1863,
      "стро": 1864,
      "тун": 1865,
      "лай": 1866,
      "try": 1867,
      "оно": 1868,
      "ется": 1869,
      "кэм": 1870,
      "nice": 1871,
      "row": 1872,
      "нет": 1873,
      "баар": 1874,
      "саа": 1875,
      "тур": 1876,
      "haven": 1877,
      "улахан": 1878,
      "тэрэ": 1879,
      "буолар": 1880,
      "дно": 1881,
      "бүл": 1882,
      "эми": 1883,
      "call": 1884,
      "лара": 1885,
      "эҕэ": 1886,
      "итин": 1887,
      "даже": 1888,
      "тем": 1889,
      "теперь": 1890,
      "они": 1891,
      "ob": 1892,
      "нима": 1893,
      "ум": 1894,
      "If": 1895,
      "ually": 1896,
      "лось": 1897,
      "gr": 1898,
      "min": 1899,
      "████████████████": 1900,
      "old": 1901,
      "ини": 1902,
      "сла": 1903,
      "себя": 1904,
      "ллар": 1905,
      "sho": 1906,
      "вет": 1907,
      "тому": 1908,
      "ам": 1909,
      "long": 1910,
      "дей": 1911,
      "тер": 1912,
      "oney": 1913,
      "дов": 1914,
      "irst": 1915,
      "ться": 1916,
      "ща": 1917,
      "says": 1918,
      "ang": 1919,
      "bab": 1920,
      "fa": 1921,
      "баран": 1922,
      "само": 1923,
      "зи": 1924,
      "кра": 1925,
      "ччы": 1926,
      "уж": 1927,
      "still": 1928,
      "self": 1929,
      "уру": 1930,
      "тут": 1931,
      "six": 1932,
      "ank": 1933,
      "ья": 1934,
      "улууһа": 1935,
      "est": 1936,
      "big": 1937,
      "айы": 1938,
      "even": 1939,
      "бра": 1940,
      "име": 1941,
      "ten": 1942,
      "things": 1943,
      "ис": 1944,
      "чув": 1945,
      "нул": 1946,
      "happ": 1947,
      "куола": 1948,
      "ский": 1949,
      "Ch": 1950,
      "pa": 1951,
      "став": 1952,
      "ure": 1953,
      "ru": 1954,
      "быта": 1955,
      "сөп": 1956,
      "ways": 1957,
      "fuck": 1958,
      "жде": 1959,
      "ону": 1960,
      "age": 1961,
      "ним": 1962,
      "жиз": 1963,
      "лек": 1964,
      "прав": 1965,
      "Ни": 1966,
      "һун": 1967,
      "бэх": 1968,
      "pen": 1969,
      "pr": 1970,
      "тара": 1971,
      "those": 1972,
      "ний": 1973,
      "lea": 1974,
      "might": 1975,
      "аҕа": 1976,
      "аль": 1977,
      "ари": 1978,
      "mber": 1979,
      "ылы": 1980,
      "ттара": 1981,
      "ства": 1982,
      "before": 1983,
      "after": 1984,
      "alright": 1985,
      "Ah": 1986,
      "вот": 1987,
      "ов": 1988,
      "Where": 1989,
      "нык": 1990,
      "anything": 1991,
      "тары": 1992,
      "sed": 1993,
      "буолла": 1994,
      "чы": 1995,
      "Ан": 1996,
      "олор": 1997,
      "Who": 1998,
      "into": 1999,
      "һын": 2000,
      "sup": 2001,
      "ким": 2002,
      "сү": 2003,
      "виде": 2004,
      "Did": 2005,
      "ура": 2006,
      "ном": 2007,
      "wr": 2008,
      "спу": 2009,
      "после": 2010,
      "хал": 2011,
      "wat": 2012,
      "элбэх": 2013,
      "бүт": 2014,
      "doesn": 2015,
      "This": 2016,
      "must": 2017,
      "able": 2018,
      "ff": 2019,
      "шу": 2020,
      "хоро": 2021,
      "ass": 2022,
      "ouse": 2023,
      "ph": 2024,
      "their": 2025,
      "pre": 2026,
      "кол": 2027,
      "ord": 2028,
      "аха": 2029,
      "wenty": 2030,
      "Lo": 2031,
      "first": 2032,
      "наах": 2033,
      "money": 2034,
      "play": 2035,
      "иттэн": 2036,
      "кого": 2037,
      "фе": 2038,
      "мой": 2039,
      "round": 2040,
      "эллэр": 2041,
      "home": 2042,
      "буолан": 2043,
      "used": 2044,
      "wa": 2045,
      "олько": 2046,
      "тов": 2047,
      "ue": 2048,
      "вол": 2049,
      "арыы": 2050,
      "ав": 2051,
      "мэ": 2052,
      "очень": 2053,
      "tion": 2054,
      "ную": 2055,
      "кыра": 2056,
      "dr": 2057,
      "wouldn": 2058,
      "үс": 2059,
      "өйд": 2060,
      "кытта": 2061,
      "though": 2062,
      "ром": 2063,
      "ньы": 2064,
      "start": 2065,
      "side": 2066,
      "лиц": 2067,
      "cou": 2068,
      "нем": 2069,
      "баста": 2070,
      "три": 2071,
      "үй": 2072,
      "доро": 2073,
      "дер": 2074,
      "bl": 2075,
      "эрд": 2076,
      "есть": 2077,
      "үрд": 2078,
      "Ол": 2079,
      "ось": 2080,
      "di": 2081,
      "дума": 2082,
      "вас": 2083,
      "ят": 2084,
      "стре": 2085,
      "always": 2086,
      "чтобы": 2087,
      "төрөө": 2088,
      "sure": 2089,
      "better": 2090,
      "лин": 2091,
      "wer": 2092,
      "зя": 2093,
      "mon": 2094,
      "бро": 2095,
      "бле": 2096,
      "һан": 2097,
      "ҕан": 2098,
      "чер": 2099,
      "вдруг": 2100,
      "эк": 2101,
      "аллар": 2102,
      "чүгэ": 2103,
      "ому": 2104,
      "айыы": 2105,
      "оҥоро": 2106,
      "всем": 2107,
      "ade": 2108,
      "кое": 2109,
      "member": 2110,
      "олоро": 2111,
      "оон": 2112,
      "house": 2113,
      "keep": 2114,
      "ясь": 2115,
      "бат": 2116,
      "пла": 2117,
      "может": 2118,
      "сол": 2119,
      "шка": 2120,
      "ат": 2121,
      "quite": 2122,
      "чүгэй": 2123,
      "оскуола": 2124,
      "рез": 2125,
      "Just": 2126,
      "эмиэ": 2127,
      "Бу": 2128,
      "ыры": 2129,
      "stu": 2130,
      "себе": 2131,
      "Not": 2132,
      "кэн": 2133,
      "clo": 2134,
      "арыгар": 2135,
      "Дь": 2136,
      "ларын": 2137,
      "өн": 2138,
      "нием": 2139,
      "чь": 2140,
      "мог": 2141,
      "были": 2142,
      "лов": 2143,
      "үнэн": 2144,
      "үтт": 2145,
      "Be": 2146,
      "суруй": 2147,
      "urn": 2148,
      "вя": 2149,
      "ммы": 2150,
      "ot": 2151,
      "куу": 2152,
      "son": 2153,
      "away": 2154,
      "undred": 2155,
      "poly": 2156,
      "үчүгэй": 2157,
      "мер": 2158,
      "кня": 2159,
      "Are": 2160,
      "кто": 2161,
      "goes": 2162,
      "той": 2163,
      "Can": 2164,
      "mat": 2165,
      "дом": 2166,
      "ете": 2167,
      "lie": 2168,
      "атын": 2169,
      "дан": 2170,
      "rough": 2171,
      "всё": 2172,
      "говорил": 2173,
      "час": 2174,
      "аҕы": 2175,
      "если": 2176,
      "куора": 2177,
      "mar": 2178,
      "үҥ": 2179,
      "fer": 2180,
      "эһ": 2181,
      "ile": 2182,
      "orry": 2183,
      "туту": 2184,
      "Это": 2185,
      "Ну": 2186,
      "sit": 2187,
      "gre": 2188,
      "яку": 2189,
      "вам": 2190,
      "эригэр": 2191,
      "хам": 2192,
      "ительно": 2193,
      "инэн": 2194,
      "коне": 2195,
      "сал": 2196,
      "under": 2197,
      "cl": 2198,
      "ыыр": 2199,
      "hundred": 2200,
      "Mr": 2201,
      "будь": 2202,
      "кри": 2203,
      "туру": 2204,
      "coming": 2205,
      "глаза": 2206,
      "кре": 2207,
      "mum": 2208,
      "ье": 2209,
      "горо": 2210,
      "обра": 2211,
      "find": 2212,
      "нас": 2213,
      "вали": 2214,
      "rect": 2215,
      "ought": 2216,
      "над": 2217,
      "күү": 2218,
      "room": 2219,
      "вно": 2220,
      "kes": 2221,
      "быра": 2222,
      "үлэл": 2223,
      "үтү": 2224,
      "сам": 2225,
      "ton": 2226,
      "человек": 2227,
      "тык": 2228,
      "көм": 2229,
      "getting": 2230,
      "жу": 2231,
      "told": 2232,
      "каза": 2233,
      "pound": 2234,
      "xt": 2235,
      "Саха": 2236,
      "em": 2237,
      "half": 2238,
      "ника": 2239,
      "bably": 2240,
      "день": 2241,
      "name": 2242,
      "тура": 2243,
      "feel": 2244,
      "eight": 2245,
      "Mar": 2246,
      "Что": 2247,
      "быһыы": 2248,
      "happen": 2249,
      "minut": 2250,
      "stand": 2251,
      "ci": 2252,
      "twenty": 2253,
      "них": 2254,
      "ничего": 2255,
      "gotta": 2256,
      "another": 2257,
      "actually": 2258,
      "ft": 2259,
      "битэ": 2260,
      "sha": 2261,
      "кий": 2262,
      "время": 2263,
      "ен": 2264,
      "сай": 2265,
      "нова": 2266,
      "Now": 2267,
      "inn": 2268,
      "wasn": 2269,
      "гор": 2270,
      "кие": 2271,
      "друго": 2272,
      "туһу": 2273,
      "dea": 2274,
      "Al": 2275,
      "поло": 2276,
      "iss": 2277,
      "кая": 2278,
      "бө": 2279,
      "лаан": 2280,
      "dy": 2281,
      "бла": 2282,
      "cour": 2283,
      "Ка": 2284,
      "лас": 2285,
      "сана": 2286,
      "gir": 2287,
      "сыы": 2288,
      "ского": 2289,
      "көрд": 2290,
      "тот": 2291,
      "par": 2292,
      "поч": 2293,
      "through": 2294,
      "remember": 2295,
      "нору": 2296,
      "ss": 2297,
      "кар": 2298,
      "which": 2299,
      "дре": 2300,
      "ance": 2301,
      "күнүгэр": 2302,
      "ee": 2303,
      "заме": 2304,
      "туох": 2305,
      "Chr": 2306,
      "morning": 2307,
      "пра": 2308,
      "перед": 2309,
      "ap": 2310,
      "hand": 2311,
      "ными": 2312,
      "fin": 2313,
      "потому": 2314,
      "бур": 2315,
      "ходи": 2316,
      "тив": 2317,
      "нибудь": 2318,
      "suppo": 2319,
      "God": 2320,
      "In": 2321,
      "хар": 2322,
      "Она": 2323,
      "ист": 2324,
      "иться": 2325,
      "ng": 2326,
      "олохто": 2327,
      "ҕар": 2328,
      "алыы": 2329,
      "дии": 2330,
      "20": 2331,
      "вый": 2332,
      "dad": 2333,
      "сколько": 2334,
      "пле": 2335,
      "Cos": 2336,
      "men": 2337,
      "этого": 2338,
      "mind": 2339,
      "uck": 2340,
      "ity": 2341,
      "ван": 2342,
      "май": 2343,
      "ской": 2344,
      "иһи": 2345,
      "аан": 2346,
      "тол": 2347,
      "ise": 2348,
      "years": 2349,
      "ыра": 2350,
      "ствен": 2351,
      "цу": 2352,
      "лэ": 2353,
      "19": 2354,
      "hel": 2355,
      "ата": 2356,
      "Have": 2357,
      "дьы": 2358,
      "ies": 2359,
      "gone": 2360,
      "дах": 2361,
      "else": 2362,
      "ины": 2363,
      "хэ": 2364,
      "пы": 2365,
      "бын": 2366,
      "хара": 2367,
      "der": 2368,
      "шего": 2369,
      "dif": 2370,
      "сдела": 2371,
      "next": 2372,
      "нин": 2373,
      "суол": 2374,
      "ственно": 2375,
      "сайд": 2376,
      "гэн": 2377,
      "олоҕ": 2378,
      "bad": 2379,
      "вся": 2380,
      "anyway": 2381,
      "live": 2382,
      "исто": 2383,
      "ild": 2384,
      "стал": 2385,
      "там": 2386,
      "girl": 2387,
      "II": 2388,
      "Ok": 2389,
      "кэп": 2390,
      "гру": 2391,
      "сүр": 2392,
      "окуу": 2393,
      "may": 2394,
      "same": 2395,
      "сторо": 2396,
      "мен": 2397,
      "Look": 2398,
      "дьа": 2399,
      "окуускай": 2400,
      "зь": 2401,
      "вели": 2402,
      "Алек": 2403,
      "былы": 2404,
      "два": 2405,
      "Come": 2406,
      "Пет": 2407,
      "сити": 2408,
      "came": 2409,
      "мит": 2410,
      "үт": 2411,
      "отве": 2412,
      "илэр": 2413,
      "bed": 2414,
      "riend": 2415,
      "мин": 2416,
      "олус": 2417,
      "өрө": 2418,
      "сия": 2419,
      "pay": 2420,
      "ye": 2421,
      "тра": 2422,
      "nothing": 2423,
      "talk": 2424,
      "boy": 2425,
      "today": 2426,
      "эхэ": 2427,
      "fif": 2428,
      "аһы": 2429,
      "куһа": 2430,
      "алы": 2431,
      "сов": 2432,
      "стви": 2433,
      "rea": 2434,
      "надо": 2435,
      "ans": 2436,
      "ющ": 2437,
      "казал": 2438,
      "saying": 2439,
      "глу": 2440,
      "ук": 2441,
      "run": 2442,
      "вле": 2443,
      "bloody": 2444,
      "эхтэ": 2445,
      "tea": 2446,
      "head": 2447,
      "будет": 2448,
      "Okay": 2449,
      "probably": 2450,
      "цы": 2451,
      "ску": 2452,
      "бүтт": 2453,
      "dis": 2454,
      "нам": 2455,
      "tor": 2456,
      "где": 2457,
      "спа": 2458,
      "ству": 2459,
      "опять": 2460,
      "саҕа": 2461,
      "всех": 2462,
      "тик": 2463,
      "My": 2464,
      "түм": 2465,
      "нэр": 2466,
      "можно": 2467,
      "ful": 2468,
      "ah": 2469,
      "смотре": 2470,
      "When": 2471,
      "спро": 2472,
      "шо": 2473,
      "холо": 2474,
      "ket": 2475,
      "Вы": 2476,
      "turn": 2477,
      "hool": 2478,
      "вала": 2479,
      "хоте": 2480,
      "ху": 2481,
      "тугу": 2482,
      "тэри": 2483,
      "бута": 2484,
      "мину": 2485,
      "wal": 2486,
      "place": 2487,
      "лет": 2488,
      "ками": 2489,
      "hell": 2490,
      "слы": 2491,
      "ыйын": 2492,
      "seven": 2493,
      "ence": 2494,
      "этигэр": 2495,
      "чувство": 2496,
      "моло": 2497,
      "рун": 2498,
      "тебя": 2499,
      "образ": 2500,
      "Нико": 2501,
      "ргы": 2502,
      "кро": 2503,
      "чет": 2504,
      "ary": 2505,
      "бой": 2506,
      "ser": 2507,
      "толо": 2508,
      "пр": 2509,
      "уй": 2510,
      "anna": 2511,
      "элэр": 2512,
      "шей": 2513,
      "fucking": 2514,
      "дело": 2515,
      "бастакы": 2516,
      "school": 2517,
      "быы": 2518,
      "leave": 2519,
      "course": 2520,
      "хи": 2521,
      "lly": 2522,
      "seen": 2523,
      "тэрил": 2524,
      "friend": 2525,
      "couldn": 2526,
      "сун": 2527,
      "enough": 2528,
      "ones": 2529,
      "пор": 2530,
      "жда": 2531,
      "ready": 2532,
      "үүр": 2533,
      "made": 2534,
      "around": 2535,
      "таҥ": 2536,
      "Ко": 2537,
      "этэр": 2538,
      "ҕына": 2539,
      "ious": 2540,
      "eat": 2541,
      "биэр": 2542,
      "яс": 2543,
      "bro": 2544,
      "исп": 2545,
      "которые": 2546,
      "ange": 2547,
      "энэ": 2548,
      "many": 2549,
      "тиий": 2550,
      "own": 2551,
      "help": 2552,
      "туһунан": 2553,
      "thir": 2554,
      "wait": 2555,
      "жду": 2556,
      "омук": 2557,
      "ҕаны": 2558,
      "rid": 2559,
      "крас": 2560,
      "ордук": 2561,
      "everything": 2562,
      "сча": 2563,
      "ms": 2564,
      "left": 2565,
      "hour": 2566,
      "top": 2567,
      "ame": 2568,
      "обе": 2569,
      "сар": 2570,
      "тебе": 2571,
      "ip": 2572,
      "дро": 2573,
      "kill": 2574,
      "teen": 2575,
      "саҥа": 2576,
      "talking": 2577,
      "эҕи": 2578,
      "тру": 2579,
      "buy": 2580,
      "pu": 2581,
      "bus": 2582,
      "тил": 2583,
      "иһин": 2584,
      "times": 2585,
      "гын": 2586,
      "үһ": 2587,
      "Ива": 2588,
      "бэр": 2589,
      "потом": 2590,
      "мах": 2591,
      "ешь": 2592,
      "чай": 2593,
      "door": 2594,
      "биһи": 2595,
      "лии": 2596,
      "буд": 2597,
      "улары": 2598,
      "этот": 2599,
      "To": 2600,
      "эҥ": 2601,
      "Good": 2602,
      "ҥы": 2603,
      "mas": 2604,
      "hear": 2605,
      "стаах": 2606,
      "стан": 2607,
      "спе": 2608,
      "эххэ": 2609,
      "less": 2610,
      "вра": 2611,
      "араас": 2612,
      "aren": 2613,
      "тарын": 2614,
      "All": 2615,
      "please": 2616,
      "биллэр": 2617,
      "кры": 2618,
      "обще": 2619,
      "све": 2620,
      "ала": 2621,
      "sand": 2622,
      "Ве": 2623,
      "being": 2624,
      "бэл": 2625,
      "серд": 2626,
      "сэри": 2627,
      "өс": 2628,
      "differ": 2629,
      "ыллы": 2630,
      "пар": 2631,
      "эст": 2632,
      "один": 2633,
      "hard": 2634,
      "улы": 2635,
      "мир": 2636,
      "hi": 2637,
      "всегда": 2638,
      "ится": 2639,
      "phone": 2640,
      "подо": 2641,
      "орто": 2642,
      "сей": 2643,
      "уме": 2644,
      "эбэт": 2645,
      "its": 2646,
      "начал": 2647,
      "За": 2648,
      "конец": 2649,
      "St": 2650,
      "тоже": 2651,
      "даах": 2652,
      "ведь": 2653,
      "сирин": 2654,
      "Мо": 2655,
      "Ooh": 2656,
      "guy": 2657,
      "Ми": 2658,
      "pt": 2659,
      "түһ": 2660,
      "аһ": 2661,
      "дра": 2662,
      "нове": 2663,
      "кин": 2664,
      "ллу": 2665,
      "Thank": 2666,
      "wanna": 2667,
      "совер": 2668,
      "okay": 2669,
      "life": 2670,
      "своей": 2671,
      "осо": 2672,
      "fun": 2673,
      "думал": 2674,
      "ask": 2675,
      "салай": 2676,
      "стью": 2677,
      "тогда": 2678,
      "having": 2679,
      "бэли": 2680,
      "тым": 2681,
      "job": 2682,
      "хол": 2683,
      "тох": 2684,
      "wanted": 2685,
      "тугар": 2686,
      "комна": 2687,
      "вшись": 2688,
      "nine": 2689,
      "зем": 2690,
      "этии": 2691,
      "более": 2692,
      "вар": 2693,
      "morrow": 2694,
      "yet": 2695,
      "light": 2696,
      "который": 2697,
      "тай": 2698,
      "hed": 2699,
      "уох": 2700,
      "луч": 2701,
      "Let": 2702,
      "Как": 2703,
      "этом": 2704,
      "ред": 2705,
      "ааччы": 2706,
      "билигин": 2707,
      "stuff": 2708,
      "kid": 2709,
      "кру": 2710,
      "От": 2711,
      "знаю": 2712,
      "бүттэр": 2713,
      "ҕын": 2714,
      "sorry": 2715,
      "дэр": 2716,
      "ких": 2717,
      "дво": 2718,
      "стара": 2719,
      "сили": 2720,
      "өлө": 2721,
      "win": 2722,
      "Ку": 2723,
      "Бо": 2724,
      "tain": 2725,
      "таһы": 2726,
      "gg": 2727,
      "сахалар": 2728,
      "Та": 2729,
      "Ты": 2730,
      "point": 2731,
      "ттэн": 2732,
      "шал": 2733,
      "нович": 2734,
      "чэ": 2735,
      "шла": 2736,
      "чала": 2737,
      "Вот": 2738,
      "эбэтэр": 2739,
      "тера": 2740,
      "пря": 2741,
      "онтон": 2742,
      "isten": 2743,
      "ike": 2744,
      "ню": 2745,
      "иллэр": 2746,
      "сказать": 2747,
      "show": 2748,
      "зе": 2749,
      "жизни": 2750,
      "нээх": 2751,
      "өтт": 2752,
      "бин": 2753,
      "баҕа": 2754,
      "ks": 2755,
      "part": 2756,
      "air": 2757,
      "looking": 2758,
      "stay": 2759,
      "тылы": 2760,
      "word": 2761,
      "сказала": 2762,
      "Some": 2763,
      "Про": 2764,
      "set": 2765,
      "сылдьар": 2766,
      "свою": 2767,
      "мни": 2768,
      "most": 2769,
      "тия": 2770,
      "app": 2771,
      "бала": 2772,
      "нию": 2773,
      "много": 2774,
      "буду": 2775,
      "rec": 2776,
      "чик": 2777,
      "watch": 2778,
      "ности": 2779,
      "дня": 2780,
      "les": 2781,
      "жение": 2782,
      "ыллар": 2783,
      "кор": 2784,
      "кил": 2785,
      "dear": 2786,
      "ств": 2787,
      "тво": 2788,
      "wrong": 2789,
      "lat": 2790,
      "book": 2791,
      "рус": 2792,
      "йы": 2793,
      "свои": 2794,
      "Ro": 2795,
      "взгля": 2796,
      "ческай": 2797,
      "поз": 2798,
      "belie": 2799,
      "больше": 2800,
      "будто": 2801,
      "ньу": 2802,
      "hair": 2803,
      "av": 2804,
      "Christ": 2805,
      "туһа": 2806,
      "care": 2807,
      "пов": 2808,
      "ҥалас": 2809,
      "fi": 2810,
      "изве": 2811,
      "тро": 2812,
      "ээн": 2813,
      "ьи": 2814,
      "буолуу": 2815,
      "евич": 2816,
      "tomorrow": 2817,
      "мун": 2818,
      "sm": 2819,
      "au": 2820,
      "йан": 2821,
      "ya": 2822,
      "ze": 2823,
      "lad": 2824,
      "Все": 2825,
      "jo": 2826,
      "Mum": 2827,
      "якут": 2828,
      "On": 2829,
      "ныы": 2830,
      "зах": 2831,
      "ская": 2832,
      "lve": 2833,
      "одна": 2834,
      "ҕо": 2835,
      "онно": 2836,
      "үөһ": 2837,
      "cho": 2838,
      "спубли": 2839,
      "үг": 2840,
      "жизнь": 2841,
      "shit": 2842,
      "зан": 2843,
      "оҥор": 2844,
      "продол": 2845,
      "жела": 2846,
      "ress": 2847,
      "слова": 2848,
      "mer": 2849,
      "фран": 2850,
      "доволь": 2851,
      "cut": 2852,
      "зо": 2853,
      "чита": 2854,
      "ren": 2855,
      "saw": 2856,
      "кан": 2857,
      "Са": 2858,
      "Sh": 2859,
      "дел": 2860,
      "эмэ": 2861,
      "зде": 2862,
      "ень": 2863,
      "ники": 2864,
      "людей": 2865,
      "други": 2866,
      "сын": 2867,
      "кэр": 2868,
      "поня": 2869,
      "pic": 2870,
      "cer": 2871,
      "турар": 2872,
      "дьах": 2873,
      "An": 2874,
      "силь": 2875,
      "fr": 2876,
      "Then": 2877,
      "вод": 2878,
      "дьокуускай": 2879,
      "move": 2880,
      "believe": 2881,
      "For": 2882,
      "cle": 2883,
      "нный": 2884,
      "арынан": 2885,
      "оһу": 2886,
      "ҥҥа": 2887,
      "обо": 2888,
      "somebody": 2889,
      "нико": 2890,
      "umber": 2891,
      "бүтэ": 2892,
      "почти": 2893,
      "нулся": 2894,
      "Фе": 2895,
      "евна": 2896,
      "смот": 2897,
      "сири": 2898,
      "үлэһ": 2899,
      "cre": 2900,
      "kind": 2901,
      "ожи": 2902,
      "чтоб": 2903,
      "объ": 2904,
      "great": 2905,
      "тех": 2906,
      "яв": 2907,
      "гол": 2908,
      "вший": 2909,
      "скэй": 2910,
      "вался": 2911,
      "comes": 2912,
      "хары": 2913,
      "сылдьы": 2914,
      "кыы": 2915,
      "dd": 2916,
      "спра": 2917,
      "Пе": 2918,
      "могу": 2919,
      "Нет": 2920,
      "ward": 2921,
      "вает": 2922,
      "18": 2923,
      "ыал": 2924,
      "May": 2925,
      "соверше": 2926,
      "две": 2927,
      "благо": 2928,
      "але": 2929,
      "open": 2930,
      "тый": 2931,
      "дать": 2932,
      "Так": 2933,
      "тутту": 2934,
      "өссө": 2935,
      "ling": 2936,
      "Мар": 2937,
      "совсем": 2938,
      "аты": 2939,
      "лицо": 2940,
      "улууһун": 2941,
      "Your": 2942,
      "куһаҕан": 2943,
      "шли": 2944,
      "арар": 2945,
      "үөх": 2946,
      "бул": 2947,
      "sle": 2948,
      "илээх": 2949,
      "till": 2950,
      "стно": 2951,
      "пока": 2952,
      "ью": 2953,
      "нн": 2954,
      "нера": 2955,
      "таһа": 2956,
      "cond": 2957,
      "элээх": 2958,
      "знал": 2959,
      "судар": 2960,
      "весь": 2961,
      "хаал": 2962,
      "дуу": 2963,
      "фор": 2964,
      "еха": 2965,
      "чин": 2966,
      "улаа": 2967,
      "col": 2968,
      "uh": 2969,
      "Ар": 2970,
      "ts": 2971,
      "нор": 2972,
      "элэрин": 2973,
      "кыах": 2974,
      "Андре": 2975,
      "всего": 2976,
      "хаа": 2977,
      "stop": 2978,
      "аатта": 2979,
      "барыта": 2980,
      "ring": 2981,
      "фа": 2982,
      "ohn": 2983,
      "встре": 2984,
      "кыр": 2985,
      "чка": 2986,
      "особе": 2987,
      "самы": 2988,
      "көст": 2989,
      "ских": 2990,
      "оте": 2991,
      "гре": 2992,
      "ид": 2993,
      "ммыт": 2994,
      "trying": 2995,
      "аата": 2996,
      "учуу": 2997,
      "каж": 2998,
      "ign": 2999,
      "бэйэтин": 3000,
      "бири": 3001,
      "несколько": 3002,
      "казалось": 3003,
      "took": 3004,
      "ооннь": 3005,
      "ири": 3006,
      "Or": 3007,
      "одно": 3008,
      "говорить": 3009,
      "месте": 3010,
      "пло": 3011,
      "ba": 3012,
      "ахса": 3013,
      "люди": 3014,
      "whe": 3015,
      "ered": 3016,
      "days": 3017,
      "One": 3018,
      "литера": 3019,
      "sur": 3020,
      "биэ": 3021,
      "гия": 3022,
      "стя": 3023,
      "быһаары": 3024,
      "mine": 3025,
      "cat": 3026,
      "торо": 3027,
      "аста": 3028,
      "minute": 3029,
      "ойуу": 3030,
      "чча": 3031,
      "different": 3032,
      "Кини": 3033,
      "кыт": 3034,
      "рен": 3035,
      "wear": 3036,
      "үөрэн": 3037,
      "weren": 3038,
      "ступ": 3039,
      "илли": 3040,
      "John": 3041,
      "Get": 3042,
      "элэ": 3043,
      "эта": 3044,
      "шая": 3045,
      "matter": 3046,
      "элл": 3047,
      "mother": 3048,
      "жить": 3049,
      "буолуо": 3050,
      "fifty": 3051,
      "против": 3052,
      "мени": 3053,
      "heard": 3054,
      "Ра": 3055,
      "Hell": 3056,
      "brea": 3057,
      "cent": 3058,
      "thirty": 3059,
      "land": 3060,
      "cr": 3061,
      "rest": 3062,
      "прос": 3063,
      "между": 3064,
      "лен": 3065,
      "thousand": 3066,
      "пыт": 3067,
      "ларга": 3068,
      "ach": 3069,
      "drink": 3070,
      "бор": 3071,
      "род": 3072,
      "Ма": 3073,
      "хотя": 3074,
      "былыргы": 3075,
      "дор": 3076,
      "понима": 3077,
      "олохтоох": 3078,
      "обы": 3079,
      "нему": 3080,
      "ука": 3081,
      "саҥ": 3082,
      "тэрин": 3083,
      "послед": 3084,
      "какой": 3085,
      "вых": 3086,
      "sing": 3087,
      "республи": 3088,
      "looks": 3089,
      "cor": 3090,
      "хас": 3091,
      "льнай": 3092,
      "үүл": 3093,
      "suppose": 3094,
      "айан": 3095,
      "child": 3096,
      "вид": 3097,
      "анал": 3098,
      "иҥ": 3099,
      "while": 3100,
      "нал": 3101,
      "ларыгар": 3102,
      "tonight": 3103,
      "весе": 3104,
      "ливо": 3105,
      "любо": 3106,
      "рабо": 3107,
      "воро": 3108,
      "хорошо": 3109,
      "свое": 3110,
      "эни": 3111,
      "real": 3112,
      "Со": 3113,
      "few": 3114,
      "шно": 3115,
      "ily": 3116,
      "чему": 3117,
      "Any": 3118,
      "Alright": 3119,
      "00": 3120,
      "кую": 3121,
      "хаҥалас": 3122,
      "үөрэх": 3123,
      "кла": 3124,
      "сом": 3125,
      "ouble": 3126,
      "called": 3127,
      "вым": 3128,
      "нной": 3129,
      "таан": 3130,
      "олорор": 3131,
      "spe": 3132,
      "тааҕы": 3133,
      "inet": 3134,
      "ried": 3135,
      "таар": 3136,
      "нук": 3137,
      "обу": 3138,
      "нев": 3139,
      "рая": 3140,
      "best": 3141,
      "flo": 3142,
      "уста": 3143,
      "үөск": 3144,
      "говорит": 3145,
      "month": 3146,
      "оҥорор": 3147,
      "вые": 3148,
      "ses": 3149,
      "ною": 3150,
      "sent": 3151,
      "ппу": 3152,
      "number": 3153,
      "своего": 3154,
      "жил": 3155,
      "точно": 3156,
      "Ma": 3157,
      "нах": 3158,
      "өөх": 3159,
      "ince": 3160,
      "hm": 3161,
      "past": 3162,
      "арах": 3163,
      "ские": 3164,
      "үүн": 3165,
      "руки": 3166,
      "эйи": 3167,
      "wants": 3168,
      "хайдах": 3169,
      "йи": 3170,
      "tt": 3171,
      "үрдүк": 3172,
      "Ne": 3173,
      "war": 3174,
      "See": 3175,
      "араа": 3176,
      "лиир": 3177,
      "sir": 3178,
      "bring": 3179,
      "гро": 3180,
      "деле": 3181,
      "бакка": 3182,
      "нное": 3183,
      "йар": 3184,
      "yourself": 3185,
      "far": 3186,
      "port": 3187,
      "реш": 3188,
      "уус": 3189,
      "соро": 3190,
      "человека": 3191,
      "айыл": 3192,
      "оҥору": 3193,
      "ele": 3194,
      "een": 3195,
      "пан": 3196,
      "пой": 3197,
      "жения": 3198,
      "Wh": 3199,
      "gets": 3200,
      "хайа": 3201,
      "wonder": 3202,
      "Because": 3203,
      "oked": 3204,
      "руку": 3205,
      "pped": 3206,
      "өйдө": 3207,
      "никогда": 3208,
      "bar": 3209,
      "тахсы": 3210,
      "ҥҥ": 3211,
      "стыба": 3212,
      "хва": 3213,
      "биһиги": 3214,
      "баҕар": 3215,
      "наконец": 3216,
      "үөскэ": 3217,
      "ются": 3218,
      "Ha": 3219,
      "При": 3220,
      "спросил": 3221,
      "early": 3222,
      "иль": 3223,
      "зу": 3224,
      "shall": 3225,
      "другой": 3226,
      "лун": 3227,
      "гынан": 3228,
      "санаата": 3229,
      "сайдыы": 3230,
      "ner": 3231,
      "once": 3232,
      "свя": 3233,
      "хому": 3234,
      "просто": 3235,
      "lovely": 3236,
      "өҥ": 3237,
      "нула": 3238,
      "ках": 3239,
      "оҕоло": 3240,
      "ago": 3241,
      "Erm": 3242,
      "лиэн": 3243,
      "рий": 3244,
      "место": 3245,
      "этэн": 3246,
      "Hey": 3247,
      "████████████████████████████████": 3248,
      "proble": 3249,
      "рев": 3250,
      "нэһилиэк": 3251,
      "видел": 3252,
      "эһи": 3253,
      "ith": 3254,
      "ump": 3255,
      "ither": 3256,
      "бан": 3257,
      "understand": 3258,
      "ont": 3259,
      "лег": 3260,
      "whole": 3261,
      "билли": 3262,
      "Dad": 3263,
      "сами": 3264,
      "наро": 3265,
      "happened": 3266,
      "игэ": 3267,
      "шки": 3268,
      "государ": 3269,
      "кэмҥэ": 3270,
      "Се": 3271,
      "рт": 3272,
      "мэҥэ": 3273,
      "listen": 3274,
      "куда": 3275,
      "диэри": 3276,
      "үлэлээ": 3277,
      "князь": 3278,
      "син": 3279,
      "person": 3280,
      "полу": 3281,
      "anc": 3282,
      "Алексан": 3283,
      "улыб": 3284,
      "ылара": 3285,
      "ҕэ": 3286,
      "мма": 3287,
      "ason": 3288,
      "des": 3289,
      "dog": 3290,
      "pect": 3291,
      "куль": 3292,
      "each": 3293,
      "сүрүн": 3294,
      "совершенно": 3295,
      "тотчас": 3296,
      "мое": 3297,
      "sk": 3298,
      "knew": 3299,
      "шло": 3300,
      "ган": 3301,
      "офи": 3302,
      "таба": 3303,
      "Hello": 3304,
      "голову": 3305,
      "всю": 3306,
      "соб": 3307,
      "тельно": 3308,
      "үөн": 3309,
      "люб": 3310,
      "paper": 3311,
      "эхтээх": 3312,
      "ваться": 3313,
      "этой": 3314,
      "наада": 3315,
      "эҕин": 3316,
      "water": 3317,
      "лучше": 3318,
      "здесь": 3319,
      "ден": 3320,
      "уди": 3321,
      "eas": 3322,
      "кыһ": 3323,
      "vis": 3324,
      "Rea": 3325,
      "maybe": 3326,
      "аларын": 3327,
      "someone": 3328,
      "funny": 3329,
      "ылары": 3330,
      "bor": 3331,
      "road": 3332,
      "дьону": 3333,
      "графи": 3334,
      "кэлэн": 3335,
      "til": 3336,
      "пись": 3337,
      "idea": 3338,
      "жется": 3339,
      "молча": 3340,
      "эби": 3341,
      "bought": 3342,
      "төрөөбүттэр": 3343,
      "unno": 3344,
      "Никола": 3345,
      "көрдөр": 3346,
      "уол": 3347,
      "ction": 3348,
      "бэйэтэ": 3349,
      "сий": 3350,
      "тылын": 3351,
      "eak": 3352,
      "ээчч": 3353,
      "маннык": 3354,
      "кэнни": 3355,
      "гал": 3356,
      "киһ": 3357,
      "город": 3358,
      "куру": 3359,
      "сила": 3360,
      "такой": 3361,
      "этим": 3362,
      "Jo": 3363,
      "дин": 3364,
      "чит": 3365,
      "dead": 3366,
      "tty": 3367,
      "aw": 3368,
      "рил": 3369,
      "hope": 3370,
      "То": 3371,
      "вла": 3372,
      "gether": 3373,
      "Пав": 3374,
      "sleep": 3375,
      "med": 3376,
      "вел": 3377,
      "сиригэр": 3378,
      "уһу": 3379,
      "тыыр": 3380,
      "долго": 3381,
      "minutes": 3382,
      "нови": 3383,
      "спокой": 3384,
      "чая": 3385,
      "даҕаны": 3386,
      "нон": 3387,
      "ников": 3388,
      "ото": 3389,
      "ктаах": 3390,
      "ина": 3391,
      "ninet": 3392,
      "Те": 3393,
      "эпп": 3394,
      "ял": 3395,
      "ane": 3396,
      "together": 3397,
      "высо": 3398,
      "кку": 3399,
      "тся": 3400,
      "нер": 3401,
      "алара": 3402,
      "сэр": 3403,
      "тно": 3404,
      "кло": 3405,
      "ball": 3406,
      "маны": 3407,
      "ыйы": 3408,
      "hold": 3409,
      "уни": 3410,
      "мате": 3411,
      "гов": 3412,
      "өйө": 3413,
      "ших": 3414,
      "таҥара": 3415,
      "һар": 3416,
      "дуо": 3417,
      "деся": 3418,
      "вое": 3419,
      "сахалыы": 3420,
      "walk": 3421,
      "кэпс": 3422,
      "гун": 3423,
      "прин": 3424,
      "айа": 3425,
      "ул": 3426,
      "5а": 3427,
      "бэрэ": 3428,
      "таки": 3429,
      "ross": 3430,
      "расска": 3431,
      "ery": 3432,
      "Here": 3433,
      "дома": 3434,
      "үөл": 3435,
      "доб": 3436,
      "stra": 3437,
      "ix": 3438,
      "лей": 3439,
      "дьиэ": 3440,
      "тала": 3441,
      "Ха": 3442,
      "ханнык": 3443,
      "подня": 3444,
      "late": 3445,
      "atur": 3446,
      "орой": 3447,
      "clock": 3448,
      "Christmas": 3449,
      "тыа": 3450,
      "особенно": 3451,
      "ash": 3452,
      "эту": 3453,
      "myself": 3454,
      "found": 3455,
      "дьэ": 3456,
      "дви": 3457,
      "couple": 3458,
      "thinking": 3459,
      "dam": 3460,
      "инни": 3461,
      "quest": 3462,
      "tri": 3463,
      "Иван": 3464,
      "Ре": 3465,
      "аатынан": 3466,
      "иһэр": 3467,
      "hor": 3468,
      "father": 3469,
      "second": 3470,
      "сирэ": 3471,
      "Like": 3472,
      "ыла": 3473,
      "ноги": 3474,
      "тору": 3475,
      "кылаа": 3476,
      "ыларын": 3477,
      "bir": 3478,
      "Ва": 3479,
      "нуу": 3480,
      "ush": 3481,
      "ср": 3482,
      "стит": 3483,
      "Ли": 3484,
      "лица": 3485,
      "дия": 3486,
      "күр": 3487,
      "ыллыбыт": 3488,
      "change": 3489,
      "Maybe": 3490,
      "аннь": 3491,
      "эп": 3492,
      "already": 3493,
      "bag": 3494,
      "Мин": 3495,
      "зло": 3496,
      "произ": 3497,
      "wed": 3498,
      "дьоно": 3499,
      "стары": 3500,
      "чера": 3501,
      "Сте": 3502,
      "ken": 3503,
      "nor": 3504,
      "Ба": 3505,
      "key": 3506,
      "coun": 3507,
      "lt": 3508,
      "лэн": 3509,
      "юсь": 3510,
      "нель": 3511,
      "ттарын": 3512,
      "бай": 3513,
      "mis": 3514,
      "pie": 3515,
      "писа": 3516,
      "кни": 3517,
      "хоһ": 3518,
      "төрө": 3519,
      "Де": 3520,
      "Мы": 3521,
      "йуу": 3522,
      "hur": 3523,
      "мас": 3524,
      "ia": 3525,
      "коле": 3526,
      "хоть": 3527,
      "рос": 3528,
      "бытын": 3529,
      "ester": 3530,
      "буолуох": 3531,
      "Will": 3532,
      "генера": 3533,
      "working": 3534,
      "ставля": 3535,
      "пал": 3536,
      "куорат": 3537,
      "woman": 3538,
      "such": 3539,
      "record": 3540,
      "dar": 3541,
      "эдэр": 3542,
      "бер": 3543,
      "supposed": 3544,
      "dro": 3545,
      "йте": 3546,
      "тии": 3547,
      "вом": 3548,
      "tape": 3549,
      "норуот": 3550,
      "радо": 3551,
      "сердце": 3552,
      "Par": 3553,
      "pos": 3554,
      "сыһы": 3555,
      "кнул": 3556,
      "осто": 3557,
      "sen": 3558,
      "оонньуу": 3559,
      "исти": 3560,
      "cra": 3561,
      "pick": 3562,
      "сылдьан": 3563,
      "ужас": 3564,
      "төрөөбүт": 3565,
      "Ex": 3566,
      "щу": 3567,
      "fine": 3568,
      "выра": 3569,
      "сыр": 3570,
      "народ": 3571,
      "comp": 3572,
      "эринэн": 3573,
      "хотел": 3574,
      "Когда": 3575,
      "ураты": 3576,
      "erest": 3577,
      "cur": 3578,
      "кэми": 3579,
      "str": 3580,
      "которой": 3581,
      "Кы": 3582,
      "мыс": 3583,
      "ger": 3584,
      "хозя": 3585,
      "буолбут": 3586,
      "Aye": 3587,
      "через": 3588,
      "үм": 3589,
      "Ната": 3590,
      "өһ": 3591,
      "world": 3592,
      "ions": 3593,
      "боро": 3594,
      "cup": 3595,
      "Got": 3596,
      "op": 3597,
      "дали": 3598,
      "iz": 3599,
      "whatever": 3600,
      "ог": 3601,
      "вил": 3602,
      "cold": 3603,
      "front": 3604,
      "Ме": 3605,
      "сю": 3606,
      "кажется": 3607,
      "ходя": 3608,
      "дем": 3609,
      "As": 3610,
      "fam": 3611,
      "haps": 3612,
      "чили": 3613,
      "быттара": 3614,
      "card": 3615,
      "hot": 3616,
      "бүтэр": 3617,
      "icul": 3618,
      "lic": 3619,
      "киллэр": 3620,
      "ино": 3621,
      "история": 3622,
      "sound": 3623,
      "давно": 3624,
      "дея": 3625,
      "кут": 3626,
      "мина": 3627,
      "miss": 3628,
      "жать": 3629,
      "esterday": 3630,
      "ппа": 3631,
      "box": 3632,
      "минуту": 3633,
      "малень": 3634,
      "эһин": 3635,
      "катын": 3636,
      "нес": 3637,
      "лоша": 3638,
      "De": 3639,
      "Two": 3640,
      "олло": 3641,
      "ished": 3642,
      "киирэн": 3643,
      "жала": 3644,
      "зад": 3645,
      "pping": 3646,
      "своих": 3647,
      "тыын": 3648,
      "ссыы": 3649,
      "рд": 3650,
      "кинилэр": 3651,
      "батах": 3652,
      "олоҕун": 3653,
      "ции": 3654,
      "бить": 3655,
      "Рос": 3656,
      "нного": 3657,
      "прежде": 3658,
      "мия": 3659,
      "элэрэ": 3660,
      "свой": 3661,
      "pounds": 3662,
      "уола": 3663,
      "ччи": 3664,
      "black": 3665,
      "both": 3666,
      "эттэ": 3667,
      "Би": 3668,
      "уор": 3669,
      "нами": 3670,
      "Ta": 3671,
      "ctor": 3672,
      "говорила": 3673,
      "dow": 3674,
      "тэҥ": 3675,
      "гом": 3676,
      "meet": 3677,
      "спүү": 3678,
      "игра": 3679,
      "du": 3680,
      "сама": 3681,
      "ством": 3682,
      "sol": 3683,
      "gl": 3684,
      "welve": 3685,
      "прият": 3686,
      "actly": 3687,
      "face": 3688,
      "чки": 3689,
      "стало": 3690,
      "кэнниттэн": 3691,
      "without": 3692,
      "лице": 3693,
      "ском": 3694,
      "вало": 3695,
      "стээх": 3696,
      "forty": 3697,
      "счаст": 3698,
      "которого": 3699,
      "лиэннь": 3700,
      "спи": 3701,
      "ister": 3702,
      "тири": 3703,
      "game": 3704,
      "види": 3705,
      "ккэ": 3706,
      "сунтаар": 3707,
      "Mo": 3708,
      "itting": 3709,
      "je": 3710,
      "рю": 3711,
      "ший": 3712,
      "vo": 3713,
      "прочем": 3714,
      "иит": 3715,
      "мөл": 3716,
      "учу": 3717,
      "iness": 3718,
      "спүүбүл": 3719,
      "шком": 3720,
      "нужно": 3721,
      "булу": 3722,
      "кнове": 3723,
      "бога": 3724,
      "cha": 3725,
      "анна": 3726,
      "цер": 3727,
      "сон": 3728,
      "такое": 3729,
      "stair": 3730,
      "аран": 3731,
      "лия": 3732,
      "нуть": 3733,
      "outh": 3734,
      "стой": 3735,
      "именно": 3736,
      "вого": 3737,
      "сем": 3738,
      "бүлүү": 3739,
      "воло": 3740,
      "ated": 3741,
      "быһы": 3742,
      "кэби": 3743,
      "yesterday": 3744,
      "Мне": 3745,
      "Во": 3746,
      "түбэ": 3747,
      "своим": 3748,
      "сит": 3749,
      "смотря": 3750,
      "арда": 3751,
      "ность": 3752,
      "уга": 3753,
      "interest": 3754,
      "ытык": 3755,
      "киин": 3756,
      "thank": 3757,
      "hasn": 3758,
      "started": 3759,
      "looked": 3760,
      "ахха": 3761,
      "ooh": 3762,
      "гэлэр": 3763,
      "tre": 3764,
      "баай": 3765,
      "зыва": 3766,
      "soon": 3767,
      "айым": 3768,
      "sy": 3769,
      "мере": 3770,
      "da": 3771,
      "пчы": 3772,
      "истори": 3773,
      "нельзя": 3774,
      "pretty": 3775,
      "ехал": 3776,
      "үлэлиир": 3777,
      "inner": 3778,
      "тыллар": 3779,
      "ваясь": 3780,
      "аһа": 3781,
      "буоллаҕына": 3782,
      "свет": 3783,
      "госпо": 3784,
      "ааты": 3785,
      "аннаах": 3786,
      "францу": 3787,
      "Does": 3788,
      "Ju": 3789,
      "Ле": 3790,
      "зве": 3791,
      "rible": 3792,
      "вместе": 3793,
      "бед": 3794,
      "low": 3795,
      "ub": 3796,
      "ийэ": 3797,
      "leg": 3798,
      "char": 3799,
      "thy": 3800,
      "мар": 3801,
      "лом": 3802,
      "биирдэ": 3803,
      "чий": 3804,
      "ппыт": 3805,
      "эрээри": 3806,
      "ins": 3807,
      "уту": 3808,
      "бес": 3809,
      "Бе": 3810,
      "зар": 3811,
      "young": 3812,
      "until": 3813,
      "дьары": 3814,
      "учуутал": 3815,
      "иккис": 3816,
      "10": 3817,
      "break": 3818,
      "менно": 3819,
      "сове": 3820,
      "дова": 3821,
      "Mon": 3822,
      "двер": 3823,
      "йах": 3824,
      "cked": 3825,
      "high": 3826,
      "знать": 3827,
      "stairs": 3828,
      "vi": 3829,
      "чил": 3830,
      "нара": 3831,
      "өйдөбүл": 3832,
      "кэмигэр": 3833,
      "бал": 3834,
      "worry": 3835,
      "hours": 3836,
      "gar": 3837,
      "ating": 3838,
      "аллара": 3839,
      "щие": 3840,
      "whether": 3841,
      "problem": 3842,
      "Really": 3843,
      "айылҕа": 3844,
      "тэрий": 3845,
      "ute": 3846,
      "gi": 3847,
      "циаль": 3848,
      "шее": 3849,
      "дели": 3850,
      "үлэһит": 3851,
      "которых": 3852,
      "ское": 3853,
      "эҕинэ": 3854,
      "dunno": 3855,
      "аһара": 3856,
      "taking": 3857,
      "видно": 3858,
      "нув": 3859,
      "оҕолор": 3860,
      "Car": 3861,
      "Ho": 3862,
      "Was": 3863,
      "either": 3864,
      "аачч": 3865,
      "эбэ": 3866,
      "att": 3867,
      "мало": 3868,
      "которое": 3869,
      "knows": 3870,
      "литература": 3871,
      "мов": 3872,
      "bur": 3873,
      "lle": 3874,
      "Онон": 3875,
      "которая": 3876,
      "since": 3877,
      "соҕ": 3878,
      "Pa": 3879,
      "знает": 3880,
      "Which": 3881,
      "вспо": 3882,
      "ответ": 3883,
      "later": 3884,
      "Eh": 3885,
      "Re": 3886,
      "буолбута": 3887,
      "тр": 3888,
      "һэ": 3889,
      "Every": 3890,
      "уһун": 3891,
      "true": 3892,
      "эки": 3893,
      "след": 3894,
      "bea": 3895,
      "esday": 3896,
      "говоря": 3897,
      "amp": 3898,
      "обыкнове": 3899,
      "вь": 3900,
      "граф": 3901,
      "харчы": 3902,
      "мать": 3903,
      "толору": 3904,
      "23": 3905,
      "Ити": 3906,
      "прямо": 3907,
      "ҥо": 3908,
      "олоххо": 3909,
      "чувствовал": 3910,
      "ual": 3911,
      "Ай": 3912,
      "case": 3913,
      "ходил": 3914,
      "Ге": 3915,
      "inst": 3916,
      "лус": 3917,
      "суо": 3918,
      "быһаарыылар": 3919,
      "vers": 3920,
      "быраа": 3921,
      "fact": 3922,
      "алек": 3923,
      "дете": 3924,
      "unch": 3925,
      "низ": 3926,
      "кими": 3927,
      "өрү": 3928,
      "итэҕ": 3929,
      "free": 3930,
      "быһыытынан": 3931,
      "смотрел": 3932,
      "моя": 3933,
      "fair": 3934,
      "Ge": 3935,
      "guess": 3936,
      "weeks": 3937,
      "сейчас": 3938,
      "Bo": 3939,
      "cu": 3940,
      "сен": 3941,
      "ппы": 3942,
      "түр": 3943,
      "цать": 3944,
      "свобо": 3945,
      "makes": 3946,
      "бөлө": 3947,
      "everybody": 3948,
      "рую": 3949,
      "хот": 3950,
      "ical": 3951,
      "усту": 3952,
      "тыся": 3953,
      "кр": 3954,
      "билэ": 3955,
      "baby": 3956,
      "straight": 3957,
      "арыгы": 3958,
      "начала": 3959,
      "уоп": 3960,
      "ходит": 3961,
      "пера": 3962,
      "lost": 3963,
      "туһан": 3964,
      "зав": 3965,
      "чина": 3966,
      "children": 3967,
      "вшие": 3968,
      "отвечал": 3969,
      "sell": 3970,
      "Sorry": 3971,
      "asked": 3972,
      "гас": 3973,
      "lau": 3974,
      "слуша": 3975,
      "чен": 3976,
      "kids": 3977,
      "мм": 3978,
      "рс": 3979,
      "ҕаа": 3980,
      "эс": 3981,
      "cont": 3982,
      "mil": 3983,
      "fort": 3984,
      "элбэ": 3985,
      "brother": 3986,
      "17": 3987,
      "кэри": 3988,
      "моей": 3989,
      "йда": 3990,
      "мед": 3991,
      "pain": 3992,
      "сыана": 3993,
      "ева": 3994,
      "хаһа": 3995,
      "дву": 3996,
      "кому": 3997,
      "ними": 3998,
      "шим": 3999,
      "этих": 4000,
      "Николай": 4001,
      "аат": 4002,
      "Ах": 4003,
      "ҥҥи": 4004,
      "тяже": 4005,
      "IN": 4006,
      "Je": 4007,
      "геро": 4008,
      "тин": 4009,
      "тий": 4010,
      "full": 4011,
      "пове": 4012,
      "pull": 4013,
      "кова": 4014,
      "мной": 4015,
      "Me": 4016,
      "спраши": 4017,
      "io": 4018,
      "нэрэ": 4019,
      "суолта": 4020,
      "business": 4021,
      "Па": 4022,
      "маль": 4023,
      "маҥ": 4024,
      "лый": 4025,
      "недо": 4026,
      "least": 4027,
      "shop": 4028,
      "туспа": 4029,
      "муж": 4030,
      "ылан": 4031,
      "стер": 4032,
      "сайын": 4033,
      "төрүтт": 4034,
      "ствие": 4035,
      "ствительно": 4036,
      "шие": 4037,
      "урба": 4038,
      "кэргэн": 4039,
      "тутар": 4040,
      "кэннэ": 4041,
      "Си": 4042,
      "дири": 4043,
      "отно": 4044,
      "онон": 4045,
      "ud": 4046,
      "form": 4047,
      "ллубут": 4048,
      "скри": 4049,
      "Gr": 4050,
      "reason": 4051,
      "тья": 4052,
      "км": 4053,
      "уче": 4054,
      "эттэн": 4055,
      "Ab": 4056,
      "window": 4057,
      "clean": 4058,
      "туран": 4059,
      "оч": 4060,
      "норуо": 4061,
      "Моск": 4062,
      "кли": 4063,
      "итигэр": 4064,
      "Satur": 4065,
      "dri": 4066,
      "новна": 4067,
      "Го": 4068,
      "сор": 4069,
      "успе": 4070,
      "12": 4071,
      "ings": 4072,
      "дур": 4073,
      "anybody": 4074,
      "trouble": 4075,
      "киһини": 4076,
      "dinner": 4077,
      "gen": 4078,
      "рон": 4079,
      "төрөпп": 4080,
      "киэҥ": 4081,
      "вших": 4082,
      "Если": 4083,
      "wall": 4084,
      "одного": 4085,
      "white": 4086,
      "ночь": 4087,
      "юще": 4088,
      "возь": 4089,
      "тере": 4090,
      "arent": 4091,
      "twelve": 4092,
      "swe": 4093,
      "уве": 4094,
      "хов": 4095,
      "сиргэ": 4096,
      "ива": 4097,
      "тап": 4098,
      "нить": 4099,
      "спы": 4100,
      "gra": 4101,
      "town": 4102,
      "док": 4103,
      "along": 4104,
      "бата": 4105,
      "mid": 4106,
      "tom": 4107,
      "дала": 4108,
      "манна": 4109,
      "dra": 4110,
      "зия": 4111,
      "йэ": 4112,
      "наде": 4113,
      "согла": 4114,
      "кэлбит": 4115,
      "өлээх": 4116,
      "gave": 4117,
      "moment": 4118,
      "вами": 4119,
      "Били": 4120,
      "god": 4121,
      "ырыа": 4122,
      "хайы": 4123,
      "готов": 4124,
      "Of": 4125,
      "happy": 4126,
      "бере": 4127,
      "Frid": 4128,
      "led": 4129,
      "board": 4130,
      "Ону": 4131,
      "lice": 4132,
      "illy": 4133,
      "право": 4134,
      "старын": 4135,
      "үтүөлээх": 4136,
      "ef": 4137,
      "foot": 4138,
      "pri": 4139,
      "сии": 4140,
      "сэбиэ": 4141,
      "нын": 4142,
      "ire": 4143,
      "уча": 4144,
      "send": 4145,
      "душе": 4146,
      "Ar": 4147,
      "Un": 4148,
      "клю": 4149,
      "язы": 4150,
      "ома": 4151,
      "ян": 4152,
      "add": 4153,
      "iously": 4154,
      "мут": 4155,
      "ситиһи": 4156,
      "cid": 4157,
      "Mrs": 4158,
      "ley": 4159,
      "making": 4160,
      "ахтаах": 4161,
      "somewhere": 4162,
      "ттары": 4163,
      "должен": 4164,
      "тыттан": 4165,
      "Ал": 4166,
      "глав": 4167,
      "атыы": 4168,
      "айар": 4169,
      "слов": 4170,
      "саамай": 4171,
      "көрөн": 4172,
      "бэлэм": 4173,
      "ween": 4174,
      "сылга": 4175,
      "о5": 4176,
      "тээх": 4177,
      "пожал": 4178,
      "yours": 4179,
      "көрүҥ": 4180,
      "кус": 4181,
      "worth": 4182,
      "оҥҥо": 4183,
      "small": 4184,
      "Fr": 4185,
      "бэйэлэрин": 4186,
      "line": 4187,
      "ровна": 4188,
      "суще": 4189,
      "Sund": 4190,
      "ктар": 4191,
      "возможно": 4192,
      "дьоннор": 4193,
      "band": 4194,
      "матери": 4195,
      "Friday": 4196,
      "Sunday": 4197,
      "кул": 4198,
      "мои": 4199,
      "хоту": 4200,
      "дый": 4201,
      "хом": 4202,
      "upid": 4203,
      "смер": 4204,
      "Saturday": 4205,
      "wife": 4206,
      "letter": 4207,
      "мысли": 4208,
      "ness": 4209,
      "делать": 4210,
      "lin": 4211,
      "эдэ": 4212,
      "дик": 4213,
      "бира": 4214,
      "vie": 4215,
      "слишком": 4216,
      "ова": 4217,
      "киинэ": 4218,
      "тыла": 4219,
      "глазами": 4220,
      "мор": 4221,
      "Le": 4222,
      "помни": 4223,
      "grand": 4224,
      "ич": 4225,
      "года": 4226,
      "tra": 4227,
      "дох": 4228,
      "одной": 4229,
      "hind": 4230,
      "пять": 4231,
      "поле": 4232,
      "даль": 4233,
      "оби": 4234,
      "friends": 4235,
      "als": 4236,
      "cks": 4237,
      "тербур": 4238,
      "стала": 4239,
      "quick": 4240,
      "продолжал": 4241,
      "устар": 4242,
      "хаһан": 4243,
      "аайы": 4244,
      "хочу": 4245,
      "бэйэ": 4246,
      "15": 4247,
      "һэр": 4248,
      "дылы": 4249,
      "бииргэ": 4250,
      "уруу": 4251,
      "аҥ": 4252,
      "назад": 4253,
      "load": 4254,
      "миэст": 4255,
      "скоро": 4256,
      "чура": 4257,
      "паль": 4258,
      "состоя": 4259,
      "чуть": 4260,
      "hall": 4261,
      "мужи": 4262,
      "спыт": 4263,
      "француз": 4264,
      "hate": 4265,
      "сала": 4266,
      "fil": 4267,
      "хе": 4268,
      "outside": 4269,
      "баҕарар": 4270,
      "ster": 4271,
      "руо": 4272,
      "ead": 4273,
      "сыыһа": 4274,
      "вшего": 4275,
      "шую": 4276,
      "Сер": 4277,
      "ons": 4278,
      "сирд": 4279,
      "hang": 4280,
      "бара": 4281,
      "reck": 4282,
      "үлл": 4283,
      "ыста": 4284,
      "ялся": 4285,
      "ҥҥэ": 4286,
      "rew": 4287,
      "ваше": 4288,
      "кэлин": 4289,
      "якутск": 4290,
      "сим": 4291,
      "көл": 4292,
      "воск": 4293,
      "брат": 4294,
      "печа": 4295,
      "лон": 4296,
      "ream": 4297,
      "инстит": 4298,
      "туура": 4299,
      "хаһы": 4300,
      "expect": 4301,
      "With": 4302,
      "быстро": 4303,
      "ским": 4304,
      "теле": 4305,
      "диир": 4306,
      "ched": 4307,
      "вен": 4308,
      "түн": 4309,
      "төһ": 4310,
      "shut": 4311,
      "үттэн": 4312,
      "оройуон": 4313,
      "fl": 4314,
      "rather": 4315,
      "finished": 4316,
      "ард": 4317,
      "вин": 4318,
      "write": 4319,
      "бах": 4320,
      "буоллар": 4321,
      "внима": 4322,
      "һуу": 4323,
      "means": 4324,
      "сылтан": 4325,
      "gard": 4326,
      "ninety": 4327,
      "Tell": 4328,
      "ление": 4329,
      "женщ": 4330,
      "чку": 4331,
      "үтүө": 4332,
      "Chris": 4333,
      "ница": 4334,
      "лишь": 4335,
      "кти": 4336,
      "vent": 4337,
      "объяс": 4338,
      "luck": 4339,
      "ours": 4340,
      "сорох": 4341,
      "восто": 4342,
      "Would": 4343,
      "буолбу": 4344,
      "lease": 4345,
      "oun": 4346,
      "Они": 4347,
      "Mic": 4348,
      "женщи": 4349,
      "ума": 4350,
      "энэр": 4351,
      "die": 4352,
      "ony": 4353,
      "shouldn": 4354,
      "telling": 4355,
      "мил": 4356,
      "чрез": 4357,
      "реди": 4358,
      "бою": 4359,
      "тутулу": 4360,
      "beaut": 4361,
      "ian": 4362,
      "бот": 4363,
      "speak": 4364,
      "үөһээ": 4365,
      "др": 4366,
      "quid": 4367,
      "кэлэр": 4368,
      "fell": 4369,
      "кам": 4370,
      "поря": 4371,
      "Из": 4372,
      "кэрэ": 4373,
      "тихо": 4374,
      "холбо": 4375,
      "cial": 4376,
      "Po": 4377,
      "друга": 4378,
      "mit": 4379,
      "душ": 4380,
      "кинигэ": 4381,
      "коло": 4382,
      "пуст": 4383,
      "куоракка": 4384,
      "Nor": 4385,
      "санаатын": 4386,
      "туп": 4387,
      "дера": 4388,
      "цев": 4389,
      "fee": 4390,
      "барытын": 4391,
      "ations": 4392,
      "solute": 4393,
      "шед": 4394,
      "wit": 4395,
      "добро": 4396,
      "wash": 4397,
      "Ти": 4398,
      "pot": 4399,
      "cy": 4400,
      "еди": 4401,
      "хон": 4402,
      "сигэлэр": 4403,
      "эрги": 4404,
      "жна": 4405,
      "кою": 4406,
      "голос": 4407,
      "At": 4408,
      "ned": 4409,
      "вос": 4410,
      "plain": 4411,
      "stick": 4412,
      "pict": 4413,
      "дьарык": 4414,
      "paid": 4415,
      "мей": 4416,
      "скоре": 4417,
      "certain": 4418,
      "тился": 4419,
      "буоллах": 4420,
      "чурапчы": 4421,
      "убе": 4422,
      "дьоҥҥо": 4423,
      "которую": 4424,
      "приба": 4425,
      "иһигэр": 4426,
      "hit": 4427,
      "нууч": 4428,
      "behind": 4429,
      "ого": 4430,
      "илин": 4431,
      "илэрэ": 4432,
      "эйэ": 4433,
      "Br": 4434,
      "шай": 4435,
      "Ведь": 4436,
      "жали": 4437,
      "possi": 4438,
      "ved": 4439,
      "fire": 4440,
      "аналлаах": 4441,
      "Вар": 4442,
      "ычча": 4443,
      "нуучч": 4444,
      "соку": 4445,
      "also": 4446,
      "Put": 4447,
      "музы": 4448,
      "равно": 4449,
      "yo": 4450,
      "stupid": 4451,
      "говорю": 4452,
      "ford": 4453,
      "иск": 4454,
      "сего": 4455,
      "chang": 4456,
      "туттар": 4457,
      "exactly": 4458,
      "Лю": 4459,
      "действительно": 4460,
      "Дьокуускай": 4461,
      "fast": 4462,
      "графия": 4463,
      "хри": 4464,
      "спит": 4465,
      "кай": 4466,
      "поме": 4467,
      "Дмит": 4468,
      "train": 4469,
      "хоһоон": 4470,
      "ier": 4471,
      "гыы": 4472,
      "кыттыы": 4473,
      "ьы": 4474,
      "ҕө": 4475,
      "баһы": 4476,
      "завтра": 4477,
      "самом": 4478,
      "ham": 4479,
      "асср": 4480,
      "лэри": 4481,
      "Paul": 4482,
      "зву": 4483,
      "больш": 4484,
      "Jack": 4485,
      "лович": 4486,
      "должно": 4487,
      "твер": 4488,
      "Хо": 4489,
      "наше": 4490,
      "Че": 4491,
      "рь": 4492,
      "рыы": 4493,
      "горе": 4494,
      "sign": 4495,
      "дни": 4496,
      "останов": 4497,
      "кал": 4498,
      "oo": 4499,
      "какие": 4500,
      "вую": 4501,
      "күүһ": 4502,
      "һин": 4503,
      "months": 4504,
      "igh": 4505,
      "count": 4506,
      "Марья": 4507,
      "тэрилт": 4508,
      "мира": 4509,
      "дев": 4510,
      "люби": 4511,
      "family": 4512,
      "нные": 4513,
      "Aha": 4514,
      "солда": 4515,
      "Петр": 4516,
      "ыҥы": 4517,
      "оҥорон": 4518,
      "знако": 4519,
      "dle": 4520,
      "inter": 4521,
      "силий": 4522,
      "оля": 4523,
      "салаа": 4524,
      "дойдуга": 4525,
      "киирбит": 4526,
      "конечно": 4527,
      "воль": 4528,
      "фон": 4529,
      "циона": 4530,
      "унан": 4531,
      "lear": 4532,
      "ленно": 4533,
      "гос": 4534,
      "кэпсэ": 4535,
      "деньги": 4536,
      "вля": 4537,
      "нэһилиэннь": 4538,
      "Онтон": 4539,
      "фана": 4540,
      "коно": 4541,
      "ls": 4542,
      "sitting": 4543,
      "верно": 4544,
      "wish": 4545,
      "bath": 4546,
      "дит": 4547,
      "поль": 4548,
      "reet": 4549,
      "pet": 4550,
      "стали": 4551,
      "exc": 4552,
      "between": 4553,
      "маа": 4554,
      "иногда": 4555,
      "стаа": 4556,
      "лич": 4557,
      "быттар": 4558,
      "человече": 4559,
      "ship": 4560,
      "наука": 4561,
      "Ев": 4562,
      "куо": 4563,
      "forget": 4564,
      "iful": 4565,
      "joy": 4566,
      "стол": 4567,
      "гляды": 4568,
      "эллэрэ": 4569,
      "Але": 4570,
      "край": 4571,
      "Ca": 4572,
      "ouch": 4573,
      "прекрас": 4574,
      "кров": 4575,
      "горя": 4576,
      "Оло": 4577,
      "drive": 4578,
      "мысль": 4579,
      "urs": 4580,
      "бастаан": 4581,
      "eh": 4582,
      "пит": 4583,
      "откры": 4584,
      "нег": 4585,
      "артыы": 4586,
      "омуктар": 4587,
      "веро": 4588,
      "салайааччы": 4589,
      "easy": 4590,
      "каҕа": 4591,
      "met": 4592,
      "повто": 4593,
      "коро": 4594,
      "үрүҥ": 4595,
      "дам": 4596,
      "хочет": 4597,
      "преж": 4598,
      "zy": 4599,
      "гына": 4600,
      "хра": 4601,
      "цело": 4602,
      "өлөр": 4603,
      "words": 4604,
      "чать": 4605,
      "playing": 4606,
      "innit": 4607,
      "ҥхо": 4608,
      "почему": 4609,
      "сел": 4610,
      "созна": 4611,
      "Петро": 4612,
      "Ste": 4613,
      "gin": 4614,
      "охсу": 4615,
      "видеть": 4616,
      "ыарыы": 4617,
      "ates": 4618,
      "оде": 4619,
      "bot": 4620,
      "урукку": 4621,
      "Nothing": 4622,
      "киирэр": 4623,
      "ака": 4624,
      "вопро": 4625,
      "вила": 4626,
      "билэр": 4627,
      "married": 4628,
      "довольно": 4629,
      "norm": 4630,
      "██████": 4631,
      "squ": 4632,
      "эбитэ": 4633,
      "ката": 4634,
      "сору": 4635,
      "глаз": 4636,
      "самого": 4637,
      "доҕ": 4638,
      "onest": 4639,
      "случа": 4640,
      "ьер": 4641,
      "гами": 4642,
      "барар": 4643,
      "ток": 4644,
      "непре": 4645,
      "table": 4646,
      "зре": 4647,
      "ii": 4648,
      "скры": 4649,
      "нуучча": 4650,
      "цар": 4651,
      "пошел": 4652,
      "Иванович": 4653,
      "таһынан": 4654,
      "Pet": 4655,
      "sat": 4656,
      "bas": 4657,
      "mach": 4658,
      "Вас": 4659,
      "Very": 4660,
      "нным": 4661,
      "ньи": 4662,
      "кыл": 4663,
      "побе": 4664,
      "год": 4665,
      "сылларга": 4666,
      "лааҕы": 4667,
      "сад": 4668,
      "ственнай": 4669,
      "Sure": 4670,
      "табыл": 4671,
      "mummy": 4672,
      "Please": 4673,
      "тарҕа": 4674,
      "fifteen": 4675,
      "Eng": 4676,
      "пода": 4677,
      "umb": 4678,
      "тахсар": 4679,
      "хаһаайы": 4680,
      "16": 4681,
      "sum": 4682,
      "эхтэр": 4683,
      "noon": 4684,
      "оннук": 4685,
      "саҕала": 4686,
      "huh": 4687,
      "испу": 4688,
      "arter": 4689,
      "ппит": 4690,
      "ages": 4691,
      "cept": 4692,
      "fect": 4693,
      "tap": 4694,
      "котором": 4695,
      "hы": 4696,
      "сыла": 4697,
      "ung": 4698,
      "нил": 4699,
      "слово": 4700,
      "киһиэхэ": 4701,
      "teach": 4702,
      "mus": 4703,
      "знаете": 4704,
      "толку": 4705,
      "балы": 4706,
      "поро": 4707,
      "туора": 4708,
      "очч": 4709,
      "ьа": 4710,
      "однако": 4711,
      "бөлөх": 4712,
      "нрав": 4713,
      "solutely": 4714,
      "qui": 4715,
      "кыһыл": 4716,
      "mb": 4717,
      "mes": 4718,
      "диэки": 4719,
      "тила": 4720,
      "сааһы": 4721,
      "бэрт": 4722,
      "счита": 4723,
      "anyone": 4724,
      "стей": 4725,
      "времени": 4726,
      "собой": 4727,
      "sometimes": 4728,
      "fall": 4729,
      "que": 4730,
      "bb": 4731,
      "near": 4732,
      "дерев": 4733,
      "али": 4734,
      "Pro": 4735,
      "мою": 4736,
      "hи": 4737,
      "offee": 4738,
      "az": 4739,
      "рын": 4740,
      "Qu": 4741,
      "уби": 4742,
      "стоял": 4743,
      "ught": 4744,
      "кыайан": 4745,
      "кир": 4746,
      "доров": 4747,
      "cost": 4748,
      "сүүр": 4749,
      "холобур": 4750,
      "господ": 4751,
      "ev": 4752,
      "уви": 4753,
      "дна": 4754,
      "пья": 4755,
      "вышел": 4756,
      "Лев": 4757,
      "вор": 4758,
      "killed": 4759,
      "тить": 4760,
      "стах": 4761,
      "голосом": 4762,
      "roll": 4763,
      "шения": 4764,
      "оҕону": 4765,
      "cess": 4766,
      "lid": 4767,
      "стыы": 4768,
      "тус": 4769,
      "EN": 4770,
      "сытар": 4771,
      "birth": 4772,
      "ds": 4773,
      "жны": 4774,
      "суд": 4775,
      "спор": 4776,
      "сви": 4777,
      "рина": 4778,
      "kno": 4779,
      "ьевич": 4780,
      "Miss": 4781,
      "laugh": 4782,
      "Dav": 4783,
      "dep": 4784,
      "New": 4785,
      "щая": 4786,
      "Арка": 4787,
      "plan": 4788,
      "рассказы": 4789,
      "Monday": 4790,
      "иннинэ": 4791,
      "каз": 4792,
      "могла": 4793,
      "taken": 4794,
      "proper": 4795,
      "сэрии": 4796,
      "хлю": 4797,
      "ствия": 4798,
      "ted": 4799,
      "универ": 4800,
      "иити": 4801,
      "үкэ": 4802,
      "вались": 4803,
      "дале": 4804,
      "началь": 4805,
      "bye": 4806,
      "дьо": 4807,
      "лые": 4808,
      "дверь": 4809,
      "талы": 4810,
      "куп": 4811,
      "своем": 4812,
      "Анна": 4813,
      "дык": 4814,
      "баһ": 4815,
      "мило": 4816,
      "ces": 4817,
      "лыы": 4818,
      "физ": 4819,
      "ления": 4820,
      "культура": 4821,
      "бэс": 4822,
      "полити": 4823,
      "perhaps": 4824,
      "говорили": 4825,
      "aye": 4826,
      "көмү": 4827,
      "ммыта": 4828,
      "тать": 4829,
      "Take": 4830,
      "вчера": 4831,
      "нею": 4832,
      "вед": 4833,
      "үлэтин": 4834,
      "Нехлю": 4835,
      "hа": 4836,
      "ющий": 4837,
      "tried": 4838,
      "Gre": 4839,
      "party": 4840,
      "px": 4841,
      "мною": 4842,
      "кутта": 4843,
      "weekend": 4844,
      "һугар": 4845,
      "мини": 4846,
      "теат": 4847,
      "Three": 4848,
      "баара": 4849,
      "үтэ": 4850,
      "меся": 4851,
      "слышал": 4852,
      "Thanks": 4853,
      "Could": 4854,
      "Fuck": 4855,
      "ital": 4856,
      "рай": 4857,
      "көтө": 4858,
      "нэрин": 4859,
      "Jes": 4860,
      "өөн": 4861,
      "стуу": 4862,
      "ator": 4863,
      "tic": 4864,
      "повер": 4865,
      "ars": 4866,
      "afternoon": 4867,
      "үйэ": 4868,
      "форма": 4869,
      "sick": 4870,
      "гри": 4871,
      "около": 4872,
      "уран": 4873,
      "быһаарар": 4874,
      "len": 4875,
      "кричал": 4876,
      "өрөспүүбүл": 4877,
      "жды": 4878,
      "науч": 4879,
      "алпа": 4880,
      "стороны": 4881,
      "үлэлээбит": 4882,
      "первый": 4883,
      "pat": 4884,
      "Ви": 4885,
      "ллан": 4886,
      "ug": 4887,
      "colle": 4888,
      "guys": 4889,
      "быһаарыы": 4890,
      "Wa": 4891,
      "сут": 4892,
      "build": 4893,
      "төрөөбүтэ": 4894,
      "ология": 4895,
      "question": 4896,
      "piece": 4897,
      "lay": 4898,
      "дара": 4899,
      "нулась": 4900,
      "таллар": 4901,
      "лэрэ": 4902,
      "obv": 4903,
      "бүтүн": 4904,
      "аҕыйах": 4905,
      "сайдан": 4906,
      "глядя": 4907,
      "улыба": 4908,
      "eyes": 4909,
      "поте": 4910,
      "призна": 4911,
      "оҥоһу": 4912,
      "тынньы": 4913,
      "бэлиэтэ": 4914,
      "щал": 4915,
      "зачем": 4916,
      "потре": 4917,
      "нааҕы": 4918,
      "майгы": 4919,
      "уб": 4920,
      "энэн": 4921,
      "close": 4922,
      "Give": 4923,
      "Cor": 4924,
      "гна": 4925,
      "test": 4926,
      "present": 4927,
      "garden": 4928,
      "бно": 4929,
      "daddy": 4930,
      "алпабыы": 4931,
      "story": 4932,
      "заве": 4933,
      "running": 4934,
      "mp": 4935,
      "200": 4936,
      "waiting": 4937,
      "Бы": 4938,
      "помо": 4939,
      "alone": 4940,
      "14": 4941,
      "Только": 4942,
      "этэллэр": 4943,
      "свер": 4944,
      "вопрос": 4945,
      "эрдэр": 4946,
      "AR": 4947,
      "тая": 4948,
      "туу": 4949,
      "бун": 4950,
      "муус": 4951,
      "ктора": 4952,
      "снова": 4953,
      "хой": 4954,
      "brought": 4955,
      "Ки": 4956,
      "других": 4957,
      "сатаа": 4958,
      "сни": 4959,
      "никто": 4960,
      "сылы": 4961,
      "чувству": 4962,
      "ised": 4963,
      "food": 4964,
      "inside": 4965,
      "часто": 4966,
      "сно": 4967,
      "аймах": 4968,
      "төһө": 4969,
      "cus": 4970,
      "буор": 4971,
      "deal": 4972,
      "тохто": 4973,
      "13": 4974,
      "orge": 4975,
      "алары": 4976,
      "ared": 4977,
      "girls": 4978,
      "тора": 4979,
      "Ту": 4980,
      "осту": 4981,
      "бен": 4982,
      "үөрэҕэ": 4983,
      "ехать": 4984,
      "pas": 4985,
      "пом": 4986,
      "жении": 4987,
      "across": 4988,
      "улуус": 4989,
      "сюда": 4990,
      "чах": 4991,
      "души": 4992,
      "арга": 4993,
      "федера": 4994,
      "крыл": 4995,
      "David": 4996,
      "заметил": 4997,
      "ыраах": 4998,
      "Оттон": 4999,
      "coffee": 5000,
      "check": 5001,
      "tw": 5002,
      "сыыйа": 5003,
      "heart": 5004,
      "скор": 5005,
      "сделать": 5006,
      "слыша": 5007,
      "цион": 5008,
      "Андрей": 5009,
      "мон": 5010,
      "ono": 5011,
      "көҥ": 5012,
      "тоҕо": 5013,
      "sixty": 5014,
      "какая": 5015,
      "nobody": 5016,
      "дания": 5017,
      "төрд": 5018,
      "inv": 5019,
      "сыры": 5020,
      "hadn": 5021,
      "отец": 5022,
      "пя": 5023,
      "мель": 5024,
      "вича": 5025,
      "uth": 5026,
      "чо": 5027,
      "руками": 5028,
      "кытты": 5029,
      "яр": 5030,
      "россия": 5031,
      "Mhm": 5032,
      "жит": 5033,
      "сидел": 5034,
      "вычай": 5035,
      "төрүт": 5036,
      "beautiful": 5037,
      "Char": 5038,
      "вай": 5039,
      "дав": 5040,
      "письмо": 5041,
      "наш": 5042,
      "лий": 5043,
      "hurt": 5044,
      "ҕас": 5045,
      "lady": 5046,
      "floor": 5047,
      "настоя": 5048,
      "моего": 5049,
      "class": 5050,
      "сите": 5051,
      "сибэ": 5052,
      "police": 5053,
      "таким": 5054,
      "ically": 5055,
      "Yeahbut": 5056,
      "танар": 5057,
      "damn": 5058,
      "Tr": 5059,
      "такие": 5060,
      "кыайыы": 5061,
      "тахсан": 5062,
      "лааҕа": 5063,
      "көрдө": 5064,
      "говари": 5065,
      "которым": 5066,
      "интере": 5067,
      "хамна": 5068,
      "Биһи": 5069,
      "мень": 5070,
      "Jim": 5071,
      "үөнэ": 5072,
      "thanks": 5073,
      "маҥнай": 5074,
      "емы": 5075,
      "баа": 5076,
      "үгүс": 5077,
      "шку": 5078,
      "ахсын": 5079,
      "chance": 5080,
      "стоит": 5081,
      "любви": 5082,
      "сегодня": 5083,
      "сред": 5084,
      "тка": 5085,
      "арассыы": 5086,
      "imp": 5087,
      "tele": 5088,
      "нных": 5089,
      "law": 5090,
      "bottom": 5091,
      "нок": 5092,
      "өттүгэр": 5093,
      "Se": 5094,
      "takes": 5095,
      "вовсе": 5096,
      "тыллы": 5097,
      "ches": 5098,
      "Михай": 5099,
      "цов": 5100,
      "тые": 5101,
      "эрэр": 5102,
      "утары": 5103,
      "reckon": 5104,
      "испол": 5105,
      "usually": 5106,
      "seem": 5107,
      "подумал": 5108,
      "кт": 5109,
      "итинник": 5110,
      "никола": 5111,
      "wards": 5112,
      "kit": 5113,
      "Кня": 5114,
      "впрочем": 5115,
      "стэ": 5116,
      "pens": 5117,
      "ходить": 5118,
      "кубулу": 5119,
      "everyone": 5120,
      "чрезвычай": 5121,
      "gy": 5122,
      "извест": 5123,
      "арассыыйа": 5124,
      "Bet": 5125,
      "вне": 5126,
      "хотугу": 5127,
      "амма": 5128,
      "буолуохтаах": 5129,
      "дина": 5130,
      "green": 5131,
      "устро": 5132,
      "raid": 5133,
      "правда": 5134,
      "Ин": 5135,
      "национа": 5136,
      "стыыр": 5137,
      "страш": 5138,
      "order": 5139,
      "serv": 5140,
      "Петербур": 5141,
      "эконо": 5142,
      "һэн": 5143,
      "похо": 5144,
      "думать": 5145,
      "пора": 5146,
      "езд": 5147,
      "кроме": 5148,
      "vide": 5149,
      "кля": 5150,
      "мии": 5151,
      "двух": 5152,
      "fish": 5153,
      "чение": 5154,
      "aster": 5155,
      "мысле": 5156,
      "биирдии": 5157,
      "дут": 5158,
      "привы": 5159,
      "сомне": 5160,
      "aught": 5161,
      "country": 5162,
      "ыты": 5163,
      "какое": 5164,
      "forgot": 5165,
      "олору": 5166,
      "ali": 5167,
      "дель": 5168,
      "эҕэр": 5169,
      "Теперь": 5170,
      "fill": 5171,
      "цо": 5172,
      "тахса": 5173,
      "fight": 5174,
      "sal": 5175,
      "буру": 5176,
      "eleven": 5177,
      "үнэ": 5178,
      "sweet": 5179,
      "несмотря": 5180,
      "алдан": 5181,
      "дааҕы": 5182,
      "оҕу": 5183,
      "степе": 5184,
      "ult": 5185,
      "олорон": 5186,
      "ария": 5187,
      "мна": 5188,
      "lish": 5189,
      "этилэр": 5190,
      "нары": 5191,
      "начина": 5192,
      "каким": 5193,
      "һаа": 5194,
      "буолбатах": 5195,
      "sister": 5196,
      "бааллар": 5197,
      "биэри": 5198,
      "скать": 5199,
      "держа": 5200,
      "солбу": 5201,
      "балаҕан": 5202,
      "этт": 5203,
      "Mummy": 5204,
      "cal": 5205,
      "нице": 5206,
      "бас": 5207,
      "colour": 5208,
      "Bye": 5209,
      "mill": 5210,
      "взял": 5211,
      "лая": 5212,
      "тиийэн": 5213,
      "нена": 5214,
      "хаачч": 5215,
      "иллибит": 5216,
      "деву": 5217,
      "оҥоруу": 5218,
      "круг": 5219,
      "разве": 5220,
      "comple": 5221,
      "төг": 5222,
      "ҕал": 5223,
      "putting": 5224,
      "ield": 5225,
      "Jesus": 5226,
      "стру": 5227,
      "саҥаны": 5228,
      "Pardon": 5229,
      "нения": 5230,
      "рии": 5231,
      "ыарах": 5232,
      "деть": 5233,
      "Мак": 5234,
      "foll": 5235,
      "Его": 5236,
      "шля": 5237,
      "самое": 5238,
      "сүү": 5239,
      "ющих": 5240,
      "Say": 5241,
      "seems": 5242,
      "wood": 5243,
      "алпабыытынан": 5244,
      "Пол": 5245,
      "валась": 5246,
      "товари": 5247,
      "кыахтаах": 5248,
      "middle": 5249,
      "сэргэ": 5250,
      "үлүү": 5251,
      "Hi": 5252,
      "Twenty": 5253,
      "Пу": 5254,
      "чали": 5255,
      "өлл": 5256,
      "мет": 5257,
      "близ": 5258,
      "весело": 5259,
      "chair": 5260,
      "четы": 5261,
      "сыллар": 5262,
      "анаан": 5263,
      "креп": 5264,
      "mouth": 5265,
      "вперед": 5266,
      "култуура": 5267,
      "стэрэ": 5268,
      "щей": 5269,
      "вскри": 5270,
      "бума": 5271,
      "birthday": 5272,
      "hus": 5273,
      "honest": 5274,
      "wing": 5275,
      "finite": 5276,
      "ures": 5277,
      "күнэ": 5278,
      "дешь": 5279,
      "тен": 5280,
      "Bar": 5281,
      "lunch": 5282,
      "оттон": 5283,
      "ужасно": 5284,
      "Биир": 5285,
      "gun": 5286,
      "nearly": 5287,
      "вей": 5288,
      "ааттан": 5289,
      "саныы": 5290,
      "cop": 5291,
      "turned": 5292,
      "short": 5293,
      "gram": 5294,
      "ky": 5295,
      "үөрэтэр": 5296,
      "скую": 5297,
      "against": 5298,
      "слав": 5299,
      "mad": 5300,
      "бри": 5301,
      "винова": 5302,
      "представ": 5303,
      "комнате": 5304,
      "вну": 5305,
      "нарын": 5306,
      "зап": 5307,
      "отца": 5308,
      "кулун": 5309,
      "жели": 5310,
      "quarter": 5311,
      "золо": 5312,
      "комнату": 5313,
      "Пьер": 5314,
      "pass": 5315,
      "лага": 5316,
      "Ann": 5317,
      "husband": 5318,
      "doctor": 5319,
      "office": 5320,
      "возвра": 5321,
      "экономи": 5322,
      "Ил": 5323,
      "Bl": 5324,
      "owed": 5325,
      "oking": 5326,
      "разу": 5327,
      "собою": 5328,
      "irty": 5329,
      "следу": 5330,
      "күүстээх": 5331,
      "11": 5332,
      "старик": 5333,
      "арҕаа": 5334,
      "ждения": 5335,
      "вили": 5336,
      "прия": 5337,
      "искус": 5338,
      "пример": 5339,
      "Тут": 5340,
      "үөрэтии": 5341,
      "кен": 5342,
      "головой": 5343,
      "гря": 5344,
      "губер": 5345,
      "жена": 5346,
      "кыргы": 5347,
      "волю": 5348,
      "говорят": 5349,
      "рей": 5350,
      "этому": 5351,
      "ork": 5352,
      "үөрэҕин": 5353,
      "республика": 5354,
      "Ben": 5355,
      "сүөһ": 5356,
      "вают": 5357,
      "мая": 5358,
      "эммит": 5359,
      "думаю": 5360,
      "Anyway": 5361,
      "угар": 5362,
      "ына": 5363,
      "нос": 5364,
      "kept": 5365,
      "терпе": 5366,
      "олун": 5367,
      "лова": 5368,
      "Yep": 5369,
      "уг": 5370,
      "хле": 5371,
      "улууһугар": 5372,
      "краси": 5373,
      "эһэ": 5374,
      "hands": 5375,
      "irt": 5376,
      "благодар": 5377,
      "пут": 5378,
      "enjoy": 5379,
      "кытары": 5380,
      "main": 5381,
      "meant": 5382,
      "тунан": 5383,
      "мом": 5384,
      "прези": 5385,
      "bank": 5386,
      "гром": 5387,
      "үһү": 5388,
      "Ric": 5389,
      "удар": 5390,
      "дьыала": 5391,
      "куһаҕаны": 5392,
      "люблю": 5393,
      "touch": 5394,
      "throw": 5395,
      "бааһы": 5396,
      "urch": 5397,
      "пала": 5398,
      "серь": 5399,
      "ER": 5400,
      "ves": 5401,
      "киниг": 5402,
      "стари": 5403,
      "Only": 5404,
      "eal": 5405,
      "ends": 5406,
      "Билигин": 5407,
      "Вер": 5408,
      "тами": 5409,
      "меч": 5410,
      "күөл": 5411,
      "циятын": 5412,
      "опу": 5413,
      "hael": 5414,
      "аах": 5415,
      "ловна": 5416,
      "пожалуй": 5417,
      "cli": 5418,
      "теля": 5419,
      "Thurs": 5420,
      "Amer": 5421,
      "дыы": 5422,
      "ition": 5423,
      "батта": 5424,
      "проговорил": 5425,
      "билбэт": 5426,
      "болез": 5427,
      "тылынан": 5428,
      "нэргэ": 5429,
      "үчүгэйи": 5430,
      "Гос": 5431,
      "вину": 5432,
      "нэри": 5433,
      "Cl": 5434,
      "chen": 5435,
      "рубле": 5436,
      "судь": 5437,
      "харак": 5438,
      "afraid": 5439,
      "другу": 5440,
      "төрөппүтт": 5441,
      "Americ": 5442,
      "ced": 5443,
      "fig": 5444,
      "Зна": 5445,
      "дум": 5446,
      "нье": 5447,
      "аатын": 5448,
      "тарга": 5449,
      "Didn": 5450,
      "ail": 5451,
      "маан": 5452,
      "post": 5453,
      "gest": 5454,
      "сылдьыбыт": 5455,
      "Степа": 5456,
      "непременно": 5457,
      "посе": 5458,
      "bits": 5459,
      "доме": 5460,
      "Наташа": 5461,
      "About": 5462,
      "щий": 5463,
      "лав": 5464,
      "Раз": 5465,
      "лээх": 5466,
      "нимал": 5467,
      "князя": 5468,
      "худо": 5469,
      "санаалаах": 5470,
      "обуйа": 5471,
      "ницы": 5472,
      "boys": 5473,
      "His": 5474,
      "hes": 5475,
      "blue": 5476,
      "bother": 5477,
      "көмө": 5478,
      "чинчий": 5479,
      "Per": 5480,
      "обходи": 5481,
      "Алексе": 5482,
      "выс": 5483,
      "всей": 5484,
      "chee": 5485,
      "answer": 5486,
      "каждый": 5487,
      "iting": 5488,
      "суда": 5489,
      "соҕуруу": 5490,
      "Wed": 5491,
      "тук": 5492,
      "цен": 5493,
      "sub": 5494,
      "mic": 5495,
      "среди": 5496,
      "хап": 5497,
      "peri": 5498,
      "удоволь": 5499,
      "читал": 5500,
      "pair": 5501,
      "unk": 5502,
      "ээччи": 5503,
      "ахсаана": 5504,
      "spo": 5505,
      "илэ": 5506,
      "бре": 5507,
      "элбэхтик": 5508,
      "держи": 5509,
      "imag": 5510,
      "буолаллар": 5511,
      "кэргэ": 5512,
      "нец": 5513,
      "clear": 5514,
      "смотреть": 5515,
      "lves": 5516,
      "вспомни": 5517,
      "sme": 5518,
      "хло": 5519,
      "суруйааччы": 5520,
      "образом": 5521,
      "серьез": 5522,
      "Кто": 5523,
      "Has": 5524,
      "shot": 5525,
      "щего": 5526,
      "lose": 5527,
      "подви": 5528,
      "carry": 5529,
      "Алексей": 5530,
      "tin": 5531,
      "пят": 5532,
      "өлбүттэр": 5533,
      "ыарахан": 5534,
      "эннэр": 5535,
      "doll": 5536,
      "сунньу": 5537,
      "бый": 5538,
      "немного": 5539,
      "ылла": 5540,
      "уларый": 5541,
      "көстөр": 5542,
      "матри": 5543,
      "йдар": 5544,
      "сэбиэскэй": 5545,
      "Har": 5546,
      "Six": 5547,
      "сму": 5548,
      "ыам": 5549,
      "хаил": 5550,
      "чиво": 5551,
      "жало": 5552,
      "мра": 5553,
      "дида": 5554,
      "pub": 5555,
      "ats": 5556,
      "станов": 5557,
      "нэһилиэгэр": 5558,
      "obviously": 5559,
      "киьи": 5560,
      "living": 5561,
      "спорт": 5562,
      "любит": 5563,
      "улаатан": 5564,
      "хор": 5565,
      "другие": 5566,
      "24": 5567,
      "арый": 5568,
      "може": 5569,
      "көһ": 5570,
      "туда": 5571,
      "arm": 5572,
      "himself": 5573,
      "стыбатын": 5574,
      "счастли": 5575,
      "Чи": 5576,
      "бог": 5577,
      "ээбит": 5578,
      "олохсу": 5579,
      "Four": 5580,
      "тарына": 5581,
      "Richard": 5582,
      "домой": 5583,
      "суу": 5584,
      "быһыылаах": 5585,
      "rain": 5586,
      "хаан": 5587,
      "holid": 5588,
      "tired": 5589,
      "died": 5590,
      "кину": 5591,
      "sex": 5592,
      "aff": 5593,
      "darling": 5594,
      "баһылы": 5595,
      "мг": 5596,
      "одну": 5597,
      "взя": 5598,
      "итинэн": 5599,
      "holiday": 5600,
      "ханна": 5601,
      "айыыны": 5602,
      "тана": 5603,
      "кала": 5604,
      "finish": 5605,
      "IO": 5606,
      "Одна": 5607,
      "Су": 5608,
      "AN": 5609,
      "Che": 5610,
      "wise": 5611,
      "рый": 5612,
      "үлэлии": 5613,
      "Michael": 5614,
      "sid": 5615,
      "сэби": 5616,
      "кандида": 5617,
      "Thursday": 5618,
      "показа": 5619,
      "өрүс": 5620,
      "изд": 5621,
      "Wedn": 5622,
      "vor": 5623,
      "tive": 5624,
      "lit": 5625,
      "буолара": 5626,
      "poor": 5627,
      "умеется": 5628,
      "Биһиги": 5629,
      "дий": 5630,
      "үлэҕэ": 5631,
      "глубо": 5632,
      "ясно": 5633,
      "Россия": 5634,
      "бэтэ": 5635,
      "лым": 5636,
      "Dr": 5637,
      "рга": 5638,
      "шень": 5639,
      "пута": 5640,
      "eighty": 5641,
      "Mind": 5642,
      "ниче": 5643,
      "дере": 5644,
      "түһэр": 5645,
      "любил": 5646,
      "Never": 5647,
      "Иль": 5648,
      "кыла": 5649,
      "women": 5650,
      "given": 5651,
      "daught": 5652,
      "Өр": 5653,
      "Tho": 5654,
      "анг": 5655,
      "дая": 5656,
      "места": 5657,
      "стару": 5658,
      "медленно": 5659,
      "един": 5660,
      "схва": 5661,
      "aces": 5662,
      "явля": 5663,
      "тутан": 5664,
      "үлэр": 5665,
      "чилось": 5666,
      "сился": 5667,
      "эппи": 5668,
      "Гри": 5669,
      "Фома": 5670,
      "ond": 5671,
      "ыларыгар": 5672,
      "acket": 5673,
      "finitely": 5674,
      "дон": 5675,
      "ney": 5676,
      "30": 5677,
      "опа": 5678,
      "щен": 5679,
      "Dan": 5680,
      "лой": 5681,
      "Wait": 5682,
      "Tu": 5683,
      "квар": 5684,
      "блю": 5685,
      "ругар": 5686,
      "свете": 5687,
      "rol": 5688,
      "jp": 5689,
      "needs": 5690,
      "works": 5691,
      "lol": 5692,
      "көмөлө": 5693,
      "хозяй": 5694,
      "тю": 5695,
      "дым": 5696,
      "тутуу": 5697,
      "аччы": 5698,
      "проис": 5699,
      "music": 5700,
      "atch": 5701,
      "двор": 5702,
      "дьахтар": 5703,
      "большой": 5704,
      "Man": 5705,
      "необходи": 5706,
      "своими": 5707,
      "киһитэ": 5708,
      "ming": 5709,
      "туй": 5710,
      "тум": 5711,
      "подле": 5712,
      "гер": 5713,
      "гости": 5714,
      "kitchen": 5715,
      "ува": 5716,
      "emp": 5717,
      "surpr": 5718,
      "гө": 5719,
      "лично": 5720,
      "принима": 5721,
      "pleas": 5722,
      "spend": 5723,
      "билиҥҥи": 5724,
      "ments": 5725,
      "салгыы": 5726,
      "III": 5727,
      "үлэһитэ": 5728,
      "вшей": 5729,
      "death": 5730,
      "нэригэр": 5731,
      "көрөр": 5732,
      "такого": 5733,
      "тула": 5734,
      "соба": 5735,
      "дьонун": 5736,
      "рдьах": 5737,
      "буоларын": 5738,
      "news": 5739,
      "акаде": 5740,
      "дээх": 5741,
      "convers": 5742,
      "блед": 5743,
      "ground": 5744,
      "cket": 5745,
      "rown": 5746,
      "видимо": 5747,
      "jpg": 5748,
      "rad": 5749,
      "ющие": 5750,
      "dream": 5751,
      "нение": 5752,
      "түргэн": 5753,
      "дцать": 5754,
      "пот": 5755,
      "сделал": 5756,
      "запи": 5757,
      "хотелось": 5758,
      "үөскээбит": 5759,
      "picture": 5760,
      "физи": 5761,
      "уҥ": 5762,
      "import": 5763,
      "ris": 5764,
      "улэ": 5765,
      "conf": 5766,
      "вшая": 5767,
      "коман": 5768,
      "crazy": 5769,
      "Кон": 5770,
      "дости": 5771,
      "spital": 5772,
      "Степан": 5773,
      "Вла": 5774,
      "кыта": 5775,
      "Listen": 5776,
      "ждал": 5777,
      "кун": 5778,
      "ттаах": 5779,
      "Wednesday": 5780,
      "мери": 5781,
      "дьиҥ": 5782,
      "саастаах": 5783,
      "расп": 5784,
      "женщина": 5785,
      "ел": 5786,
      "жением": 5787,
      "ject": 5788,
      "узна": 5789,
      "обла": 5790,
      "ааттанар": 5791,
      "учуона": 5792,
      "Ла": 5793,
      "icken": 5794,
      "gn": 5795,
      "кэтэ": 5796,
      "oup": 5797,
      "тэрилли": 5798,
      "vision": 5799,
      "ад": 5800,
      "олук": 5801,
      "түүл": 5802,
      "өк": 5803,
      "тыыннаах": 5804,
      "сня": 5805,
      "fit": 5806,
      "upstairs": 5807,
      "тье": 5808,
      "feet": 5809,
      "стыбан": 5810,
      "gent": 5811,
      "absolutely": 5812,
      "tee": 5813,
      "Pe": 5814,
      "зер": 5815,
      "ччылар": 5816,
      "кыыс": 5817,
      "кали": 5818,
      "вижу": 5819,
      "валось": 5820,
      "Дьэ": 5821,
      "хаар": 5822,
      "широ": 5823,
      "оллор": 5824,
      "иде": 5825,
      "биллиилээх": 5826,
      "илик": 5827,
      "төөх": 5828,
      "lying": 5829,
      "предло": 5830,
      "possible": 5831,
      "wers": 5832,
      "ницу": 5833,
      "happens": 5834,
      "changed": 5835,
      "25": 5836,
      "unt": 5837,
      "киири": 5838,
      "айымньы": 5839,
      "follow": 5840,
      "тали": 5841,
      "заклю": 5842,
      "кыһа": 5843,
      "устата": 5844,
      "муннь": 5845,
      "хайыс": 5846,
      "улаханнык": 5847,
      "сатаан": 5848,
      "гео": 5849,
      "dark": 5850,
      "bott": 5851,
      "дору": 5852,
      "мати": 5853,
      "mate": 5854,
      "бутун": 5855,
      "якутия": 5856,
      "dding": 5857,
      "бесп": 5858,
      "worked": 5859,
      "служ": 5860,
      "оле": 5861,
      "ларынан": 5862,
      "сайы": 5863,
      "словно": 5864,
      "поко": 5865,
      "дух": 5866,
      "гэй": 5867,
      "самой": 5868,
      "Con": 5869,
      "чный": 5870,
      "power": 5871,
      "grow": 5872,
      "юшка": 5873,
      "солн": 5874,
      "hello": 5875,
      "двери": 5876,
      "любовь": 5877,
      "бүн": 5878,
      "eral": 5879,
      "comm": 5880,
      "тэрилтэ": 5881,
      "скорее": 5882,
      "thes": 5883,
      "Петрович": 5884,
      "своему": 5885,
      "үлэни": 5886,
      "таатта": 5887,
      "көмүс": 5888,
      "христи": 5889,
      "чить": 5890,
      "этинньи": 5891,
      "айымнь": 5892,
      "окру": 5893,
      "det": 5894,
      "ренно": 5895,
      "зави": 5896,
      "жая": 5897,
      "TH": 5898,
      "ссрс": 5899,
      "mag": 5900,
      "val": 5901,
      "шеп": 5902,
      "awful": 5903,
      "сокуон": 5904,
      "Стар": 5905,
      "наши": 5906,
      "билим": 5907,
      "feeling": 5908,
      "watching": 5909,
      "вечер": 5910,
      "суруйаачч": 5911,
      "киини": 5912,
      "димир": 5913,
      "кэли": 5914,
      "лицу": 5915,
      "смотр": 5916,
      "Wal": 5917,
      "cas": 5918,
      "совет": 5919,
      "cover": 5920,
      "complete": 5921,
      "ахсынньы": 5922,
      "укра": 5923,
      "скому": 5924,
      "тохсунньу": 5925,
      "тылыгар": 5926,
      "рази": 5927,
      "ым": 5928,
      "капи": 5929,
      "николай": 5930,
      "анах": 5931,
      "уобала": 5932,
      "Uh": 5933,
      "эрг": 5934,
      "save": 5935,
      "ген": 5936,
      "рад": 5937,
      "дает": 5938,
      "меди": 5939,
      "нускай": 5940,
      "ээччилэр": 5941,
      "уро": 5942,
      "уот": 5943,
      "ited": 5944,
      "terrible": 5945,
      "ears": 5946,
      "bedroom": 5947,
      "проти": 5948,
      "впол": 5949,
      "үүтэ": 5950,
      "кер": 5951,
      "сиби": 5952,
      "using": 5953,
      "cap": 5954,
      "странно": 5955,
      "өрөспүүбүлүкэ": 5956,
      "илэрин": 5957,
      "ольно": 5958,
      "үөскүүр": 5959,
      "daughter": 5960,
      "верх": 5961,
      "весьма": 5962,
      "памя": 5963,
      "биэрэр": 5964,
      "сед": 5965,
      "олоҥхо": 5966,
      "Потом": 5967,
      "ames": 5968,
      "sense": 5969,
      "мгнове": 5970,
      "наҕ": 5971,
      "лест": 5972,
      "луур": 5973,
      "евро": 5974,
      "яться": 5975,
      "гото": 5976,
      "буолуон": 5977,
      "lives": 5978,
      "tle": 5979,
      "ыары": 5980,
      "бэчэ": 5981,
      "түөр": 5982,
      "стыҥ": 5983,
      "молодой": 5984,
      "pho": 5985,
      "van": 5986,
      "акка": 5987,
      "felt": 5988,
      "seventy": 5989,
      "алта": 5990,
      "чения": 5991,
      "боппу": 5992,
      "Mary": 5993,
      "gan": 5994,
      "wea": 5995,
      "зов": 5996,
      "былаа": 5997,
      "оннь": 5998,
      "blood": 5999,
      "этэлэ": 6000,
      "дьыл": 6001,
      "щения": 6002,
      "сүһ": 6003,
      "генерал": 6004,
      "бля": 6005,
      "тарыгар": 6006,
      "bla": 6007,
      "зм": 6008,
      "вина": 6009,
      "ics": 6010,
      "туруор": 6011,
      "une": 6012,
      "таких": 6013,
      "ices": 6014,
      "шен": 6015,
      "эрэй": 6016,
      "комнаты": 6017,
      "Левин": 6018,
      "щик": 6019,
      "ново": 6020,
      "вается": 6021,
      "Mark": 6022,
      "институ": 6023,
      "такая": 6024,
      "ants": 6025,
      "стук": 6026,
      "счасть": 6027,
      "вольте": 6028,
      "era": 6029,
      "бичик": 6030,
      "George": 6031,
      "selves": 6032,
      "тимир": 6033,
      "walking": 6034,
      "таһаар": 6035,
      "алтынньы": 6036,
      "элэригэр": 6037,
      "video": 6038,
      "сулу": 6039,
      "атах": 6040,
      "тухары": 6041,
      "machine": 6042,
      "аһын": 6043,
      "стие": 6044,
      "illi": 6045,
      "жили": 6046,
      "өйүн": 6047,
      "difference": 6048,
      "самый": 6049,
      "четыре": 6050,
      "arr": 6051,
      "дире": 6052,
      "truth": 6053,
      "идти": 6054,
      "Федоро": 6055,
      "суоҕа": 6056,
      "ial": 6057,
      "sun": 6058,
      "сне": 6059,
      "подошел": 6060,
      "catch": 6061,
      "уопса": 6062,
      "аре": 6063,
      "саас": 6064,
      "bloke": 6065,
      "писал": 6066,
      "hum": 6067,
      "сиэр": 6068,
      "thinks": 6069,
      "ries": 6070,
      "reali": 6071,
      "Bob": 6072,
      "доста": 6073,
      "обраща": 6074,
      "Павел": 6075,
      "бэлиэ": 6076,
      "important": 6077,
      "вия": 6078,
      "буу": 6079,
      "вания": 6080,
      "бря": 6081,
      "coat": 6082,
      "fing": 6083,
      "тили": 6084,
      "Алеша": 6085,
      "ding": 6086,
      "рукой": 6087,
      "дура": 6088,
      "уур": 6089,
      "хампа": 6090,
      "земле": 6091,
      "prom": 6092,
      "йааччы": 6093,
      "тяжело": 6094,
      "English": 6095,
      "ради": 6096,
      "роб": 6097,
      "тыыллар": 6098,
      "egg": 6099,
      "вон": 6100,
      "мимо": 6101,
      "знаком": 6102,
      "легко": 6103,
      "giving": 6104,
      "уз": 6105,
      "pan": 6106,
      "Онно": 6107,
      "вшим": 6108,
      "думала": 6109,
      "tend": 6110,
      "туттан": 6111,
      "үтүн": 6112,
      "үлэлээбитэ": 6113,
      "instead": 6114,
      "drop": 6115,
      "ктор": 6116,
      "pop": 6117,
      "US": 6118,
      "Росто": 6119,
      "reg": 6120,
      "онну": 6121,
      "сотору": 6122,
      "кыай": 6123,
      "likes": 6124,
      "Tom": 6125,
      "hospital": 6126,
      "tie": 6127,
      "silly": 6128,
      "бэтин": 6129,
      "ondon": 6130,
      "окон": 6131,
      "smell": 6132,
      "наҕараа": 6133,
      "jump": 6134,
      "Хри": 6135,
      "эккэ": 6136,
      "ыалдь": 6137,
      "господин": 6138,
      "Lu": 6139,
      "идет": 6140,
      "Her": 6141,
      "ыйаа": 6142,
      "лицом": 6143,
      "Daddy": 6144,
      "flat": 6145,
      "бүлэ": 6146,
      "кинини": 6147,
      "вероят": 6148,
      "представля": 6149,
      "beat": 6150,
      "нувшись": 6151,
      "chi": 6152,
      "могли": 6153,
      "туһугар": 6154,
      "ходили": 6155,
      "нож": 6156,
      "санааны": 6157,
      "кырдь": 6158,
      "случае": 6159,
      "рублей": 6160,
      "старыгар": 6161,
      "выше": 6162,
      "эхтэрэ": 6163,
      "тылба": 6164,
      "сэриитин": 6165,
      "үөрэҕи": 6166,
      "Бүлүү": 6167,
      "умер": 6168,
      "разговор": 6169,
      "diff": 6170,
      "До": 6171,
      "ressed": 6172,
      "опре": 6173,
      "бытыгар": 6174,
      "денег": 6175,
      "мат": 6176,
      "Sco": 6177,
      "оскор": 6178,
      "asking": 6179,
      "ступа": 6180,
      "бөҕө": 6181,
      "цве": 6182,
      "mess": 6183,
      "лосо": 6184,
      "знаешь": 6185,
      "кыһал": 6186,
      "эбии": 6187,
      "ҕоон": 6188,
      "рот": 6189,
      "кырдьы": 6190,
      "неве": 6191,
      "сылгы": 6192,
      "өрүтт": 6193,
      "һыын": 6194,
      "правля": 6195,
      "позвол": 6196,
      "La": 6197,
      "длин": 6198,
      "бэккэ": 6199,
      "cially": 6200,
      "любопыт": 6201,
      "решительно": 6202,
      "моих": 6203,
      "отво": 6204,
      "санаалара": 6205,
      "понимаю": 6206,
      "вошел": 6207,
      "тир": 6208,
      "street": 6209,
      "ties": 6210,
      "гическай": 6211,
      "будут": 6212,
      "сильно": 6213,
      "атырдьах": 6214,
      "glad": 6215,
      "жите": 6216,
      "седа": 6217,
      "ird": 6218,
      "anger": 6219,
      "ахсаан": 6220,
      "эппит": 6221,
      "OU": 6222,
      "игэр": 6223,
      "ison": 6224,
      "сот": 6225,
      "sold": 6226,
      "parent": 6227,
      "extra": 6228,
      "оҕолорун": 6229,
      "list": 6230,
      "size": 6231,
      "хайаан": 6232,
      "Ke": 6233,
      "ибо": 6234,
      "These": 6235,
      "һыгар": 6236,
      "lucky": 6237,
      "worse": 6238,
      "Нехлюдов": 6239,
      "Sam": 6240,
      "ыһы": 6241,
      "семей": 6242,
      "lots": 6243,
      "анньа": 6244,
      "film": 6245,
      "университе": 6246,
      "hh": 6247,
      "ахтара": 6248,
      "чуга": 6249,
      "ыйа": 6250,
      "үлэтэ": 6251,
      "өлбүт": 6252,
      "Серг": 6253,
      "остановился": 6254,
      "едва": 6255,
      "ative": 6256,
      "ньурба": 6257,
      "Shut": 6258,
      "kn": 6259,
      "ident": 6260,
      "түмүк": 6261,
      "эрдэ": 6262,
      "fully": 6263,
      "imagine": 6264,
      "ҥҥы": 6265,
      "books": 6266,
      "moved": 6267,
      "дай": 6268,
      "даго": 6269,
      "ааҕ": 6270,
      "былыр": 6271,
      "Арас": 6272,
      "бытым": 6273,
      "удивле": 6274,
      "покой": 6275,
      "алын": 6276,
      "зако": 6277,
      "нээн": 6278,
      "bow": 6279,
      "лла": 6280,
      "ык": 6281,
      "tory": 6282,
      "посте": 6283,
      "хос": 6284,
      "tax": 6285,
      "wind": 6286,
      "ъез": 6287,
      "trust": 6288,
      "stuck": 6289,
      "печат": 6290,
      "шение": 6291,
      "сүн": 6292,
      "Probably": 6293,
      "ied": 6294,
      "oned": 6295,
      "эмм": 6296,
      "apart": 6297,
      "үһүн": 6298,
      "дириҥ": 6299,
      "Об": 6300,
      "улус": 6301,
      "ыыта": 6302,
      "ыытыллы": 6303,
      "dec": 6304,
      "оруйа": 6305,
      "нашего": 6306,
      "stem": 6307,
      "баан": 6308,
      "known": 6309,
      "bert": 6310,
      "сторону": 6311,
      "Jean": 6312,
      "Tuesday": 6313,
      "массыы": 6314,
      "скажу": 6315,
      "driving": 6316,
      "fat": 6317,
      "гах": 6318,
      "ирэ": 6319,
      "жила": 6320,
      "одним": 6321,
      "sounds": 6322,
      "ллы": 6323,
      "тас": 6324,
      "жени": 6325,
      "ступле": 6326,
      "бэлиэти": 6327,
      "ссэдэ": 6328,
      "горь": 6329,
      "gas": 6330,
      "дого": 6331,
      "знакомы": 6332,
      "Ed": 6333,
      "Shall": 6334,
      "ient": 6335,
      "view": 6336,
      "quiet": 6337,
      "Dave": 6338,
      "шта": 6339,
      "щих": 6340,
      "тутта": 6341,
      "научнай": 6342,
      "кылаас": 6343,
      "Ман": 6344,
      "дья": 6345,
      "төх": 6346,
      "ими": 6347,
      "ному": 6348,
      "людя": 6349,
      "ющего": 6350,
      "ющим": 6351,
      "дорҕоон": 6352,
      "шут": 6353,
      "нен": 6354,
      "торже": 6355,
      "тых": 6356,
      "эйг": 6357,
      "clothes": 6358,
      "известно": 6359,
      "sim": 6360,
      "оскуолатын": 6361,
      "London": 6362,
      "якутии": 6363,
      "собственно": 6364,
      "company": 6365,
      "смерти": 6366,
      "ka": 6367,
      "vel": 6368,
      "begin": 6369,
      "бүтү": 6370,
      "ужели": 6371,
      "часа": 6372,
      "офице": 6373,
      "охо": 6374,
      "Наконец": 6375,
      "диэбит": 6376,
      "бэйэлэрэ": 6377,
      "останови": 6378,
      "көрө": 6379,
      "others": 6380,
      "threefour": 6381,
      "difficul": 6382,
      "ллара": 6383,
      "руках": 6384,
      "крайней": 6385,
      "Арассыыйа": 6386,
      "Bu": 6387,
      "James": 6388,
      "многи": 6389,
      "пин": 6390,
      "мата": 6391,
      "cake": 6392,
      "үөрэхтээх": 6393,
      "лаабыт": 6394,
      "толоро": 6395,
      "главное": 6396,
      "эд": 6397,
      "нау": 6398,
      "эрэн": 6399,
      "үст": 6400,
      "импера": 6401,
      "вече": 6402,
      "suit": 6403,
      "warm": 6404,
      "казы": 6405,
      "столько": 6406,
      "щение": 6407,
      "приятно": 6408,
      "музыка": 6409,
      "ga": 6410,
      "буттара": 6411,
      "кута": 6412,
      "бега": 6413,
      "пришел": 6414,
      "коли": 6415,
      "харыста": 6416,
      "smo": 6417,
      "олу": 6418,
      "ником": 6419,
      "milk": 6420,
      "чрезвычайно": 6421,
      "Под": 6422,
      "хону": 6423,
      "almost": 6424,
      "сылдьаллар": 6425,
      "paying": 6426,
      "жар": 6427,
      "оли": 6428,
      "далеко": 6429,
      "массыына": 6430,
      "Sa": 6431,
      "пка": 6432,
      "лик": 6433,
      "ныгар": 6434,
      "филосо": 6435,
      "официаль": 6436,
      "детей": 6437,
      "ING": 6438,
      "оба": 6439,
      "оши": 6440,
      "often": 6441,
      "illiant": 6442,
      "читель": 6443,
      "отчая": 6444,
      "педаго": 6445,
      "bread": 6446,
      "Аны": 6447,
      "абыт": 6448,
      "дары": 6449,
      "хит": 6450,
      "ааттаах": 6451,
      "Князь": 6452,
      "Ph": 6453,
      "price": 6454,
      "таһым": 6455,
      "жесто": 6456,
      "нэһилиэгин": 6457,
      "быһаар": 6458,
      "special": 6459,
      "double": 6460,
      "буо": 6461,
      "значит": 6462,
      "бүг": 6463,
      "ходила": 6464,
      "аатыр": 6465,
      "pack": 6466,
      "өм": 6467,
      "арай": 6468,
      "другого": 6469,
      "field": 6470,
      "por": 6471,
      "tur": 6472,
      "мальчи": 6473,
      "социаль": 6474,
      "ряд": 6475,
      "туһалаах": 6476,
      "вшийся": 6477,
      "түнэн": 6478,
      "например": 6479,
      "Joe": 6480,
      "oper": 6481,
      "Тол": 6482,
      "узнал": 6483,
      "гой": 6484,
      "тута": 6485,
      "былаас": 6486,
      "ыраа": 6487,
      "allowed": 6488,
      "program": 6489,
      "кки": 6490,
      "corner": 6491,
      "чилиэнэ": 6492,
      "ging": 6493,
      "вести": 6494,
      "ately": 6495,
      "Татья": 6496,
      "олунньу": 6497,
      "ырыаһы": 6498,
      "thin": 6499,
      "бабу": 6500,
      "лья": 6501,
      "всеми": 6502,
      "дыха": 6503,
      "Впрочем": 6504,
      "зей": 6505,
      "вино": 6506,
      "аныгы": 6507,
      "дево": 6508,
      "спокойно": 6509,
      "Gu": 6510,
      "press": 6511,
      "обя": 6512,
      "тахсыбыт": 6513,
      "потеря": 6514,
      "нина": 6515,
      "информа": 6516,
      "услы": 6517,
      "ттарга": 6518,
      "речи": 6519,
      "няя": 6520,
      "чуот": 6521,
      "тельство": 6522,
      "Tim": 6523,
      "ors": 6524,
      "праз": 6525,
      "дили": 6526,
      "тысяч": 6527,
      "vous": 6528,
      "дү": 6529,
      "туур": 6530,
      "сова": 6531,
      "NoI": 6532,
      "щай": 6533,
      "льно": 6534,
      "нном": 6535,
      "unless": 6536,
      "другое": 6537,
      "ыҥыр": 6538,
      "Five": 6539,
      "способ": 6540,
      "тобой": 6541,
      "барда": 6542,
      "йдээх": 6543,
      "должны": 6544,
      "пуу": 6545,
      "мана": 6546,
      "posit": 6547,
      "exam": 6548,
      "Peter": 6549,
      "horrible": 6550,
      "көҥүл": 6551,
      "swi": 6552,
      "получ": 6553,
      "ожидан": 6554,
      "һах": 6555,
      "разгово": 6556,
      "ситим": 6557,
      "занима": 6558,
      "shoes": 6559,
      "понял": 6560,
      "million": 6561,
      "Дол": 6562,
      "вилась": 6563,
      "тарды": 6564,
      "стыбаннай": 6565,
      "талаан": 6566,
      "чей": 6567,
      "элэргэ": 6568,
      "часов": 6569,
      "очевидно": 6570,
      "bear": 6571,
      "ям": 6572,
      "тоҕ": 6573,
      "поги": 6574,
      "бок": 6575,
      "Василий": 6576,
      "таҥа": 6577,
      "тел": 6578,
      "понять": 6579,
      "суолталаах": 6580,
      "Өрө": 6581,
      "tha": 6582,
      "туол": 6583,
      "chicken": 6584,
      "илип": 6585,
      "туттуллар": 6586,
      "Pr": 6587,
      "аар": 6588,
      "чной": 6589,
      "шему": 6590,
      "тэҥэ": 6591,
      "photo": 6592,
      "бастыҥ": 6593,
      "шем": 6594,
      "seeing": 6595,
      "старга": 6596,
      "ern": 6597,
      "ering": 6598,
      "erry": 6599,
      "эҕиттэн": 6600,
      "Something": 6601,
      "Дар": 6602,
      "Кири": 6603,
      "пен": 6604,
      "anywhere": 6605,
      "comput": 6606,
      "стран": 6607,
      "stopped": 6608,
      "Eight": 6609,
      "ina": 6610,
      "наллар": 6611,
      "мыйа": 6612,
      "урут": 6613,
      "улыбкой": 6614,
      "pur": 6615,
      "Пре": 6616,
      "ппут": 6617,
      "улыбаясь": 6618,
      "Em": 6619,
      "чке": 6620,
      "халлаан": 6621,
      "таҥар": 6622,
      "фес": 6623,
      "Киһи": 6624,
      "бос": 6625,
      "биллэн": 6626,
      "молчал": 6627,
      "женщины": 6628,
      "lar": 6629,
      "Манна": 6630,
      "ната": 6631,
      "ылын": 6632,
      "аври": 6633,
      "минуты": 6634,
      "OR": 6635,
      "нэн": 6636,
      "кула": 6637,
      "битин": 6638,
      "Таҥ": 6639,
      "шке": 6640,
      "тулу": 6641,
      "type": 6642,
      "чувства": 6643,
      "цкий": 6644,
      "church": 6645,
      "uni": 6646,
      "сөбүл": 6647,
      "Frank": 6648,
      "ju": 6649,
      "тоҥ": 6650,
      "ителя": 6651,
      "благород": 6652,
      "глупо": 6653,
      "прибавил": 6654,
      "cry": 6655,
      "роман": 6656,
      "ҕинэ": 6657,
      "Exc": 6658,
      "семь": 6659,
      "dry": 6660,
      "коль": 6661,
      "gue": 6662,
      "Ор": 6663,
      "state": 6664,
      "иллэн": 6665,
      "моск": 6666,
      "күл": 6667,
      "сить": 6668,
      "бырайы": 6669,
      "ехали": 6670,
      "bat": 6671,
      "Сах": 6672,
      "кэмэ": 6673,
      "мел": 6674,
      "ответил": 6675,
      "Бары": 6676,
      "нику": 6677,
      "хамаан": 6678,
      "system": 6679,
      "ran": 6680,
      "явле": 6681,
      "ался": 6682,
      "Дмитри": 6683,
      "смотрела": 6684,
      "хаалбыт": 6685,
      "Чер": 6686,
      "лад": 6687,
      "серди": 6688,
      "господа": 6689,
      "eye": 6690,
      "oub": 6691,
      "поспе": 6692,
      "asses": 6693,
      "прово": 6694,
      "глазах": 6695,
      "Af": 6696,
      "рова": 6697,
      "plus": 6698,
      "словом": 6699,
      "ларыттан": 6700,
      "wake": 6701,
      "оччу": 6702,
      "жан": 6703,
      "ните": 6704,
      "булан": 6705,
      "баты": 6706,
      "град": 6707,
      "Isn": 6708,
      "спросила": 6709,
      "ыалдьы": 6710,
      "lan": 6711,
      "дииллэр": 6712,
      "ama": 6713,
      "Бори": 6714,
      "төрүттээх": 6715,
      "Sir": 6716,
      "Хоро": 6717,
      "oud": 6718,
      "инно": 6719,
      "cook": 6720,
      "поли": 6721,
      "буоллаҕа": 6722,
      "ON": 6723,
      "пру": 6724,
      "пет": 6725,
      "случай": 6726,
      "ован": 6727,
      "сторон": 6728,
      "судаары": 6729,
      "зами": 6730,
      "тки": 6731,
      "роде": 6732,
      "бэрэссэдэ": 6733,
      "кварти": 6734,
      "напротив": 6735,
      "ilt": 6736,
      "ждение": 6737,
      "надцать": 6738,
      "справед": 6739,
      "христиан": 6740,
      "aper": 6741,
      "sl": 6742,
      "ваю": 6743,
      "шев": 6744,
      "цами": 6745,
      "Наполе": 6746,
      "Blo": 6747,
      "какого": 6748,
      "части": 6749,
      "bi": 6750,
      "cross": 6751,
      "дьаа": 6752,
      "хаты": 6753,
      "страда": 6754,
      "землю": 6755,
      "огром": 6756,
      "Wo": 6757,
      "evening": 6758,
      "sco": 6759,
      "никак": 6760,
      "собра": 6761,
      "библи": 6762,
      "Айыы": 6763,
      "крикнул": 6764,
      "фанась": 6765,
      "Even": 6766,
      "mur": 6767,
      "чески": 6768,
      "нья": 6769,
      "ific": 6770,
      "оҕолоро": 6771,
      "олорбут": 6772,
      "park": 6773,
      "ancy": 6774,
      "Тро": 6775,
      "ччу": 6776,
      "cheap": 6777,
      "халты": 6778,
      "подоб": 6779,
      "learn": 6780,
      "стры": 6781,
      "lex": 6782,
      "сой": 6783,
      "odd": 6784,
      "десять": 6785,
      "cil": 6786,
      "неожидан": 6787,
      "бытынан": 6788,
      "longer": 6789,
      "ждать": 6790,
      "балык": 6791,
      "сэм": 6792,
      "уда": 6793,
      "торун": 6794,
      "дался": 6795,
      "лошадь": 6796,
      "gs": 6797,
      "ona": 6798,
      "постоя": 6799,
      "ens": 6800,
      "busy": 6801,
      "thumb": 6802,
      "этэрэ": 6803,
      "маҕа": 6804,
      "имел": 6805,
      "соҕо": 6806,
      "definitely": 6807,
      "certainly": 6808,
      "conversation": 6809,
      "50": 6810,
      "York": 6811,
      "Нь": 6812,
      "үмэ": 6813,
      "пору": 6814,
      "пей": 6815,
      "иһэн": 6816,
      "вслед": 6817,
      "rent": 6818,
      "ыйыгар": 6819,
      "көмөлөһ": 6820,
      "walked": 6821,
      "душу": 6822,
      "прошло": 6823,
      "чинов": 6824,
      "ped": 6825,
      "astic": 6826,
      "биллэрэр": 6827,
      "ворот": 6828,
      "реши": 6829,
      "солк": 6830,
      "ленин": 6831,
      "эрдэҕинэ": 6832,
      "First": 6833,
      "bis": 6834,
      "oc": 6835,
      "ею": 6836,
      "ласко": 6837,
      "уура": 6838,
      "гит": 6839,
      "resp": 6840,
      "соци": 6841,
      "стия": 6842,
      "arently": 6843,
      "поступ": 6844,
      "ters": 6845,
      "какую": 6846,
      "ыын": 6847,
      "аһылы": 6848,
      "bill": 6849,
      "sli": 6850,
      "чины": 6851,
      "бель": 6852,
      "бом": 6853,
      "красне": 6854,
      "вста": 6855,
      "ount": 6856,
      "досто": 6857,
      "профес": 6858,
      "После": 6859,
      "Зачем": 6860,
      "dden": 6861,
      "parents": 6862,
      "By": 6863,
      "запла": 6864,
      "сына": 6865,
      "түргэнник": 6866,
      "силы": 6867,
      "cars": 6868,
      "Da": 6869,
      "Ста": 6870,
      "лыыр": 6871,
      "мэтэ": 6872,
      "reading": 6873,
      "strong": 6874,
      "салал": 6875,
      "олуктара": 6876,
      "nur": 6877,
      "кыыл": 6878,
      "Ивановна": 6879,
      "тымныы": 6880,
      "cident": 6881,
      "пил": 6882,
      "санааларын": 6883,
      "өттүнэн": 6884,
      "аҕын": 6885,
      "тыһ": 6886,
      "страшно": 6887,
      "встал": 6888,
      "впечат": 6889,
      "сэтинньи": 6890,
      "баҕ": 6891,
      "буолбакка": 6892,
      "минут": 6893,
      "Nick": 6894,
      "aret": 6895,
      "standing": 6896,
      "СР": 6897,
      "ature": 6898,
      "сквозь": 6899,
      "mod": 6900,
      "здоров": 6901,
      "чник": 6902,
      "байы": 6903,
      "loy": 6904,
      "log": 6905,
      "одном": 6906,
      "ступи": 6907,
      "club": 6908,
      "национальнай": 6909,
      "өллөр": 6910,
      "слушал": 6911,
      "заня": 6912,
      "хх": 6913,
      "itch": 6914,
      "слезы": 6915,
      "Семе": 6916,
      "востор": 6917,
      "восход": 6918,
      "йэн": 6919,
      "раздра": 6920,
      "lights": 6921,
      "Федо": 6922,
      "васил": 6923,
      "выми": 6924,
      "мыш": 6925,
      "үрдүнэн": 6926,
      "холод": 6927,
      "нюю": 6928,
      "зеле": 6929,
      "join": 6930,
      "ato": 6931,
      "закры": 6932,
      "рассу": 6933,
      "Think": 6934,
      "хайысха": 6935,
      "phy": 6936,
      "yle": 6937,
      "элэри": 6938,
      "обыкновенно": 6939,
      "difficult": 6940,
      "голове": 6941,
      "нууччалыы": 6942,
      "push": 6943,
      "пить": 6944,
      "быстах": 6945,
      "lies": 6946,
      "███████": 6947,
      "ste": 6948,
      "Love": 6949,
      "Stop": 6950,
      "жные": 6951,
      "поэт": 6952,
      "оскуолатыгар": 6953,
      "22": 6954,
      "song": 6955,
      "дунай": 6956,
      "сурук": 6957,
      "чэп": 6958,
      "Nice": 6959,
      "Бэй": 6960,
      "билэн": 6961,
      "конце": 6962,
      "дмит": 6963,
      "нашей": 6964,
      "үөрэ": 6965,
      "эрдээх": 6966,
      "knock": 6967,
      "жь": 6968,
      "забо": 6969,
      "санаатыгар": 6970,
      "удив": 6971,
      "ждан": 6972,
      "үрдүкү": 6973,
      "cam": 6974,
      "ler": 6975,
      "револю": 6976,
      "чест": 6977,
      "прост": 6978,
      "разумеется": 6979,
      "ске": 6980,
      "живо": 6981,
      "хотела": 6982,
      "веле": 6983,
      "доку": 6984,
      "сыннь": 6985,
      "республики": 6986,
      "алларын": 6987,
      "star": 6988,
      "приня": 6989,
      "ker": 6990,
      "секре": 6991,
      "дила": 6992,
      "мент": 6993,
      "ility": 6994,
      "rench": 6995,
      "тороп": 6996,
      "Эр": 6997,
      "хоз": 6998,
      "кытай": 6999,
      "лез": 7000,
      "эстээх": 7001,
      "interesting": 7002,
      "сце": 7003,
      "рок": 7004,
      "голоса": 7005,
      "көрдөрөр": 7006,
      "солдат": 7007,
      "Гра": 7008,
      "уго": 7009,
      "yell": 7010,
      "Ойуу": 7011,
      "см": 7012,
      "несчаст": 7013,
      "муҥ": 7014,
      "liked": 7015,
      "ительство": 7016,
      "кэпси": 7017,
      "eating": 7018,
      "государственнай": 7019,
      "Өрөспүүбүл": 7020,
      "взгляд": 7021,
      "жным": 7022,
      "ммит": 7023,
      "etwo": 7024,
      "чаа": 7025,
      "живу": 7026,
      "щими": 7027,
      "уордь": 7028,
      "ваны": 7029,
      "ньэ": 7030,
      "орга": 7031,
      "ational": 7032,
      "picked": 7033,
      "ES": 7034,
      "Холо": 7035,
      "кина": 7036,
      "букатын": 7037,
      "дьу": 7038,
      "thered": 7039,
      "чиков": 7040,
      "үтүк": 7041,
      "Bri": 7042,
      "ni": 7043,
      "icked": 7044,
      "оскуолата": 7045,
      "солбуйааччы": 7046,
      "lord": 7047,
      "гну": 7048,
      "вез": 7049,
      "виз": 7050,
      "safe": 7051,
      "amn": 7052,
      "sudden": 7053,
      "биллибэт": 7054,
      "loads": 7055,
      "кэпсээн": 7056,
      "помню": 7057,
      "рах": 7058,
      "eng": 7059,
      "туь": 7060,
      "дому": 7061,
      "дят": 7062,
      "нэһилиэктэрэ": 7063,
      "пти": 7064,
      "насме": 7065,
      "важно": 7066,
      "decid": 7067,
      "иг": 7068,
      "стр": 7069,
      "тыйа": 7070,
      "Mmmm": 7071,
      "артыыһа": 7072,
      "нра": 7073,
      "щее": 7074,
      "мяг": 7075,
      "куруук": 7076,
      "кырдьаҕа": 7077,
      "date": 7078,
      "кура": 7079,
      "ылыы": 7080,
      "протя": 7081,
      "wearing": 7082,
      "questions": 7083,
      "убий": 7084,
      "бежал": 7085,
      "цем": 7086,
      "казался": 7087,
      "serious": 7088,
      "Perhaps": 7089,
      "вероятно": 7090,
      "пь": 7091,
      "сё": 7092,
      "төл": 7093,
      "интэри": 7094,
      "чешь": 7095,
      "зная": 7096,
      "цати": 7097,
      "намере": 7098,
      "чила": 7099,
      "превосход": 7100,
      "мерт": 7101,
      "кири": 7102,
      "ааспыт": 7103,
      "washing": 7104,
      "щим": 7105,
      "iced": 7106,
      "вале": 7107,
      "строй": 7108,
      "████████████████████████████████████████████████████████████████": 7109,
      "Александ": 7110,
      "Fif": 7111,
      "Ему": 7112,
      "лааһын": 7113,
      "blow": 7114,
      "fur": 7115,
      "вли": 7116,
      "арааран": 7117,
      "brilliant": 7118,
      "нинэн": 7119,
      "Should": 7120,
      "гло": 7121,
      "enty": 7122,
      "көрүү": 7123,
      "учуутала": 7124,
      "итесь": 7125,
      "смея": 7126,
      "wonderful": 7127,
      "алексан": 7128,
      "space": 7129,
      "норуотун": 7130,
      "moving": 7131,
      "хотите": 7132,
      "den": 7133,
      "thee": 7134,
      "жив": 7135,
      "rip": 7136,
      "сою": 7137,
      "knowI": 7138,
      "столь": 7139,
      "спомина": 7140,
      "doub": 7141,
      "ями": 7142,
      "ахтарын": 7143,
      "хаалар": 7144,
      "здоро": 7145,
      "ьыы": 7146,
      "нато": 7147,
      "эйгэ": 7148,
      "үчүгэйдик": 7149,
      "норуодунай": 7150,
      "вполне": 7151,
      "форо": 7152,
      "YeahI": 7153,
      "өйүгэр": 7154,
      "sage": 7155,
      "market": 7156,
      "түсп": 7157,
      "вара": 7158,
      "наз": 7159,
      "моему": 7160,
      "полю": 7161,
      "afford": 7162,
      "үгэст": 7163,
      "Bill": 7164,
      "experi": 7165,
      "fault": 7166,
      "bigger": 7167,
      "труд": 7168,
      "building": 7169,
      "pensive": 7170,
      "Li": 7171,
      "Pat": 7172,
      "nut": 7173,
      "пля": 7174,
      "саны": 7175,
      "показалось": 7176,
      "туһ": 7177,
      "жены": 7178,
      "acked": 7179,
      "иь": 7180,
      "лам": 7181,
      "глядел": 7182,
      "грудь": 7183,
      "үөрэнэр": 7184,
      "Александро": 7185,
      "perfect": 7186,
      "normally": 7187,
      "эхтэринэ": 7188,
      "мона": 7189,
      "стов": 7190,
      "Кар": 7191,
      "ылбыт": 7192,
      "осве": 7193,
      "нарочно": 7194,
      "bottle": 7195,
      "москва": 7196,
      "дж": 7197,
      "пын": 7198,
      "речь": 7199,
      "secre": 7200,
      "Cap": 7201,
      "ping": 7202,
      "чами": 7203,
      "фигу": 7204,
      "положение": 7205,
      "былыргыттан": 7206,
      "забы": 7207,
      "fac": 7208,
      "постав": 7209,
      "доктора": 7210,
      "нется": 7211,
      "Act": 7212,
      "наан": 7213,
      "илдьэ": 7214,
      "беспо": 7215,
      "держал": 7216,
      "могло": 7217,
      "cred": 7218,
      "дения": 7219,
      "повторя": 7220,
      "нечно": 7221,
      "notice": 7222,
      "ннара": 7223,
      "nineteen": 7224,
      "доктор": 7225,
      "вообще": 7226,
      "тыһыын": 7227,
      "рук": 7228,
      "interested": 7229,
      "233": 7230,
      "биэрэ": 7231,
      "shopping": 7232,
      "замеча": 7233,
      "fix": 7234,
      "charge": 7235,
      "hu": 7236,
      "дней": 7237,
      "очу": 7238,
      "пок": 7239,
      "богу": 7240,
      "played": 7241,
      "уопсай": 7242,
      "Sp": 7243,
      "Мит": 7244,
      "воспомина": 7245,
      "стык": 7246,
      "bull": 7247,
      "эллэрин": 7248,
      "199": 7249,
      "tapes": 7250,
      "After": 7251,
      "наших": 7252,
      "мого": 7253,
      "adv": 7254,
      "көн": 7255,
      "Cour": 7256,
      "swit": 7257,
      "угу": 7258,
      "ребен": 7259,
      "uring": 7260,
      "салгын": 7261,
      "dress": 7262,
      "ory": 7263,
      "гий": 7264,
      "нэй": 7265,
      "caught": 7266,
      "net": 7267,
      "жел": 7268,
      "concer": 7269,
      "клони": 7270,
      "bly": 7271,
      "назна": 7272,
      "Врон": 7273,
      "missed": 7274,
      "legs": 7275,
      "Гла": 7276,
      "percent": 7277,
      "могут": 7278,
      "рука": 7279,
      "бело": 7280,
      "сков": 7281,
      "normal": 7282,
      "Mor": 7283,
      "kiss": 7284,
      "mi": 7285,
      "sea": 7286,
      "туму": 7287,
      "первых": 7288,
      "leaving": 7289,
      "fre": 7290,
      "вто": 7291,
      "посмотрел": 7292,
      "систе": 7293,
      "атыыла": 7294,
      "ilet": 7295,
      "Пье": 7296,
      "называ": 7297,
      "лена": 7298,
      "explain": 7299,
      "уокуру": 7300,
      "груди": 7301,
      "cream": 7302,
      "бириэми": 7303,
      "үөскээн": 7304,
      "biscu": 7305,
      "Sar": 7306,
      "vill": 7307,
      "Пос": 7308,
      "жур": 7309,
      "miles": 7310,
      "tem": 7311,
      "ныыр": 7312,
      "Sup": 7313,
      "кну": 7314,
      "мец": 7315,
      "эттэр": 7316,
      "дун": 7317,
      "гая": 7318,
      "приста": 7319,
      "чуол": 7320,
      "случилось": 7321,
      "хаһаайыстыбатын": 7322,
      "Слу": 7323,
      "вместо": 7324,
      "осторо": 7325,
      "отда": 7326,
      "боже": 7327,
      "города": 7328,
      "России": 7329,
      "таҕа": 7330,
      "дириэк": 7331,
      "Ten": 7332,
      "нечего": 7333,
      "cool": 7334,
      "prof": 7335,
      "дороги": 7336,
      "самым": 7337,
      "ticket": 7338,
      "беспре": 7339,
      "27": 7340,
      "мире": 7341,
      "көнн": 7342,
      "утра": 7343,
      "дальше": 7344,
      "sie": 7345,
      "бүр": 7346,
      "вообра": 7347,
      "сих": 7348,
      "сиини": 7349,
      "ирд": 7350,
      "саҕалаан": 7351,
      "careful": 7352,
      "Яков": 7353,
      "бь": 7354,
      "соло": 7355,
      "шин": 7356,
      "лах": 7357,
      "enny": 7358,
      "astard": 7359,
      "expensive": 7360,
      "deli": 7361,
      "ana": 7362,
      "сколь": 7363,
      "рядом": 7364,
      "төнн": 7365,
      "дороге": 7366,
      "Голя": 7367,
      "кыаҕа": 7368,
      "оҕун": 7369,
      "сырдык": 7370,
      "Голяд": 7371,
      "100": 7372,
      "lived": 7373,
      "Уж": 7374,
      "ису": 7375,
      "eath": 7376,
      "үөм": 7377,
      "исче": 7378,
      "тарынан": 7379,
      "география": 7380,
      "Таҥара": 7381,
      "Up": 7382,
      "pres": 7383,
      "ъе": 7384,
      "попро": 7385,
      "сулуу": 7386,
      "Геспе": 7387,
      "киэҥник": 7388,
      "кылгас": 7389,
      "кытаанах": 7390,
      "tast": 7391,
      "усме": 7392,
      "трудно": 7393,
      "born": 7394,
      "бүтэрбит": 7395,
      "быһыылары": 7396,
      "невозможно": 7397,
      "приез": 7398,
      "pool": 7399,
      "окна": 7400,
      "group": 7401,
      "үүлээх": 7402,
      "none": 7403,
      "уте": 7404,
      "үбүт": 7405,
      "таҕы": 7406,
      "sport": 7407,
      "eighteen": 7408,
      "aged": 7409,
      "Иванов": 7410,
      "draw": 7411,
      "non": 7412,
      "василь": 7413,
      "любить": 7414,
      "целу": 7415,
      "зывая": 7416,
      "тыһыынча": 7417,
      "валь": 7418,
      "треть": 7419,
      "нали": 7420,
      "буттар": 7421,
      "разв": 7422,
      "всякий": 7423,
      "франц": 7424,
      "самые": 7425,
      "существо": 7426,
      "Those": 7427,
      "сра": 7428,
      "учили": 7429,
      "поэ": 7430,
      "чисто": 7431,
      "истэн": 7432,
      "бормо": 7433,
      "icular": 7434,
      "Fe": 7435,
      "ys": 7436,
      "Ник": 7437,
      "pose": 7438,
      "өөчч": 7439,
      "meeting": 7440,
      "ban": 7441,
      "ада": 7442,
      "step": 7443,
      "bothered": 7444,
      "человеку": 7445,
      "Jan": 7446,
      "иначе": 7447,
      "5э": 7448,
      "ges": 7449,
      "zer": 7450,
      "ирин": 7451,
      "платье": 7452,
      "za": 7453,
      "нигэр": 7454,
      "тели": 7455,
      "фимо": 7456,
      "оправ": 7457,
      "Am": 7458,
      "кэт": 7459,
      "направ": 7460,
      "вокруг": 7461,
      "ылбыта": 7462,
      "тие": 7463,
      "түк": 7464,
      "bitch": 7465,
      "сайды": 7466,
      "colate": 7467,
      "Хаҥалас": 7468,
      "voice": 7469,
      "summer": 7470,
      "Great": 7471,
      "Саа": 7472,
      "ыытыллар": 7473,
      "бочуот": 7474,
      "киһилии": 7475,
      "оҕолору": 7476,
      "народа": 7477,
      "доса": 7478,
      "произве": 7479,
      "түһэн": 7480,
      "писать": 7481,
      "бесс": 7482,
      "төбө": 7483,
      "эттэххэ": 7484,
      "йбут": 7485,
      "сначала": 7486,
      "heav": 7487,
      "сатыыр": 7488,
      "двадцать": 7489,
      "Our": 7490,
      "haha": 7491,
      "ылыллыбыт": 7492,
      "agree": 7493,
      "невольно": 7494,
      "toilet": 7495,
      "киhи": 7496,
      "rot": 7497,
      "сааһын": 7498,
      "тойон": 7499,
      "From": 7500,
      "nose": 7501,
      "суруна": 7502,
      "бөһ": 7503,
      "problems": 7504,
      "alive": 7505,
      "iv": 7506,
      "дли": 7507,
      "паа": 7508,
      "worried": 7509,
      "тахс": 7510,
      "большо": 7511,
      "сөптөөх": 7512,
      "помина": 7513,
      "полага": 7514,
      "mark": 7515,
      "ющее": 7516,
      "slow": 7517,
      "нька": 7518,
      "чугас": 7519,
      "пун": 7520,
      "нару": 7521,
      "нэһилиэнньэлээх": 7522,
      "Эн": 7523,
      "реги": 7524,
      "гать": 7525,
      "Разве": 7526,
      "таас": 7527,
      "report": 7528,
      "тилась": 7529,
      "отвер": 7530,
      "приехал": 7531,
      "также": 7532,
      "грамма": 7533,
      "үлэлээн": 7534,
      "ственный": 7535,
      "знала": 7536,
      "публи": 7537,
      "үгэс": 7538,
      "Александр": 7539,
      "хоһо": 7540,
      "jor": 7541,
      "Түм": 7542,
      "фр": 7543,
      "көҕ": 7544,
      "дорогу": 7545,
      "team": 7546,
      "үөрэммит": 7547,
      "үөрэнээчч": 7548,
      "Николаев": 7549,
      "күрэхтэ": 7550,
      "Очч": 7551,
      "собира": 7552,
      "салайар": 7553,
      "үөрэнэн": 7554,
      "cheese": 7555,
      "гунан": 7556,
      "олоҕор": 7557,
      "тиийэ": 7558,
      "bra": 7559,
      "Улуу": 7560,
      "тое": 7561,
      "импи": 7562,
      "broke": 7563,
      "Su": 7564,
      "Где": 7565,
      "сэн": 7566,
      "фил": 7567,
      "шею": 7568,
      "чим": 7569,
      "glass": 7570,
      "priv": 7571,
      "громко": 7572,
      "оди": 7573,
      "граждан": 7574,
      "требо": 7575,
      "олохторун": 7576,
      "Excuse": 7577,
      "ben": 7578,
      "посла": 7579,
      "закричал": 7580,
      "хочешь": 7581,
      "халы": 7582,
      "түөрт": 7583,
      "раза": 7584,
      "ково": 7585,
      "ides": 7586,
      "ыллан": 7587,
      "тыллара": 7588,
      "четвер": 7589,
      "dollars": 7590,
      "вшее": 7591,
      "иван": 7592,
      "всему": 7593,
      "бэйэм": 7594,
      "bugg": 7595,
      "другим": 7596,
      "сырытта": 7597,
      "ahead": 7598,
      "tree": 7599,
      "Пер": 7600,
      "бами": 7601,
      "отправ": 7602,
      "иҥэр": 7603,
      "туһаныллыбыт": 7604,
      "computer": 7605,
      "dent": 7606,
      "ап": 7607,
      "кать": 7608,
      "лиш": 7609,
      "бывает": 7610,
      "ахш": 7611,
      "дьоҕ": 7612,
      "Nobody": 7613,
      "anymore": 7614,
      "имя": 7615,
      "bathroom": 7616,
      "realize": 7617,
      "вшую": 7618,
      "гне": 7619,
      "фан": 7620,
      "чные": 7621,
      "rubb": 7622,
      "fuckin": 7623,
      "Fo": 7624,
      "vol": 7625,
      "түҥ": 7626,
      "earth": 7627,
      "строго": 7628,
      "sixteen": 7629,
      "людям": 7630,
      "pi": 7631,
      "ама": 7632,
      "ines": 7633,
      "инники": 7634,
      "этэххэ": 7635,
      "душа": 7636,
      "һынан": 7637,
      "Может": 7638,
      "любов": 7639,
      "фо": 7640,
      "ater": 7641,
      "биттэрэ": 7642,
      "барбыта": 7643,
      "оҕото": 7644,
      "keeps": 7645,
      "Yeahthat": 7646,
      "cannot": 7647,
      "ааста": 7648,
      "оскуолаҕа": 7649,
      "другом": 7650,
      "Тогда": 7651,
      "рим": 7652,
      "hole": 7653,
      "присут": 7654,
      "городе": 7655,
      "земли": 7656,
      "rel": 7657,
      "doo": 7658,
      "гиче": 7659,
      "одни": 7660,
      "сирдэр": 7661,
      "тэрээһин": 7662,
      "кви": 7663,
      "сере": 7664,
      "көрс": 7665,
      "сердца": 7666,
      "5ы": 7667,
      "Ind": 7668,
      "Күн": 7669,
      "иска": 7670,
      "таль": 7671,
      "каби": 7672,
      "сооб": 7673,
      "еев": 7674,
      "ыларга": 7675,
      "service": 7676,
      "ki": 7677,
      "leep": 7678,
      "туруору": 7679,
      "buying": 7680,
      "particular": 7681,
      "салайааччыта": 7682,
      "decided": 7683,
      "дети": 7684,
      "pract": 7685,
      "phoned": 7686,
      "илээхтик": 7687,
      "салалта": 7688,
      "doubt": 7689,
      "26": 7690,
      "aa": 7691,
      "уре": 7692,
      "воды": 7693,
      "возбу": 7694,
      "голова": 7695,
      "успел": 7696,
      "игин": 7697,
      "усили": 7698,
      "числе": 7699,
      "шими": 7700,
      "brain": 7701,
      "Гаври": 7702,
      "хуже": 7703,
      "попа": 7704,
      "fool": 7705,
      "шься": 7706,
      "оҥорбут": 7707,
      "Fine": 7708,
      "ude": 7709,
      "wine": 7710,
      "тыыл": 7711,
      "обстоя": 7712,
      "жим": 7713,
      "правду": 7714,
      "өйдөөх": 7715,
      "stru": 7716,
      "ваш": 7717,
      "беспокой": 7718,
      "ils": 7719,
      "graph": 7720,
      "талан": 7721,
      "вание": 7722,
      "хааллар": 7723,
      "lock": 7724,
      "хору": 7725,
      "Еще": 7726,
      "темно": 7727,
      "ловко": 7728,
      "Бог": 7729,
      "үүнээ": 7730,
      "чахчы": 7731,
      "television": 7732,
      "Seven": 7733,
      "tric": 7734,
      "plenty": 7735,
      "пуска": 7736,
      "тивнай": 7737,
      "олоҕо": 7738,
      "Alex": 7739,
      "Баста": 7740,
      "уер": 7741,
      "таком": 7742,
      "вечера": 7743,
      "вились": 7744,
      "скочил": 7745,
      "шать": 7746,
      "необходимо": 7747,
      "28": 7748,
      "Иису": 7749,
      "ene": 7750,
      "Евро": 7751,
      "Филип": 7752,
      "умол": 7753,
      "тутулуктаах": 7754,
      "вить": 7755,
      "тит": 7756,
      "ях": 7757,
      "ниц": 7758,
      "бывало": 7759,
      "мую": 7760,
      "смеялся": 7761,
      "dig": 7762,
      "собы": 7763,
      "пел": 7764,
      "ааттара": 7765,
      "түүр": 7766,
      "строе": 7767,
      "pence": 7768,
      "күүскэ": 7769,
      "хаһыат": 7770,
      "Tony": 7771,
      "сиэн": 7772,
      "чаю": 7773,
      "лаахтар": 7774,
      "Ser": 7775,
      "vin": 7776,
      "лина": 7777,
      "сив": 7778,
      "должна": 7779,
      "өйдөө": 7780,
      "cards": 7781,
      "Федорович": 7782,
      "Кэ": 7783,
      "вышла": 7784,
      "garage": 7785,
      "зр": 7786,
      "ночи": 7787,
      "horse": 7788,
      "Уру": 7789,
      "неподви": 7790,
      "илэри": 7791,
      "гуна": 7792,
      "көтөр": 7793,
      "оҥосто": 7794,
      "third": 7795,
      "партия": 7796,
      "chocolate": 7797,
      "үөскэтэр": 7798,
      "pea": 7799,
      "Ду": 7800,
      "тесь": 7801,
      "лаабыта": 7802,
      "биэс": 7803,
      "алексе": 7804,
      "windows": 7805,
      "буоллу": 7806,
      "жий": 7807,
      "свобод": 7808,
      "control": 7809,
      "смерть": 7810,
      "Васил": 7811,
      "itit": 7812,
      "Аркадий": 7813,
      "библиоте": 7814,
      "отвечала": 7815,
      "Actually": 7816,
      "итэҕэ": 7817,
      "нынан": 7818,
      "бигэр": 7819,
      "нарга": 7820,
      "которому": 7821,
      "степени": 7822,
      "моф": 7823,
      "roy": 7824,
      "самых": 7825,
      "сайыннар": 7826,
      "Still": 7827,
      "увидел": 7828,
      "upset": 7829,
      "older": 7830,
      "dist": 7831,
      "zz": 7832,
      "гнул": 7833,
      "муу": 7834,
      "олоҕу": 7835,
      "cla": 7836,
      "ока": 7837,
      "арды": 7838,
      "людь": 7839,
      "пусть": 7840,
      "смеш": 7841,
      "Ники": 7842,
      "ходило": 7843,
      "enter": 7844,
      "bin": 7845,
      "Му": 7846,
      "фак": 7847,
      "бэйэбит": 7848,
      "Кинилэр": 7849,
      "ances": 7850,
      "хамаанда": 7851,
      "Bloody": 7852,
      "danger": 7853,
      "mir": 7854,
      "лес": 7855,
      "веря": 7856,
      "loves": 7857,
      "shoot": 7858,
      "көмүскэ": 7859,
      "йду": 7860,
      "оз": 7861,
      "чыы": 7862,
      "gold": 7863,
      "киирбитэ": 7864,
      "красо": 7865,
      "cro": 7866,
      "Өл": 7867,
      "телей": 7868,
      "честь": 7869,
      "shed": 7870,
      "стрем": 7871,
      "listening": 7872,
      "Try": 7873,
      "swear": 7874,
      "Ничего": 7875,
      "French": 7876,
      "bastard": 7877,
      "жки": 7878,
      "дисс": 7879,
      "sake": 7880,
      "үйэҕэ": 7881,
      "Keep": 7882,
      "ежели": 7883,
      "никого": 7884,
      "воспи": 7885,
      "даа": 7886,
      "дочь": 7887,
      "зади": 7888,
      "writing": 7889,
      "другую": 7890,
      "людьми": 7891,
      "Lea": 7892,
      "inform": 7893,
      "наһаа": 7894,
      "сатыы": 7895,
      "жем": 7896,
      "стать": 7897,
      "барбыт": 7898,
      "rub": 7899,
      "көлүөн": 7900,
      "yellow": 7901,
      "ica": 7902,
      "зывал": 7903,
      "молоды": 7904,
      "кырдьык": 7905,
      "жный": 7906,
      "гуля": 7907,
      "itten": 7908,
      "ridge": 7909,
      "выражение": 7910,
      "twice": 7911,
      "ET": 7912,
      "кк": 7913,
      "тылар": 7914,
      "следова": 7915,
      "beginning": 7916,
      "арыттан": 7917,
      "эхпит": 7918,
      "super": 7919,
      "крест": 7920,
      "литератур": 7921,
      "биирдэстэрэ": 7922,
      "кандидата": 7923,
      "radio": 7924,
      "file": 7925,
      "hung": 7926,
      "tis": 7927,
      "ощу": 7928,
      "vest": 7929,
      "дьада": 7930,
      "прит": 7931,
      "дьокуускайдааҕы": 7932,
      "эллээх": 7933,
      "En": 7934,
      "sau": 7935,
      "изум": 7936,
      "авто": 7937,
      "hon": 7938,
      "зда": 7939,
      "оту": 7940,
      "ужа": 7941,
      "поди": 7942,
      "accident": 7943,
      "йдя": 7944,
      "илии": 7945,
      "Huh": 7946,
      "аҥа": 7947,
      "чев": 7948,
      "стом": 7949,
      "names": 7950,
      "үһүс": 7951,
      "vered": 7952,
      "драв": 7953,
      "улице": 7954,
      "ахтар": 7955,
      "эхтэрин": 7956,
      "стола": 7957,
      "рынан": 7958,
      "moon": 7959,
      "көмүск": 7960,
      "Big": 7961,
      "Wor": 7962,
      "Всё": 7963,
      "ноло": 7964,
      "несе": 7965,
      "enti": 7966,
      "щем": 7967,
      "els": 7968,
      "көрү": 7969,
      "үрдүгэр": 7970,
      "никакого": 7971,
      "истин": 7972,
      "Михаил": 7973,
      "тириэрдэр": 7974,
      "Rob": 7975,
      "fet": 7976,
      "сса": 7977,
      "meat": 7978,
      "ыыга": 7979,
      "пропа": 7980,
      "noticed": 7981,
      "places": 7982,
      "уна": 7983,
      "oul": 7984,
      "tot": 7985,
      "аннай": 7986,
      "видом": 7987,
      "telly": 7988,
      "staying": 7989,
      "spir": 7990,
      "измени": 7991,
      "гимна": 7992,
      "иһинэн": 7993,
      "scared": 7994,
      "crap": 7995,
      "CH": 7996,
      "Ray": 7997,
      "аһыы": 7998,
      "второ": 7999,
      "дөҥ": 8000,
      "һии": 8001,
      "таптал": 8002,
      "secret": 8003,
      "наве": 8004,
      "weird": 8005,
      "boot": 8006,
      "стыд": 8007,
      "герой": 8008,
      "сэбиэдисс": 8009,
      "салаатын": 8010,
      "hын": 8011,
      "ынах": 8012,
      "ирдэ": 8013,
      "ууга": 8014,
      "уустук": 8015,
      "tract": 8016,
      "шап": 8017,
      "головы": 8018,
      "happening": 8019,
      "всякого": 8020,
      "football": 8021,
      "николаевич": 8022,
      "аҕ": 8023,
      "навли": 8024,
      "лок": 8025,
      "приказа": 8026,
      "лых": 8027,
      "гии": 8028,
      "человеком": 8029,
      "completely": 8030,
      "Must": 8031,
      "zen": 8032,
      "Мас": 8033,
      "тей": 8034,
      "ахсааннаах": 8035,
      "college": 8036,
      "васильевич": 8037,
      "сматри": 8038,
      "узнать": 8039,
      "наме": 8040,
      "губы": 8041,
      "далара": 8042,
      "кругом": 8043,
      "десят": 8044,
      "жай": 8045,
      "фри": 8046,
      "иня": 8047,
      "wel": 8048,
      "истории": 8049,
      "маҥнайгы": 8050,
      "йти": 8051,
      "клас": 8052,
      "rece": 8053,
      "рели": 8054,
      "station": 8055,
      "дога": 8056,
      "соһу": 8057,
      "iling": 8058,
      "усло": 8059,
      "дьаһ": 8060,
      "excuse": 8061,
      "кнула": 8062,
      "говорите": 8063,
      "vour": 8064,
      "anne": 8065,
      "году": 8066,
      "тец": 8067,
      "этинэн": 8068,
      "Лиза": 8069,
      "сүөһү": 8070,
      "ities": 8071,
      "кын": 8072,
      "столе": 8073,
      "Олох": 8074,
      "быр": 8075,
      "дьом": 8076,
      "rote": 8077,
      "церков": 8078,
      "опера": 8079,
      "цель": 8080,
      "ular": 8081,
      "Hal": 8082,
      "Ken": 8083,
      "пах": 8084,
      "иты": 8085,
      "weight": 8086,
      "sof": 8087,
      "ыр": 8088,
      "насла": 8089,
      "action": 8090,
      "ппын": 8091,
      "вздох": 8092,
      "houses": 8093,
      "ственной": 8094,
      "tu": 8095,
      "СӨ": 8096,
      "старынан": 8097,
      "пози": 8098,
      "рыгар": 8099,
      "чив": 8100,
      "consid": 8101,
      "билии": 8102,
      "figure": 8103,
      "василий": 8104,
      "батюшка": 8105,
      "обратился": 8106,
      "breakfast": 8107,
      "кресть": 8108,
      "Ti": 8109,
      "ret": 8110,
      "рой": 8111,
      "lia": 8112,
      "жает": 8113,
      "итэҕэл": 8114,
      "Татьяна": 8115,
      "21": 8116,
      "zed": 8117,
      "мый": 8118,
      "gives": 8119,
      "самому": 8120,
      "Куту": 8121,
      "recording": 8122,
      "быйыл": 8123,
      "кара": 8124,
      "наход": 8125,
      "арыылаах": 8126,
      "ствием": 8127,
      "саҕана": 8128,
      "түмүгэр": 8129,
      "Москве": 8130,
      "обязан": 8131,
      "sn": 8132,
      "огля": 8133,
      "юно": 8134,
      "тую": 8135,
      "idge": 8136,
      "сыллааҕы": 8137,
      "киниэхэ": 8138,
      "време": 8139,
      "быһаччы": 8140,
      "болҕ": 8141,
      "депута": 8142,
      "читать": 8143,
      "Однако": 8144,
      "EL": 8145,
      "Фо": 8146,
      "чное": 8147,
      "эбин": 8148,
      "симо": 8149,
      "тина": 8150,
      "трен": 8151,
      "Sha": 8152,
      "honey": 8153,
      "Один": 8154,
      "пое": 8155,
      "тылларын": 8156,
      "chap": 8157,
      "Non": 8158,
      "uary": 8159,
      "небо": 8160,
      "лим": 8161,
      "первого": 8162,
      "трех": 8163,
      "сылыгар": 8164,
      "weather": 8165,
      "бэлиэтиир": 8166,
      "шум": 8167,
      "эб": 8168,
      "өх": 8169,
      "thethe": 8170,
      "олимпи": 8171,
      "аня": 8172,
      "мело": 8173,
      "ets": 8174,
      "түүн": 8175,
      "лошади": 8176,
      "Евге": 8177,
      "bon": 8178,
      "Для": 8179,
      "джи": 8180,
      "күөх": 8181,
      "каны": 8182,
      "воря": 8183,
      "███": 8184,
      "баттар": 8185,
      "отчего": 8186,
      "shout": 8187,
      "кэллэ": 8188,
      "олорго": 8189,
      "видите": 8190,
      "справедливо": 8191,
      "Sim": 8192,
      "Икки": 8193,
      "Оче": 8194,
      "дря": 8195,
      "лауре": 8196,
      "тустуу": 8197,
      "стояла": 8198,
      "бөдөҥ": 8199,
      "элбэҕ": 8200,
      "png": 8201,
      "hea": 8202,
      "lift": 8203,
      "спут": 8204,
      "раздо": 8205,
      "чаль": 8206,
      "отношения": 8207,
      "ged": 8208,
      "боло": 8209,
      "этти": 8210,
      "откро": 8211,
      "боя": 8212,
      "цию": 8213,
      "Ав": 8214,
      "шил": 8215,
      "дака": 8216,
      "сыарда": 8217,
      "поднима": 8218,
      "живет": 8219,
      "Дмитрий": 8220,
      "төгүл": 8221,
      "People": 8222,
      "Pl": 8223,
      "uation": 8224,
      "хин": 8225,
      "youyou": 8226,
      "тыми": 8227,
      "чество": 8228,
      "мужа": 8229,
      "neck": 8230,
      "стен": 8231,
      "офицер": 8232,
      "поднял": 8233,
      "Mike": 8234,
      "nas": 8235,
      "почувствовал": 8236,
      "утром": 8237,
      "OK": 8238,
      "фоль": 8239,
      "heal": 8240,
      "лежа": 8241,
      "term": 8242,
      "барыы": 8243,
      "Надо": 8244,
      "strange": 8245,
      "противо": 8246,
      "King": 8247,
      "dirty": 8248,
      "equ": 8249,
      "углу": 8250,
      "мест": 8251,
      "винов": 8252,
      "өнү": 8253,
      "glasses": 8254,
      "Ly": 8255,
      "sad": 8256,
      "влю": 8257,
      "рода": 8258,
      "пова": 8259,
      "алгы": 8260,
      "вою": 8261,
      "реше": 8262,
      "музей": 8263,
      "тахсыбыта": 8264,
      "слушать": 8265,
      "cast": 8266,
      "wrote": 8267,
      "чного": 8268,
      "нылар": 8269,
      "ыыыы": 8270,
      "deep": 8271,
      "Анто": 8272,
      "суруйар": 8273,
      "ствии": 8274,
      "Make": 8275,
      "доруобуйа": 8276,
      "лларын": 8277,
      "ликнул": 8278,
      "psy": 8279,
      "биэрэн": 8280,
      "ланар": 8281,
      "мани": 8282,
      "shame": 8283,
      "хааччый": 8284,
      "Ойуунускай": 8285,
      "fro": 8286,
      "Аан": 8287,
      "Гру": 8288,
      "Кор": 8289,
      "нная": 8290,
      "свиде": 8291,
      "choice": 8292,
      "добры": 8293,
      "68": 8294,
      "оһ": 8295,
      "forward": 8296,
      "apparently": 8297,
      "бириэм": 8298,
      "XX": 8299,
      "аллы": 8300,
      "крыль": 8301,
      "bum": 8302,
      "eed": 8303,
      "Оҕ": 8304,
      "фу": 8305,
      "стин": 8306,
      "думы": 8307,
      "һыт": 8308,
      "handle": 8309,
      "Grand": 8310,
      "smoke": 8311,
      "vy": 8312,
      "гли": 8313,
      "употре": 8314,
      "эсти": 8315,
      "medi": 8316,
      "velo": 8317,
      "аларыгар": 8318,
      "мату": 8319,
      "boat": 8320,
      "тался": 8321,
      "ходят": 8322,
      "хонь": 8323,
      "invol": 8324,
      "наи": 8325,
      "алдь": 8326,
      "offic": 8327,
      "держать": 8328,
      "Marg": 8329,
      "Were": 8330,
      "fancy": 8331,
      "tight": 8332,
      "кс": 8333,
      "даве": 8334,
      "онна": 8335,
      "сойуу": 8336,
      "ствовать": 8337,
      "крепко": 8338,
      "вечером": 8339,
      "ctive": 8340,
      "пры": 8341,
      "дьик": 8342,
      "муни": 8343,
      "pper": 8344,
      "желая": 8345,
      "поряд": 8346,
      "төрөппүттэр": 8347,
      "такую": 8348,
      "видела": 8349,
      "обре": 8350,
      "харах": 8351,
      "спать": 8352,
      "June": 8353,
      "ror": 8354,
      "ride": 8355,
      "цом": 8356,
      "дьайыы": 8357,
      "чийи": 8358,
      "totally": 8359,
      "spl": 8360,
      "Дру": 8361,
      "остро": 8362,
      "рин": 8363,
      "ife": 8364,
      "иһит": 8365,
      "иннокен": 8366,
      "соҕотох": 8367,
      "War": 8368,
      "милли": 8369,
      "поры": 8370,
      "ческих": 8371,
      "приме": 8372,
      "respect": 8373,
      "ыраас": 8374,
      "тэҥнэ": 8375,
      "potato": 8376,
      "Mom": 8377,
      "Там": 8378,
      "кү": 8379,
      "пси": 8380,
      "успоко": 8381,
      "дворе": 8382,
      "оннугар": 8383,
      "чуу": 8384,
      "заговорил": 8385,
      "вив": 8386,
      "пригла": 8387,
      "үөрэнэ": 8388,
      "сөбүлэ": 8389,
      "respon": 8390,
      "маты": 8391,
      "придет": 8392,
      "iff": 8393,
      "пав": 8394,
      "имеет": 8395,
      "черт": 8396,
      "мальчик": 8397,
      "Mart": 8398,
      "Rus": 8399,
      "стэр": 8400,
      "стый": 8401,
      "иһитин": 8402,
      "lead": 8403,
      "клад": 8404,
      "easier": 8405,
      "mission": 8406,
      "уолаттар": 8407,
      "ыччат": 8408,
      "счастье": 8409,
      "Фран": 8410,
      "поцело": 8411,
      "eding": 8412,
      "pocket": 8413,
      "голу": 8414,
      "фолькло": 8415,
      "Fred": 8416,
      "ческой": 8417,
      "тиһи": 8418,
      "чает": 8419,
      "пад": 8420,
      "appoint": 8421,
      "общество": 8422,
      "старый": 8423,
      "letters": 8424,
      "Brit": 8425,
      "El": 8426,
      "иh": 8427,
      "фро": 8428,
      "шар": 8429,
      "шкой": 8430,
      "киэн": 8431,
      "wedding": 8432,
      "ба5": 8433,
      "духа": 8434,
      "гав": 8435,
      "amount": 8436,
      "искусство": 8437,
      "gentle": 8438,
      "тэригэр": 8439,
      "hey": 8440,
      "вери": 8441,
      "Too": 8442,
      "сэрг": 8443,
      "таны": 8444,
      "ногу": 8445,
      "воду": 8446,
      "godd": 8447,
      "семе": 8448,
      "новь": 8449,
      "Вместо": 8450,
      "уе": 8451,
      "танан": 8452,
      "каких": 8453,
      "тыска": 8454,
      "куну": 8455,
      "match": 8456,
      "square": 8457,
      "сылын": 8458,
      "разум": 8459,
      "боппуруо": 8460,
      "дю": 8461,
      "дил": 8462,
      "чным": 8463,
      "эхп": 8464,
      "шина": 8465,
      "single": 8466,
      "кэриэтэ": 8467,
      "Di": 8468,
      "cir": 8469,
      "cri": 8470,
      "page": 8471,
      "забыл": 8472,
      "чел": 8473,
      "ылыыр": 8474,
      "Иваны": 8475,
      "пара": 8476,
      "ческий": 8477,
      "стати": 8478,
      "spent": 8479,
      "предме": 8480,
      "Shit": 8481,
      "налыы": 8482,
      "буруй": 8483,
      "Hm": 8484,
      "Пи": 8485,
      "trans": 8486,
      "Дьи": 8487,
      "properly": 8488,
      "баһа": 8489,
      "тились": 8490,
      "оҕолорго": 8491,
      "арыгыны": 8492,
      "пустил": 8493,
      "опас": 8494,
      "pin": 8495,
      "lotte": 8496,
      "дьиҥнээх": 8497,
      "Captain": 8498,
      "bs": 8499,
      "бон": 8500,
      "тою": 8501,
      "деля": 8502,
      "делал": 8503,
      "гряз": 8504,
      "социальнай": 8505,
      "Cha": 8506,
      "Lou": 8507,
      "Won": 8508,
      "mix": 8509,
      "Аҕа": 8510,
      "Или": 8511,
      "онов": 8512,
      "ext": 8513,
      "starts": 8514,
      "bike": 8515,
      "thick": 8516,
      "insur": 8517,
      "needed": 8518,
      "цияҕа": 8519,
      "урун": 8520,
      "устуоруйа": 8521,
      "көлүөнэ": 8522,
      "IS": 8523,
      "IV": 8524,
      "Out": 8525,
      "cig": 8526,
      "чная": 8527,
      "гина": 8528,
      "возра": 8529,
      "дьиэтигэр": 8530,
      "брата": 8531,
      "суруйбут": 8532,
      "Кате": 8533,
      "махтал": 8534,
      "одному": 8535,
      "волосы": 8536,
      "Өрөспүүбүлүк": 8537,
      "uff": 8538,
      "рами": 8539,
      "мане": 8540,
      "станови": 8541,
      "приз": 8542,
      "кем": 8543,
      "fourteen": 8544,
      "киллэри": 8545,
      "оройуонун": 8546,
      "surprised": 8547,
      "өрүттээх": 8548,
      "болҕом": 8549,
      "vic": 8550,
      "жной": 8551,
      "шить": 8552,
      "anim": 8553,
      "бук": 8554,
      "Andy": 8555,
      "Нам": 8556,
      "өйдөрө": 8557,
      "бүтэрбитэ": 8558,
      "твердо": 8559,
      "федеральнай": 8560,
      "40": 8561,
      "Эти": 8562,
      "батын": 8563,
      "долгу": 8564,
      "вшиеся": 8565,
      "нууччалар": 8566,
      "chips": 8567,
      "куро": 8568,
      "ппин": 8569,
      "милый": 8570,
      "ичч": 8571,
      "интер": 8572,
      "менее": 8573,
      "оттого": 8574,
      "дьокуускайга": 8575,
      "солнце": 8576,
      "rubbish": 8577,
      "Dunno": 8578,
      "Want": 8579,
      "Пра": 8580,
      "ек": 8581,
      "ушел": 8582,
      "това": 8583,
      "покры": 8584,
      "будем": 8585,
      "нять": 8586,
      "үөрэтэн": 8587,
      "offer": 8588,
      "етесь": 8589,
      "hardly": 8590,
      "кыттыылааҕа": 8591,
      "ец": 8592,
      "упре": 8593,
      "сок": 8594,
      "account": 8595,
      "сыал": 8596,
      "эрдэҕиттэн": 8597,
      "толор": 8598,
      "Sm": 8599,
      "Бый": 8600,
      "ель": 8601,
      "жку": 8602,
      "рг": 8603,
      "тело": 8604,
      "вилось": 8605,
      "burn": 8606,
      "күө": 8607,
      "ситэ": 8608,
      "управ": 8609,
      "кори": 8610,
      "сидела": 8611,
      "сайдар": 8612,
      "Geoff": 8613,
      "старика": 8614,
      "официальный": 8615,
      "училище": 8616,
      "fly": 8617,
      "эннэ": 8618,
      "шек": 8619,
      "останавли": 8620,
      "calling": 8621,
      "видишь": 8622,
      "бэлэмнэ": 8623,
      "вопросы": 8624,
      "Sarah": 8625,
      "gain": 8626,
      "Чего": 8627,
      "itor": 8628,
      "ничто": 8629,
      "гораздо": 8630,
      "seat": 8631,
      "nie": 8632,
      "pes": 8633,
      "Вдруг": 8634,
      "ыллыы": 8635,
      "iron": 8636,
      "ҕынан": 8637,
      "трево": 8638,
      "стояли": 8639,
      "последний": 8640,
      "учугэй": 8641,
      "Василь": 8642,
      "баарын": 8643,
      "чемпи": 8644,
      "аҕата": 8645,
      "видит": 8646,
      "personal": 8647,
      "академия": 8648,
      "Phil": 8649,
      "Brian": 8650,
      "Lord": 8651,
      "Же": 8652,
      "огляды": 8653,
      "ths": 8654,
      "архи": 8655,
      "лат": 8656,
      "моим": 8657,
      "Владимир": 8658,
      "Course": 8659,
      "сурунаал": 8660,
      "Fa": 8661,
      "начи": 8662,
      "михай": 8663,
      "ууру": 8664,
      "Looks": 8665,
      "вскричал": 8666,
      "teeth": 8667,
      "информацион": 8668,
      "cab": 8669,
      "mend": 8670,
      "нью": 8671,
      "взять": 8672,
      "Road": 8673,
      "elec": 8674,
      "ющей": 8675,
      "развити": 8676,
      "Прав": 8677,
      "ьте": 8678,
      "лев": 8679,
      "ттарыгар": 8680,
      "бүтэрэн": 8681,
      "воскликнул": 8682,
      "meal": 8683,
      "чика": 8684,
      "drunk": 8685,
      "хамса": 8686,
      "ллубута": 8687,
      "йаа": 8688,
      "become": 8689,
      "сиэри": 8690,
      "охтаах": 8691,
      "билимин": 8692,
      "слабо": 8693,
      "хаалан": 8694,
      "просить": 8695,
      "характер": 8696,
      "Ша": 8697,
      "ссер": 8698,
      "ута": 8699,
      "Любо": 8700,
      "туйгуна": 8701,
      "jam": 8702,
      "вновь": 8703,
      "нарыгар": 8704,
      "тря": 8705,
      "ыар": 8706,
      "наблю": 8707,
      "ческие": 8708,
      "приготов": 8709,
      "tip": 8710,
      "amaz": 8711,
      "стыдно": 8712,
      "carpet": 8713,
      "строка": 8714,
      "взглядом": 8715,
      "joke": 8716,
      "lines": 8717,
      "саныыбын": 8718,
      "серьезно": 8719,
      "Кити": 8720,
      "зали": 8721,
      "area": 8722,
      "tern": 8723,
      "dest": 8724,
      "биэрбит": 8725,
      "уларыйан": 8726,
      "оконча": 8727,
      "pis": 8728,
      "rang": 8729,
      "zing": 8730,
      "элек": 8731,
      "asleep": 8732,
      "стааҕы": 8733,
      "отвра": 8734,
      "trip": 8735,
      "icks": 8736,
      "тысячи": 8737,
      "70": 8738,
      "sus": 8739,
      "stri": 8740,
      "ift": 8741,
      "компа": 8742,
      "built": 8743,
      "сэлиэннь": 8744,
      "иметь": 8745,
      "ойуун": 8746,
      "Exactly": 8747,
      "Jane": 8748,
      "амери": 8749,
      "мл": 8750,
      "вашего": 8751,
      "чек": 8752,
      "переди": 8753,
      "уоба": 8754,
      "взглянул": 8755,
      "ехала": 8756,
      "Павлович": 8757,
      "аҥарда": 8758,
      "эҥэ": 8759,
      "comfort": 8760,
      "loved": 8761,
      "мунньу": 8762,
      "Холобур": 8763,
      "pal": 8764,
      "нача": 8765,
      "быры": 8766,
      "written": 8767,
      "ствует": 8768,
      "dogs": 8769,
      "heavy": 8770,
      "Гор": 8771,
      "илээн": 8772,
      "чие": 8773,
      "чут": 8774,
      "үлэли": 8775,
      "олороллор": 8776,
      "таһаарар": 8777,
      "ert": 8778,
      "нях": 8779,
      "mming": 8780,
      "appro": 8781,
      "bags": 8782,
      "аллараа": 8783,
      "basically": 8784,
      "bal": 8785,
      "mort": 8786,
      "Таатта": 8787,
      "фер": 8788,
      "реда": 8789,
      "жей": 8790,
      "trave": 8791,
      "otherwise": 8792,
      "цията": 8793,
      "сылдьыбыта": 8794,
      "ческэй": 8795,
      "Andrew": 8796,
      "писы": 8797,
      "pray": 8798,
      "иванович": 8799,
      "фанасий": 8800,
      "fla": 8801,
      "gos": 8802,
      "выраз": 8803,
      "вшими": 8804,
      "iled": 8805,
      "буолууга": 8806,
      "snow": 8807,
      "tho": 8808,
      "ногами": 8809,
      "andy": 8810,
      "хаам": 8811,
      "пусти": 8812,
      "комп": 8813,
      "слуши": 8814,
      "автор": 8815,
      "сыһыаннаах": 8816,
      "Варвара": 8817,
      "бормотал": 8818,
      "каком": 8819,
      "села": 8820,
      "анынан": 8821,
      "стые": 8822,
      "председа": 8823,
      "биһиэхэ": 8824,
      "boring": 8825,
      "pieces": 8826,
      "pictures": 8827,
      "Pres": 8828,
      "угол": 8829,
      "ҕор": 8830,
      "задум": 8831,
      "spell": 8832,
      "сказали": 8833,
      "норуоттар": 8834,
      "месяц": 8835,
      "cash": 8836,
      "букку": 8837,
      "пери": 8838,
      "түгэ": 8839,
      "радости": 8840,
      "micro": 8841,
      "programme": 8842,
      "жер": 8843,
      "оҥо": 8844,
      "женный": 8845,
      "лошадей": 8846,
      "Fucking": 8847,
      "human": 8848,
      "коми": 8849,
      "душно": 8850,
      "ааспы": 8851,
      "билин": 8852,
      "математи": 8853,
      "teacher": 8854,
      "сохра": 8855,
      "within": 8856,
      "крепо": 8857,
      "thirteen": 8858,
      "бэрээдэ": 8859,
      "сыһыан": 8860,
      "Doesn": 8861,
      "Everything": 8862,
      "Лу": 8863,
      "дри": 8864,
      "кытын": 8865,
      "түбэл": 8866,
      "Steve": 8867,
      "девушка": 8868,
      "сэттэ": 8869,
      "ую": 8870,
      "чных": 8871,
      "itI": 8872,
      "нести": 8873,
      "abo": 8874,
      "ственное": 8875,
      "games": 8876,
      "depends": 8877,
      "Scott": 8878,
      "бырайыак": 8879,
      "Воло": 8880,
      "төлө": 8881,
      "үрдээх": 8882,
      "тиийэр": 8883,
      "Павлов": 8884,
      "American": 8885,
      "бочуоттаах": 8886,
      "гам": 8887,
      "йдара": 8888,
      "кэнники": 8889,
      "Митя": 8890,
      "вашей": 8891,
      "тика": 8892,
      "нял": 8893,
      "Thirty": 8894,
      "түбэһэр": 8895,
      "пяти": 8896,
      "бэрэссэдээтэлэ": 8897,
      "гир": 8898,
      "арх": 8899,
      "ног": 8900,
      "reci": 8901,
      "виду": 8902,
      "motor": 8903,
      "старался": 8904,
      "spea": 8905,
      "осторожно": 8906,
      "ience": 8907,
      "её": 8908,
      "Yeahyeah": 8909,
      "кэлэ": 8910,
      "bridge": 8911,
      "түмүг": 8912,
      "Конечно": 8913,
      "нынче": 8914,
      "көтөн": 8915,
      "wha": 8916,
      "ёр": 8917,
      "█████": 8918,
      "стым": 8919,
      "ненави": 8920,
      "уобалас": 8921,
      "мэл": 8922,
      "немец": 8923,
      "зас": 8924,
      "муора": 8925,
      "иһэ": 8926,
      "бросился": 8927,
      "hotel": 8928,
      "Сергей": 8929,
      "AT": 8930,
      "tab": 8931,
      "дэри": 8932,
      "ктара": 8933,
      "демо": 8934,
      "earch": 8935,
      "starting": 8936,
      "эппитэ": 8937,
      "высоко": 8938,
      "information": 8939,
      "city": 8940,
      "суб": 8941,
      "аап": 8942,
      "голов": 8943,
      "утро": 8944,
      "doors": 8945,
      "Haven": 8946,
      "табыллы": 8947,
      "29": 8948,
      "KING": 8949,
      "Tru": 8950,
      "зин": 8951,
      "дим": 8952,
      "чат": 8953,
      "pecially": 8954,
      "студен": 8955,
      "бэйэтигэр": 8956,
      "Неужели": 8957,
      "brown": 8958,
      "Street": 8959,
      "Ba": 8960,
      "Last": 8961,
      "норо": 8962,
      "herself": 8963,
      "watched": 8964,
      "последнее": 8965,
      "дама": 8966,
      "сыпа": 8967,
      "этиини": 8968,
      "except": 8969,
      "жале": 8970,
      "дворя": 8971,
      "Remember": 8972,
      "insurance": 8973,
      "bre": 8974,
      "bes": 8975,
      "зю": 8976,
      "тихонь": 8977,
      "accept": 8978,
      "обман": 8979,
      "ived": 8980,
      "тэринэн": 8981,
      "ordin": 8982,
      "казать": 8983,
      "удивля": 8984,
      "further": 8985,
      "heaven": 8986,
      "уһа": 8987,
      "үп": 8988,
      "rey": 8989,
      "алдьа": 8990,
      "Поз": 8991,
      "Max": 8992,
      "Республи": 8993,
      "dropped": 8994,
      "церкви": 8995,
      "venteen": 8996,
      "Ja": 8997,
      "аттар": 8998,
      "жных": 8999,
      "анге": 9000,
      "кист": 9001,
      "целый": 9002,
      "этибит": 9003,
      "туохха": 9004,
      "образова": 9005,
      "деятель": 9006,
      "ыытыллыбыт": 9007,
      "etwothreefour": 9008,
      "Hold": 9009,
      "Гу": 9010,
      "Маны": 9011,
      "эчч": 9012,
      "level": 9013,
      "тардыы": 9014,
      "лаахтара": 9015,
      "полков": 9016,
      "буоллахтарына": 9017,
      "dance": 9018,
      "туh": 9019,
      "эһиги": 9020,
      "Хорошо": 9021,
      "cord": 9022,
      "Кыы": 9023,
      "стри": 9024,
      "этиттэн": 9025,
      "лежал": 9026,
      "моем": 9027,
      "пробле": 9028,
      "анаммыт": 9029,
      "quickly": 9030,
      "Emma": 9031,
      "murder": 9032,
      "during": 9033,
      "iam": 9034,
      "Арай": 9035,
      "нит": 9036,
      "wet": 9037,
      "лер": 9038,
      "хода": 9039,
      "cher": 9040,
      "ппуон": 9041,
      "More": 9042,
      "вшихся": 9043,
      "langu": 9044,
      "80": 9045,
      "Гер": 9046,
      "чено": 9047,
      "лыми": 9048,
      "prote": 9049,
      "инээҕи": 9050,
      "Петербурге": 9051,
      "Быйыл": 9052,
      "Nono": 9053,
      "ССР": 9054,
      "умира": 9055,
      "нап": 9056,
      "коф": 9057,
      "андре": 9058,
      "духе": 9059,
      "мама": 9060,
      "Наста": 9061,
      "күүс": 9062,
      "о5о": 9063,
      "вспомнил": 9064,
      "va": 9065,
      "зара": 9066,
      "өст": 9067,
      "тания": 9068,
      "кода": 9069,
      "ближе": 9070,
      "ьева": 9071,
      "редко": 9072,
      "куттал": 9073,
      "rate": 9074,
      "rich": 9075,
      "сразу": 9076,
      "erman": 9077,
      "anno": 9078,
      "stage": 9079,
      "хата": 9080,
      "waste": 9081,
      "элээн": 9082,
      "plane": 9083,
      "өлүөх": 9084,
      "өйү": 9085,
      "Charlie": 9086,
      "ric": 9087,
      "Горо": 9088,
      "влия": 9089,
      "ваши": 9090,
      "минии": 9091,
      "мааны": 9092,
      "спэт": 9093,
      "знали": 9094,
      "бөҕ": 9095,
      "словами": 9096,
      "хочется": 9097,
      "виноват": 9098,
      "kne": 9099,
      "ying": 9100,
      "Га": 9101,
      "Пуга": 9102,
      "изви": 9103,
      "броси": 9104,
      "situation": 9105,
      "твор": 9106,
      "наҕараадалара": 9107,
      "dered": 9108,
      "Ск": 9109,
      "топ": 9110,
      "нут": 9111,
      "ньше": 9112,
      "төн": 9113,
      "sandw": 9114,
      "crack": 9115,
      "Сы": 9116,
      "шкин": 9117,
      "ened": 9118,
      "вера": 9119,
      "dev": 9120,
      "суруналыы": 9121,
      "favor": 9122,
      "address": 9123,
      "опусти": 9124,
      "эдьи": 9125,
      "наша": 9126,
      "везде": 9127,
      "mmmm": 9128,
      "ruit": 9129,
      "дьаһа": 9130,
      "topher": 9131,
      "салайаачч": 9132,
      "хозяин": 9133,
      "Александрович": 9134,
      "Jona": 9135,
      "Lee": 9136,
      "fir": 9137,
      "утар": 9138,
      "нака": 9139,
      "вочник": 9140,
      "деви": 9141,
      "затем": 9142,
      "usting": 9143,
      "эҥин": 9144,
      "Black": 9145,
      "эммитэ": 9146,
      "улиц": 9147,
      "понимал": 9148,
      "eds": 9149,
      "ньигэ": 9150,
      "Почему": 9151,
      "talked": 9152,
      "вяз": 9153,
      "court": 9154,
      "iculous": 9155,
      "недоуме": 9156,
      "празд": 9157,
      "пууннара": 9158,
      "Martin": 9159,
      "бэри": 9160,
      "кана": 9161,
      "кутаа": 9162,
      "часть": 9163,
      "цели": 9164,
      "дьиэтэ": 9165,
      "үҥҥэ": 9166,
      "древ": 9167,
      "кэпсээ": 9168,
      "итэҕэй": 9169,
      "достоин": 9170,
      "алаа": 9171,
      "broken": 9172,
      "желание": 9173,
      "дите": 9174,
      "воен": 9175,
      "upon": 9176,
      "study": 9177,
      "права": 9178,
      "кутскай": 9179,
      "буолбуттара": 9180,
      "тылбаас": 9181,
      "Настась": 9182,
      "Үөр": 9183,
      "руко": 9184,
      "дож": 9185,
      "ниями": 9186,
      "альнай": 9187,
      "норун": 9188,
      "ственные": 9189,
      "position": 9190,
      "YOU": 9191,
      "fright": 9192,
      "sil": 9193,
      "Стр": 9194,
      "Туох": 9195,
      "сидит": 9196,
      "санааҕа": 9197,
      "портал": 9198,
      "collect": 9199,
      "бириэмий": 9200,
      "Чу": 9201,
      "сосед": 9202,
      "usual": 9203,
      "чуж": 9204,
      "тааҕын": 9205,
      "хорошень": 9206,
      "блестя": 9207,
      "сахаларга": 9208,
      "своею": 9209,
      "письма": 9210,
      "treat": 9211,
      "ночью": 9212,
      "миигин": 9213,
      "ible": 9214,
      "аҕал": 9215,
      "фра": 9216,
      "тория": 9217,
      "нетерпе": 9218,
      "elly": 9219,
      "шесть": 9220,
      "остался": 9221,
      "умну": 9222,
      "практи": 9223,
      "явил": 9224,
      "ммат": 9225,
      "Christopher": 9226,
      "Егор": 9227,
      "рэ": 9228,
      "шан": 9229,
      "сабы": 9230,
      "movie": 9231,
      "лэрин": 9232,
      "manage": 9233,
      "дойдутугар": 9234,
      "Кузь": 9235,
      "ull": 9236,
      "беско": 9237,
      "trous": 9238,
      "shops": 9239,
      "pardon": 9240,
      "laughing": 9241,
      "Leave": 9242,
      "60": 9243,
      "уйа": 9244,
      "tomat": 9245,
      "bud": 9246,
      "играть": 9247,
      "күүһүр": 9248,
      "кровь": 9249,
      "баҕара": 9250,
      "Анато": 9251,
      "есте": 9252,
      "thre": 9253,
      "remind": 9254,
      "пошла": 9255,
      "печаль": 9256,
      "ительный": 9257,
      "даахха": 9258,
      "Harry": 9259,
      "batter": 9260,
      "Мария": 9261,
      "хына": 9262,
      "чок": 9263,
      "пос": 9264,
      "вода": 9265,
      "soci": 9266,
      "сулус": 9267,
      "гыны": 9268,
      "Чичиков": 9269,
      "васильев": 9270,
      "Ей": 9271,
      "эь": 9272,
      "нашел": 9273,
      "кух": 9274,
      "илэригэр": 9275,
      "арыыга": 9276,
      "ственным": 9277,
      "visit": 9278,
      "Николаевна": 9279,
      "сырда": 9280,
      "switch": 9281,
      "ребе": 9282,
      "сиин": 9283,
      "уута": 9284,
      "смотрели": 9285,
      "Robert": 9286,
      "Margaret": 9287,
      "щь": 9288,
      "нении": 9289,
      "неприят": 9290,
      "зада": 9291,
      "соеди": 9292,
      "хаалы": 9293,
      "сыт": 9294,
      "seemed": 9295,
      "произо": 9296,
      "simple": 9297,
      "Очень": 9298,
      "Jonathan": 9299,
      "duck": 9300,
      "Ким": 9301,
      "принад": 9302,
      "гыра": 9303,
      "Пере": 9304,
      "сайдыытын": 9305,
      "5о": 9306,
      "fli": 9307,
      "щит": 9308,
      "кулу": 9309,
      "иллэрэ": 9310,
      "возмо": 9311,
      "Aren": 9312,
      "pulled": 9313,
      "можете": 9314,
      "бэчээттэ": 9315,
      "South": 9316,
      "новой": 9317,
      "миро": 9318,
      "көрсө": 9319,
      "skin": 9320,
      "произнес": 9321,
      "гнать": 9322,
      "Hang": 9323,
      "owe": 9324,
      "organ": 9325,
      "албын": 9326,
      "выр": 9327,
      "үөрэхтэ": 9328,
      "основа": 9329,
      "lets": 9330,
      "Somebody": 9331,
      "миэстэ": 9332,
      "аатырбыт": 9333,
      "Cla": 9334,
      "Рас": 9335,
      "алты": 9336,
      "вещи": 9337,
      "sugar": 9338,
      "барыларын": 9339,
      "тельства": 9340,
      "истэр": 9341,
      "Иванови": 9342,
      "өҥүө": 9343,
      "десяти": 9344,
      "принять": 9345,
      "книги": 9346,
      "онньор": 9347,
      "Лука": 9348,
      "Чура": 9349,
      "anny": 9350,
      "stone": 9351,
      "баш": 9352,
      "обеда": 9353,
      "двига": 9354,
      "внимание": 9355,
      "Quite": 9356,
      "Had": 9357,
      "ссия": 9358,
      "аргы": 9359,
      "гори": 9360,
      "хосто": 9361,
      "нули": 9362,
      "өлүү": 9363,
      "ended": 9364,
      "силу": 9365,
      "уверен": 9366,
      "женщин": 9367,
      "fellow": 9368,
      "этно": 9369,
      "cow": 9370,
      "жие": 9371,
      "почт": 9372,
      "чувствовала": 9373,
      "испыты": 9374,
      "захоте": 9375,
      "Neil": 9376,
      "Sus": 9377,
      "Sue": 9378,
      "fut": 9379,
      "байа": 9380,
      "народов": 9381,
      "Кыр": 9382,
      "повторил": 9383,
      "America": 9384,
      "responsi": 9385,
      "Бала": 9386,
      "idence": 9387,
      "dom": 9388,
      "добра": 9389,
      "ыытар": 9390,
      "кэски": 9391,
      "разговари": 9392,
      "үөрэт": 9393,
      "следо": 9394,
      "дойдуну": 9395,
      "орун": 9396,
      "кыахтанар": 9397,
      "numbers": 9398,
      "гроз": 9399,
      "Watch": 9400,
      "ссе": 9401,
      "туоһу": 9402,
      "будешь": 9403,
      "петро": 9404,
      "разда": 9405,
      "shirt": 9406,
      "cheaper": 9407,
      "женкин": 9408,
      "положении": 9409,
      "Павловна": 9410,
      "Олоҥхо": 9411,
      "меша": 9412,
      "сарсыарда": 9413,
      "Stu": 9414,
      "borrow": 9415,
      "увидал": 9416,
      "whis": 9417,
      "inal": 9418,
      "испуган": 9419,
      "обращаясь": 9420,
      "lor": 9421,
      "Ара": 9422,
      "гг": 9423,
      "двину": 9424,
      "ҥас": 9425,
      "наар": 9426,
      "делу": 9427,
      "зато": 9428,
      "стая": 9429,
      "көрбө": 9430,
      "графа": 9431,
      "справочник": 9432,
      "движения": 9433,
      "институт": 9434,
      "сибир": 9435,
      "jum": 9436,
      "шко": 9437,
      "thor": 9438,
      "наҕына": 9439,
      "битигэр": 9440,
      "верить": 9441,
      "sug": 9442,
      "ятся": 9443,
      "быһыытын": 9444,
      "сүрэх": 9445,
      "чинчийи": 9446,
      "решил": 9447,
      "молчали": 9448,
      "swimming": 9449,
      "taste": 9450,
      "Mag": 9451,
      "ии": 9452,
      "необыкнове": 9453,
      "дение": 9454,
      "bell": 9455,
      "михаил": 9456,
      "тих": 9457,
      "мым": 9458,
      "mom": 9459,
      "түгэн": 9460,
      "дьиэтин": 9461,
      "имени": 9462,
      "бросил": 9463,
      "opened": 9464,
      "борь": 9465,
      "dru": 9466,
      "Амма": 9467,
      "охот": 9468,
      "шнего": 9469,
      "энер": 9470,
      "неу": 9471,
      "которыми": 9472,
      "дядя": 9473,
      "мян": 9474,
      "зии": 9475,
      "Everybody": 9476,
      "var": 9477,
      "ори": 9478,
      "ителей": 9479,
      "Comm": 9480,
      "Doctor": 9481,
      "варь": 9482,
      "Петербург": 9483,
      "Ang": 9484,
      "ey": 9485,
      "Мал": 9486,
      "роз": 9487,
      "руке": 9488,
      "screw": 9489,
      "желал": 9490,
      "оҕолоох": 9491,
      "өһээ": 9492,
      "шайте": 9493,
      "Ильич": 9494,
      "event": 9495,
      "уну": 9496,
      "эли": 9497,
      "непри": 9498,
      "анньы": 9499,
      "lect": 9500,
      "ческое": 9501,
      "lier": 9502,
      "проч": 9503,
      "нулись": 9504,
      "ief": 9505,
      "produ": 9506,
      "далее": 9507,
      "большие": 9508,
      "closed": 9509,
      "Ивана": 9510,
      "public": 9511,
      "кыһата": 9512,
      "сэмэй": 9513,
      "бигэрг": 9514,
      "Rose": 9515,
      "apo": 9516,
      "үбүл": 9517,
      "быппыт": 9518,
      "сочи": 9519,
      "нуться": 9520,
      "уора": 9521,
      "требу": 9522,
      "дойдулар": 9523,
      "Куда": 9524,
      "Anything": 9525,
      "убежде": 9526,
      "постели": 9527,
      "experience": 9528,
      "Иисус": 9529,
      "информационный": 9530,
      "ops": 9531,
      "ured": 9532,
      "ists": 9533,
      "өйдөр": 9534,
      "экономика": 9535,
      "Соро": 9536,
      "нак": 9537,
      "orange": 9538,
      "быдан": 9539,
      "especially": 9540,
      "өттө": 9541,
      "мгновение": 9542,
      "даҕа": 9543,
      "тим": 9544,
      "спал": 9545,
      "харыстыыр": 9546,
      "cell": 9547,
      "jud": 9548,
      "Мат": 9549,
      "афанась": 9550,
      "хын": 9551,
      "дескать": 9552,
      "hoh": 9553,
      "слез": 9554,
      "старо": 9555,
      "каре": 9556,
      "Петровна": 9557,
      "дрожа": 9558,
      "оонньо": 9559,
      "тюрь": 9560,
      "миниист": 9561,
      "каженкин": 9562,
      "избе": 9563,
      "уустара": 9564,
      "подозре": 9565,
      "встречу": 9566,
      "мужик": 9567,
      "культуратын": 9568,
      "ошиб": 9569,
      "Түмэн": 9570,
      "Half": 9571,
      "анаа": 9572,
      "нөҥүө": 9573,
      "новые": 9574,
      "gover": 9575,
      "ньа": 9576,
      "скими": 9577,
      "complain": 9578,
      "окно": 9579,
      "сүбэ": 9580,
      "думаете": 9581,
      "туруктаах": 9582,
      "спек": 9583,
      "решился": 9584,
      "Дени": 9585,
      "empty": 9586,
      "хампаанньа": 9587,
      "Mother": 9588,
      "sion": 9589,
      "закон": 9590,
      "мох": 9591,
      "прокля": 9592,
      "note": 9593,
      "ounds": 9594,
      "оску": 9595,
      "гиня": 9596,
      "үкс": 9597,
      "умнул": 9598,
      "олохтоохторун": 9599,
      "зубы": 9600,
      "пожалуйста": 9601,
      "велел": 9602,
      "hungry": 9603,
      "suggest": 9604,
      "гка": 9605,
      "цин": 9606,
      "нилов": 9607,
      "любез": 9608,
      "downstairs": 9609,
      "төтт": 9610,
      "брать": 9611,
      "видели": 9612,
      "prep": 9613,
      "Саҥа": 9614,
      "уничто": 9615,
      "господина": 9616,
      "promise": 9617,
      "бөһүөл": 9618,
      "VI": 9619,
      "base": 9620,
      "tall": 9621,
      "Ро": 9622,
      "сва": 9623,
      "диэни": 9624,
      "прошу": 9625,
      "ridiculous": 9626,
      "speed": 9627,
      "keys": 9628,
      "paint": 9629,
      "OM": 9630,
      "ize": 9631,
      "зай": 9632,
      "cock": 9633,
      "covered": 9634,
      "ппүт": 9635,
      "undern": 9636,
      "Боже": 9637,
      "балаһы": 9638,
      "ааттыыллар": 9639,
      "фанта": 9640,
      "Hmm": 9641,
      "chat": 9642,
      "чөм": 9643,
      "носи": 9644,
      "нек": 9645,
      "рома": 9646,
      "грамо": 9647,
      "ситет": 9648,
      "спрашивал": 9649,
      "fed": 9650,
      "мак": 9651,
      "мания": 9652,
      "выпу": 9653,
      "түгэр": 9654,
      "ственных": 9655,
      "недоста": 9656,
      "состоянии": 9657,
      "Gary": 9658,
      "Turn": 9659,
      "Whatever": 9660,
      "үүнэр": 9661,
      "губерна": 9662,
      "involved": 9663,
      "давеча": 9664,
      "underneath": 9665,
      "мэйи": 9666,
      "admit": 9667,
      "butter": 9668,
      "cking": 9669,
      "лааҕын": 9670,
      "хаалла": 9671,
      "private": 9672,
      "Might": 9673,
      "Red": 9674,
      "fear": 9675,
      "вичу": 9676,
      "track": 9677,
      "Helen": 9678,
      "смотри": 9679,
      "cupboard": 9680,
      "ситиһиилээхтик": 9681,
      "дьоппуон": 9682,
      "внезап": 9683,
      "ak": 9684,
      "ili": 9685,
      "мно": 9686,
      "таары": 9687,
      "эрч": 9688,
      "гост": 9689,
      "кос": 9690,
      "разных": 9691,
      "themselves": 9692,
      "Оннук": 9693,
      "favour": 9694,
      "tions": 9695,
      "общества": 9696,
      "маленький": 9697,
      "театр": 9698,
      "finger": 9699,
      "Ростов": 9700,
      "fresh": 9701,
      "Чурапчы": 9702,
      "Pre": 9703,
      "татар": 9704,
      "idi": 9705,
      "дьуон": 9706,
      "calls": 9707,
      "красно": 9708,
      "толкуйда": 9709,
      "чуолкай": 9710,
      "nic": 9711,
      "Без": 9712,
      "оха": 9713,
      "ахты": 9714,
      "олог": 9715,
      "петр": 9716,
      "кыһы": 9717,
      "поля": 9718,
      "воскре": 9719,
      "Call": 9720,
      "Ос": 9721,
      "пиро": 9722,
      "prison": 9723,
      "коля": 9724,
      "ственного": 9725,
      "smart": 9726,
      "площа": 9727,
      "Соф": 9728,
      "пойду": 9729,
      "rat": 9730,
      "Бар": 9731,
      "күһ": 9732,
      "чительно": 9733,
      "аров": 9734,
      "иле": 9735,
      "элээ": 9736,
      "переста": 9737,
      "Дьон": 9738,
      "papers": 9739,
      "бороду": 9740,
      "кэргэнэ": 9741,
      "honestly": 9742,
      "Хас": 9743,
      "атаах": 9744,
      "покрасне": 9745,
      "састаа": 9746,
      "бору": 9747,
      "нэди": 9748,
      "riage": 9749,
      "plastic": 9750,
      "icky": 9751,
      "clever": 9752,
      "үүнү": 9753,
      "внимания": 9754,
      "soft": 9755,
      "Сам": 9756,
      "ьын": 9757,
      "диэтэххэ": 9758,
      "чааһы": 9759,
      "uses": 9760,
      "иһэллэр": 9761,
      "истэҕинэ": 9762,
      "велико": 9763,
      "работа": 9764,
      "иннигэр": 9765,
      "любила": 9766,
      "иди": 9767,
      "точка": 9768,
      "ref": 9769,
      "кутун": 9770,
      "лем": 9771,
      "тиэр": 9772,
      "откуда": 9773,
      "рых": 9774,
      "обеща": 9775,
      "Sometimes": 9776,
      "отноше": 9777,
      "Billy": 9778,
      "lu": 9779,
      "сре": 9780,
      "новый": 9781,
      "тыллары": 9782,
      "вниз": 9783,
      "ила": 9784,
      "ктарын": 9785,
      "зам": 9786,
      "стию": 9787,
      "boo": 9788,
      "полно": 9789,
      "тыллаах": 9790,
      "prove": 9791,
      "████████████████████████": 9792,
      "объя": 9793,
      "сайдыылаах": 9794,
      "нэһилиэктэр": 9795,
      "eggs": 9796,
      "large": 9797,
      "Little": 9798,
      "жка": 9799,
      "напол": 9800,
      "наверно": 9801,
      "годы": 9802,
      "горий": 9803,
      "даан": 9804,
      "изо": 9805,
      "prefer": 9806,
      "flowers": 9807,
      "располо": 9808,
      "trousers": 9809,
      "Dar": 9810,
      "pink": 9811,
      "ия": 9812,
      "фср": 9813,
      "куон": 9814,
      "дое": 9815,
      "ческого": 9816,
      "көх": 9817,
      "Next": 9818,
      "Sally": 9819,
      "считал": 9820,
      "пошли": 9821,
      "туры": 9822,
      "доче": 9823,
      "газе": 9824,
      "охха": 9825,
      "любя": 9826,
      "ager": 9827,
      "итини": 9828,
      "кинилэри": 9829,
      "nights": 9830,
      "кыыһы": 9831,
      "ступил": 9832,
      "исклю": 9833,
      "Трофимо": 9834,
      "Mc": 9835,
      "мыы": 9836,
      "аныгар": 9837,
      "exp": 9838,
      "эһинэ": 9839,
      "молоде": 9840,
      "быыбар": 9841,
      "буолууну": 9842,
      "рсфср": 9843,
      "оччото": 9844,
      "угодно": 9845,
      "дьадаҥы": 9846,
      "shar": 9847,
      "а5": 9848,
      "увле": 9849,
      "саар": 9850,
      "подхва": 9851,
      "ards": 9852,
      "явился": 9853,
      "Между": 9854,
      "ницей": 9855,
      "сыллардаахха": 9856,
      "АХ": 9857,
      "orig": 9858,
      "анар": 9859,
      "олоҥ": 9860,
      "приш": 9861,
      "верху": 9862,
      "йдэр": 9863,
      "рассказал": 9864,
      "войска": 9865,
      "чувств": 9866,
      "Этот": 9867,
      "Johnny": 9868,
      "сайдыытыгар": 9869,
      "ппыта": 9870,
      "следует": 9871,
      "ino": 9872,
      "onto": 9873,
      "оҕор": 9874,
      "расно": 9875,
      "ойду": 9876,
      "утвер": 9877,
      "Даже": 9878,
      "экспе": 9879,
      "насчет": 9880,
      "никому": 9881,
      "монасты": 9882,
      "онер": 9883,
      "noise": 9884,
      "мала": 9885,
      "гад": 9886,
      "часы": 9887,
      "neigh": 9888,
      "кээм": 9889,
      "traff": 9890,
      "ples": 9891,
      "слезами": 9892,
      "дарга": 9893,
      "ортотугар": 9894,
      "редка": 9895,
      "Николаевич": 9896,
      "жут": 9897,
      "уез": 9898,
      "сочч": 9899,
      "ury": 9900,
      "██████████████████": 9901,
      "ыллыбыта": 9902,
      "русский": 9903,
      "русского": 9904,
      "ski": 9905,
      "hanging": 9906,
      "худож": 9907,
[...]
